const unsigned char emg_model_data[] = {
  0x1c, 0x00, 0x00, 0x00, 0x54, 0x46, 0x4c, 0x33, 0x14, 0x00, 0x20, 0x00, 
  0x1c, 0x00, 0x18, 0x00, 0x14, 0x00, 0x10, 0x00, 0x0c, 0x00, 0x00, 0x00, 
  0x08, 0x00, 0x04, 0x00, 0x14, 0x00, 0x00, 0x00, 0x1c, 0x00, 0x00, 0x00, 
  0x98, 0x00, 0x00, 0x00, 0xf0, 0x00, 0x00, 0x00, 0x58, 0x0d, 0x00, 0x00, 
  0x68, 0x0d, 0x00, 0x00, 0x1c, 0x13, 0x00, 0x00, 0x03, 0x00, 0x00, 0x00, 
  0x01, 0x00, 0x00, 0x00, 0x10, 0x00, 0x00, 0x00, 0x00, 0x00, 0x0a, 0x00, 
  0x10, 0x00, 0x0c, 0x00, 0x08, 0x00, 0x04, 0x00, 0x0a, 0x00, 0x00, 0x00, 
  0x0c, 0x00, 0x00, 0x00, 0x1c, 0x00, 0x00, 0x00, 0x3c, 0x00, 0x00, 0x00, 
  0x0f, 0x00, 0x00, 0x00, 0x73, 0x65, 0x72, 0x76, 0x69, 0x6e, 0x67, 0x5f, 
  0x64, 0x65, 0x66, 0x61, 0x75, 0x6c, 0x74, 0x00, 0x01, 0x00, 0x00, 0x00, 
  0x04, 0x00, 0x00, 0x00, 0x90, 0xff, 0xff, 0xff, 0x0a, 0x00, 0x00, 0x00, 
  0x04, 0x00, 0x00, 0x00, 0x08, 0x00, 0x00, 0x00, 0x6f, 0x75, 0x74, 0x70, 
  0x75, 0x74, 0x5f, 0x30, 0x00, 0x00, 0x00, 0x00, 0x01, 0x00, 0x00, 0x00, 
  0x04, 0x00, 0x00, 0x00, 0x8e, 0xf2, 0xff, 0xff, 0x04, 0x00, 0x00, 0x00, 
  0x0e, 0x00, 0x00, 0x00, 0x6b, 0x65, 0x72, 0x61, 0x73, 0x5f, 0x74, 0x65, 
  0x6e, 0x73, 0x6f, 0x72, 0x5f, 0x36, 0x00, 0x00, 0x02, 0x00, 0x00, 0x00, 
  0x34, 0x00, 0x00, 0x00, 0x04, 0x00, 0x00, 0x00, 0xdc, 0xff, 0xff, 0xff, 
  0x0d, 0x00, 0x00, 0x00, 0x04, 0x00, 0x00, 0x00, 0x13, 0x00, 0x00, 0x00, 
  0x43, 0x4f, 0x4e, 0x56, 0x45, 0x52, 0x53, 0x49, 0x4f, 0x4e, 0x5f, 0x4d, 
  0x45, 0x54, 0x41, 0x44, 0x41, 0x54, 0x41, 0x00, 0x08, 0x00, 0x0c, 0x00, 
  0x08, 0x00, 0x04, 0x00, 0x08, 0x00, 0x00, 0x00, 0x0c, 0x00, 0x00, 0x00, 
  0x04, 0x00, 0x00, 0x00, 0x13, 0x00, 0x00, 0x00, 0x6d, 0x69, 0x6e, 0x5f, 
  0x72, 0x75, 0x6e, 0x74, 0x69, 0x6d, 0x65, 0x5f, 0x76, 0x65, 0x72, 0x73, 
  0x69, 0x6f, 0x6e, 0x00, 0x0e, 0x00, 0x00, 0x00, 0x64, 0x0c, 0x00, 0x00, 
  0x5c, 0x0c, 0x00, 0x00, 0xcc, 0x0b, 0x00, 0x00, 0xbc, 0x03, 0x00, 0x00, 
  0xa4, 0x03, 0x00, 0x00, 0x54, 0x03, 0x00, 0x00, 0xc4, 0x02, 0x00, 0x00, 
  0xb4, 0x00, 0x00, 0x00, 0xac, 0x00, 0x00, 0x00, 0xa4, 0x00, 0x00, 0x00, 
  0x9c, 0x00, 0x00, 0x00, 0x94, 0x00, 0x00, 0x00, 0x74, 0x00, 0x00, 0x00, 
  0x04, 0x00, 0x00, 0x00, 0x42, 0xf3, 0xff, 0xff, 0x04, 0x00, 0x00, 0x00, 
  0x60, 0x00, 0x00, 0x00, 0x0c, 0x00, 0x00, 0x00, 0x08, 0x00, 0x0e, 0x00, 
  0x08, 0x00, 0x04, 0x00, 0x08, 0x00, 0x00, 0x00, 0x10, 0x00, 0x00, 0x00, 
  0x28, 0x00, 0x00, 0x00, 0x00, 0x00, 0x06, 0x00, 0x08, 0x00, 0x04, 0x00, 
  0x06, 0x00, 0x00, 0x00, 0x04, 0x00, 0x00, 0x00, 0x01, 0x00, 0x00, 0x00, 
  0xea, 0x03, 0x00, 0x00, 0x0c, 0x00, 0x18, 0x00, 0x14, 0x00, 0x10, 0x00, 
  0x0c, 0x00, 0x04, 0x00, 0x0c, 0x00, 0x00, 0x00, 0x14, 0xff, 0x5e, 0x43, 
  0x34, 0x04, 0x35, 0x63, 0x02, 0x00, 0x00, 0x00, 0x02, 0x00, 0x00, 0x00, 
  0x04, 0x00, 0x00, 0x00, 0x06, 0x00, 0x00, 0x00, 0x32, 0x2e, 0x31, 0x39, 
  0x2e, 0x30, 0x00, 0x00, 0xae, 0xf3, 0xff, 0xff, 0x04, 0x00, 0x00, 0x00, 
  0x10, 0x00, 0x00, 0x00, 0x31, 0x2e, 0x35, 0x2e, 0x30, 0x00, 0x00, 0x00, 
  0x00, 0x00, 0x00, 0x00, 0x00, 0x00, 0x00, 0x00, 0xc8, 0xee, 0xff, 0xff, 
  0xcc, 0xee, 0xff, 0xff, 0xd0, 0xee, 0xff, 0xff, 0xd4, 0xee, 0xff, 0xff, 
  0xda, 0xf3, 0xff, 0xff, 0x04, 0x00, 0x00, 0x00, 0x00, 0x02, 0x00, 0x00, 
  0x57, 0x93, 0x19, 0x3d, 0xe7, 0x8d, 0x1a, 0x3f, 0x02, 0xd1, 0xa3, 0xbe, 
  0x9e, 0x98, 0x1b, 0x3e, 0x44, 0xe2, 0x69, 0xbd, 0x61, 0xeb, 0x9d, 0xbe, 
  0x37, 0x3e, 0xcf, 0xbe, 0x8d, 0x20, 0xe7, 0x3d, 0xa7, 0x80, 0x49, 0xbe, 
  0xff, 0x80, 0xf4, 0xbe, 0xe1, 0xad, 0x52, 0xbe, 0x06, 0x10, 0xcf, 0xbd, 
  0x35, 0x2d, 0xc0, 0x3e, 0x86, 0x0f, 0xcd, 0xbe, 0x7c, 0xcd, 0x81, 0x3e, 
  0x63, 0x0a, 0x64, 0xbe, 0x30, 0xae, 0xb5, 0x3c, 0x47, 0xcd, 0x64, 0x3f, 
  0x16, 0x3d, 0x24, 0xbc, 0x3f, 0x7a, 0x71, 0xbd, 0xb6, 0xf0, 0x09, 0x3e, 
  0xb3, 0x9f, 0xa6, 0x3e, 0x63, 0xd8, 0x25, 0x3f, 0x9e, 0xc4, 0x3f, 0xbe, 
  0x9e, 0xc4, 0x8e, 0x3e, 0xe1, 0x66, 0x42, 0x3e, 0x9f, 0xfd, 0x8a, 0xbd, 
  0x68, 0x4e, 0xe6, 0x3e, 0x7b, 0xe0, 0x25, 0xbc, 0xe3, 0x07, 0xa5, 0xbd, 
  0x1c, 0x7c, 0x68, 0xbb, 0x24, 0xad, 0x10, 0x3e, 0x8e, 0xaa, 0xd9, 0x3c, 
  0x1d, 0x09, 0xa2, 0x3d, 0x01, 0xd8, 0x2b, 0x3d, 0x49, 0x6e, 0xa2, 0xbe, 
  0x13, 0x94, 0x26, 0xbe, 0x21, 0x71, 0x33, 0x3f, 0xc2, 0x87, 0xbc, 0xbe, 
  0xd9, 0x86, 0x73, 0x3e, 0x18, 0x5a, 0x73, 0x3a, 0xf6, 0x45, 0x3f, 0x3f, 
  0xf1, 0xc0, 0xd3, 0x3e, 0x39, 0xd3, 0x34, 0x3d, 0xb0, 0x0b, 0xbc, 0x3d, 
  0x53, 0x5c, 0xc0, 0xbe, 0x37, 0x99, 0xa0, 0xbd, 0x14, 0xe4, 0x58, 0x3e, 
  0x8f, 0x65, 0xe1, 0xbd, 0xb4, 0xb8, 0xf7, 0xbe, 0x38, 0xb6, 0x72, 0xbd, 
  0xfe, 0x5a, 0x2f, 0xbe, 0x48, 0xd6, 0x66, 0xbe, 0xc5, 0xc3, 0x39, 0xbe, 
  0x36, 0xd7, 0xa9, 0xbe, 0x46, 0x3f, 0xe7, 0xbd, 0xb0, 0x22, 0xe0, 0x3e, 
  0x46, 0xa3, 0xfd, 0xbd, 0xe4, 0xfc, 0xc6, 0x3e, 0xba, 0x99, 0x6d, 0xbe, 
  0x78, 0xe1, 0x8f, 0xbd, 0x3c, 0xd4, 0xd1, 0x3e, 0x58, 0xc1, 0x16, 0x3f, 
  0x2a, 0xdf, 0x60, 0x3e, 0xf1, 0x89, 0x2c, 0x3d, 0xfb, 0x90, 0x6c, 0xbe, 
  0x1f, 0xb1, 0xe6, 0x3c, 0x79, 0x3f, 0x29, 0xbe, 0xbd, 0x8a, 0x70, 0xbe, 
  0x98, 0xf3, 0xad, 0xbe, 0xb6, 0x13, 0xce, 0xbd, 0x4c, 0xbb, 0x9b, 0x3e, 
  0x50, 0xc3, 0xcd, 0x3c, 0x04, 0x36, 0x5a, 0x3f, 0xa5, 0x59, 0x11, 0x3e, 
  0xac, 0xa8, 0x57, 0xbd, 0x5d, 0x44, 0xca, 0x3e, 0xc6, 0x80, 0x10, 0x3f, 
  0x59, 0x51, 0x97, 0x3d, 0x57, 0xce, 0xe1, 0x3d, 0xe8, 0x61, 0x85, 0xbe, 
  0x86, 0xf7, 0x4b, 0x3f, 0x3a, 0x61, 0xe6, 0xbd, 0xff, 0xaf, 0xc2, 0xbe, 
  0x86, 0x02, 0x9e, 0xbe, 0x99, 0xdd, 0x9c, 0x3e, 0x29, 0x01, 0x13, 0x3f, 
  0xaa, 0xc6, 0x97, 0xbd, 0x33, 0x0f, 0x22, 0x3e, 0xfb, 0x37, 0xb6, 0x3e, 
  0x07, 0xa2, 0x3a, 0x3e, 0x00, 0xfe, 0xad, 0xbe, 0xfc, 0x9b, 0x27, 0xbd, 
  0xaf, 0x83, 0xc4, 0xbe, 0xda, 0xcf, 0x89, 0xbe, 0xc0, 0x16, 0x83, 0x3c, 
  0xba, 0x08, 0x44, 0x3e, 0x76, 0x6e, 0xe1, 0x3c, 0xb9, 0x96, 0x0b, 0xbf, 
  0x49, 0xd5, 0x4f, 0xbd, 0x6b, 0x8d, 0x6f, 0x3e, 0xb7, 0x59, 0x15, 0xbe, 
  0xd7, 0x32, 0x4b, 0xbd, 0x7a, 0x75, 0x0a, 0x3e, 0x18, 0xb3, 0x65, 0x3e, 
  0x5d, 0x8c, 0xa4, 0x3e, 0x9e, 0x29, 0x80, 0x3e, 0xf3, 0x4e, 0x0d, 0xbe, 
  0x10, 0x6e, 0xf7, 0xbe, 0xff, 0x07, 0x8b, 0x3c, 0x9a, 0x02, 0x37, 0x3e, 
  0xfe, 0x94, 0x56, 0x3e, 0x3e, 0x02, 0x1e, 0xbd, 0x78, 0x79, 0xc5, 0xbd, 
  0x17, 0x95, 0x16, 0x3f, 0x6f, 0x38, 0xbe, 0xbd, 0x73, 0x5f, 0x06, 0xbd, 
  0x6b, 0x4f, 0x2d, 0x3f, 0x42, 0xa1, 0xd6, 0xbd, 0x1d, 0x50, 0x5f, 0x3d, 
  0x49, 0xae, 0xeb, 0xbd, 0x55, 0x3d, 0x01, 0xbf, 0x5a, 0x2d, 0x98, 0xbe, 
  0x92, 0x85, 0x79, 0xbd, 0x95, 0xe4, 0x8f, 0x3c, 0x09, 0xd3, 0x0d, 0x3f, 
  0x2d, 0x33, 0xa2, 0x3d, 0x1f, 0x5b, 0x1a, 0xbd, 0xe6, 0xf5, 0xff, 0xff, 
  0x04, 0x00, 0x00, 0x00, 0x80, 0x00, 0x00, 0x00, 0x8b, 0x79, 0xc2, 0xbd, 
  0x28, 0x23, 0x4b, 0x3d, 0x40, 0x44, 0xdc, 0x3d, 0x85, 0x05, 0xb7, 0xbd, 
  0x63, 0x08, 0xd6, 0x3d, 0x68, 0xa6, 0x7e, 0x3c, 0x46, 0x43, 0x9f, 0xbe, 
  0xc6, 0xc8, 0x88, 0xbb, 0x47, 0x81, 0x55, 0xbe, 0x5a, 0xea, 0xca, 0xbd, 
  0xec, 0xbf, 0xed, 0x3a, 0x6a, 0xc1, 0x81, 0xbe, 0x25, 0x35, 0x46, 0xbe, 
  0x79, 0xe6, 0x4f, 0xbe, 0xac, 0xc9, 0x8e, 0xbd, 0xf3, 0xea, 0x8c, 0x3c, 
  0x2a, 0x38, 0xa3, 0xbd, 0xf4, 0xb0, 0x6b, 0x3d, 0x3f, 0xc2, 0xf2, 0x3d, 
  0x37, 0x81, 0x90, 0xba, 0xc1, 0xf0, 0x1d, 0xbd, 0xd8, 0x5d, 0x12, 0xbd, 
  0x63, 0x1b, 0x67, 0x3d, 0x2d, 0x6e, 0xfb, 0x3d, 0x10, 0x42, 0x9a, 0xbc, 
  0x9d, 0x66, 0xdc, 0xbe, 0x32, 0x1b, 0x21, 0x3e, 0x7c, 0x06, 0xa2, 0x3d, 
  0x69, 0x8b, 0xf0, 0xbc, 0x07, 0x66, 0x08, 0x3e, 0x4b, 0x54, 0x00, 0xbd, 
  0x1d, 0x89, 0xd2, 0x3d, 0x72, 0xf6, 0xff, 0xff, 0x04, 0x00, 0x00, 0x00, 
  0x40, 0x00, 0x00, 0x00, 0xc1, 0x04, 0x26, 0xbe, 0x02, 0x92, 0x8b, 0x3e, 
  0x2e, 0x8a, 0x65, 0x3e, 0xcc, 0xfd, 0x20, 0xbe, 0x95, 0xd1, 0x3c, 0xbd, 
  0xe7, 0xf9, 0x4e, 0x3d, 0xc4, 0x82, 0xc9, 0x3d, 0x25, 0xfc, 0x46, 0xbd, 
  0x1c, 0x25, 0x64, 0x3d, 0xda, 0x4d, 0x77, 0x3c, 0x07, 0x3e, 0xcb, 0xbd, 
  0xeb, 0xbf, 0x73, 0xbd, 0xd4, 0x79, 0x2c, 0xbd, 0x07, 0x11, 0x1e, 0xbd, 
  0x2c, 0x40, 0x1e, 0xbe, 0x26, 0x16, 0xdd, 0x3d, 0xbe, 0xf6, 0xff, 0xff, 
  0x04, 0x00, 0x00, 0x00, 0x08, 0x00, 0x00, 0x00, 0x5c, 0xbd, 0x2a, 0x3e, 
  0x62, 0xbd, 0x2a, 0xbe, 0xd2, 0xf6, 0xff, 0xff, 0x04, 0x00, 0x00, 0x00, 
  0x00, 0x08, 0x00, 0x00, 0xc8, 0xe7, 0x95, 0xbe, 0x5e, 0x67, 0x03, 0x3e, 
  0xf7, 0x82, 0x08, 0xbf, 0x2a, 0x5c, 0xc5, 0xbd, 0x5d, 0x93, 0x4e, 0xbe, 
  0x2e, 0x4b, 0x46, 0x3e, 0x2c, 0x0e, 0xef, 0xbe, 0x51, 0x55, 0x98, 0xbe, 
  0xb6, 0x71, 0x69, 0xbe, 0xf3, 0x02, 0xdc, 0x3d, 0x2a, 0x21, 0xca, 0xbd, 
  0xf5, 0xbc, 0x1a, 0x3e, 0x65, 0xcf, 0xd1, 0xbc, 0x80, 0xad, 0xc8, 0xbe, 
  0x92, 0x00, 0x40, 0x3e, 0x55, 0x38, 0xa5, 0xbe, 0x7a, 0x0b, 0xa6, 0xbe, 
  0x75, 0x02, 0x21, 0x3e, 0x28, 0x78, 0xe2, 0x3e, 0x83, 0x6a, 0x53, 0xbc, 
  0x7f, 0xec, 0x00, 0xbe, 0xdb, 0x47, 0x9a, 0xbe, 0xff, 0x08, 0x93, 0xbe, 
  0xff, 0x9e, 0xc0, 0x3c, 0x32, 0xfe, 0x0d, 0xbe, 0x52, 0x75, 0xc7, 0xbe, 
  0x4d, 0x5f, 0x97, 0xbe, 0xaf, 0x2b, 0x4e, 0x3d, 0x15, 0x46, 0x40, 0x3e, 
  0xf9, 0x41, 0xc0, 0xbe, 0x26, 0xf5, 0xd3, 0xbc, 0xbe, 0x4e, 0x35, 0xbe, 
  0x68, 0xf3, 0x9e, 0xbe, 0x70, 0x61, 0x0b, 0x3e, 0x07, 0x4b, 0x77, 0x3e, 
  0x0b, 0xfa, 0x99, 0xbe, 0xb2, 0x1a, 0x08, 0x3c, 0xca, 0x88, 0x06, 0xbe, 
  0xc5, 0x23, 0xac, 0xbe, 0x27, 0x20, 0x8a, 0x3e, 0x80, 0x44, 0x97, 0xbd, 
  0x36, 0x0f, 0x31, 0x3e, 0xec, 0x3d, 0xe4, 0xbd, 0x7f, 0x8a, 0x5b, 0x3c, 
  0x67, 0x84, 0xee, 0x3e, 0xfb, 0x1f, 0x46, 0xbe, 0x0d, 0xdd, 0x24, 0xbe, 
  0xbe, 0xa9, 0x8d, 0x3e, 0x01, 0xe9, 0x7d, 0x3e, 0xe1, 0xcd, 0x2b, 0x3e, 
  0x1a, 0x17, 0xc2, 0xbe, 0xa7, 0xad, 0x51, 0xbf, 0xd8, 0x7f, 0x97, 0x3d, 
  0xcd, 0xff, 0x29, 0xbe, 0x80, 0xa9, 0xae, 0x3d, 0x46, 0x7c, 0x8c, 0x3e, 
  0x5c, 0xec, 0xc1, 0xbb, 0xe5, 0x9e, 0x01, 0xbf, 0x0a, 0x53, 0xbc, 0x3d, 
  0xb0, 0x20, 0x9a, 0xbd, 0xab, 0xe2, 0x49, 0xbe, 0x84, 0xbc, 0x0c, 0xbe, 
  0x88, 0xb4, 0xba, 0x3e, 0x10, 0x55, 0xb1, 0xbe, 0x41, 0x0a, 0x12, 0xbe, 
  0x14, 0xe0, 0xac, 0x3e, 0x68, 0xde, 0x6a, 0x3e, 0x59, 0x2a, 0xb9, 0x3d, 
  0x7f, 0x6c, 0x35, 0x3e, 0xdf, 0x7e, 0x1c, 0xbe, 0xd7, 0xe0, 0xb3, 0x3e, 
  0xd3, 0xaf, 0xa4, 0x3e, 0x5d, 0xfd, 0x09, 0x3e, 0x99, 0x7a, 0x30, 0xbd, 
  0xdb, 0x52, 0x2d, 0xbf, 0xff, 0x0d, 0x52, 0x3e, 0x36, 0x3a, 0x34, 0x3e, 
  0x33, 0x84, 0x8e, 0x3e, 0x75, 0xc2, 0x9a, 0x3e, 0x56, 0x6a, 0xdf, 0xbe, 
  0xe2, 0xbc, 0x8e, 0x3e, 0xb9, 0x5c, 0x96, 0x3e, 0xa0, 0x37, 0xb7, 0xbe, 
  0x35, 0x9c, 0x7d, 0x3e, 0x1f, 0x92, 0xa0, 0xbe, 0x90, 0x74, 0x8c, 0x3e, 
  0x99, 0xd1, 0x8c, 0x3e, 0x8b, 0x38, 0x98, 0x3d, 0x56, 0x1a, 0xfe, 0x3d, 
  0xae, 0x31, 0x59, 0xbd, 0xbb, 0x85, 0x25, 0xbe, 0x5e, 0xbf, 0x12, 0x3e, 
  0xcf, 0xcf, 0xa5, 0xbe, 0xb2, 0xb5, 0x02, 0xbe, 0x25, 0xd2, 0x70, 0xbe, 
  0x60, 0x38, 0x8c, 0xbe, 0x9a, 0x18, 0x91, 0xbe, 0x92, 0x9b, 0x3e, 0xbf, 
  0x4d, 0x55, 0xa7, 0x3d, 0xf3, 0x64, 0x87, 0x3e, 0xcf, 0x40, 0x99, 0xbe, 
  0x00, 0xb5, 0xaf, 0xbd, 0xd5, 0x7d, 0x2c, 0xbe, 0x9d, 0xff, 0x59, 0xbe, 
  0x07, 0xfd, 0x9d, 0x3d, 0x11, 0x2f, 0xc5, 0x3c, 0x79, 0xe8, 0x01, 0x3f, 
  0x07, 0xd0, 0xbe, 0xbe, 0xcf, 0x08, 0x2e, 0xbd, 0x4a, 0xe4, 0x0a, 0xbe, 
  0xae, 0x8e, 0x9a, 0x3e, 0x4c, 0x3c, 0xb6, 0x3e, 0x98, 0x80, 0x1e, 0x3e, 
  0xde, 0xbf, 0x3f, 0x3d, 0x4a, 0xbb, 0x2b, 0xbe, 0x47, 0x12, 0x52, 0x3c, 
  0xf7, 0x55, 0x5d, 0xbe, 0xe4, 0x7c, 0x9c, 0x3e, 0x27, 0x58, 0x5b, 0x3e, 
  0x34, 0x78, 0x28, 0xbd, 0xde, 0x46, 0x2b, 0xbf, 0x94, 0x32, 0x84, 0xbe, 
  0x5c, 0x71, 0xbd, 0xbd, 0x73, 0x3f, 0xa6, 0x3e, 0x7f, 0xdd, 0x26, 0x3e, 
  0x1c, 0xf8, 0x2e, 0x3e, 0x9f, 0x2c, 0x04, 0xbe, 0x1d, 0x52, 0x7b, 0x3e, 
  0x85, 0x73, 0x7f, 0x3e, 0x43, 0xe0, 0x6b, 0xbe, 0xb6, 0x55, 0x8e, 0x3d, 
  0xf7, 0x02, 0x7d, 0x3e, 0x9c, 0x2a, 0xcb, 0xbe, 0x11, 0x85, 0xc8, 0x3e, 
  0x36, 0xdd, 0x92, 0xbe, 0xed, 0x88, 0xa3, 0x3e, 0xc9, 0x33, 0x22, 0x3e, 
  0x8b, 0x62, 0x97, 0xbe, 0x0a, 0x1d, 0x9f, 0xbc, 0x33, 0xfc, 0x15, 0xbd, 
  0xa7, 0x56, 0x9e, 0xbd, 0x2f, 0xeb, 0x61, 0x3e, 0xae, 0x91, 0x67, 0x3e, 
  0xea, 0x91, 0x91, 0xbc, 0x7c, 0x0f, 0x07, 0xbd, 0x10, 0xb0, 0xb7, 0x3d, 
  0x44, 0x50, 0x96, 0xbd, 0x21, 0x27, 0xbd, 0x3e, 0xd1, 0x56, 0x99, 0x3e, 
  0x25, 0x5e, 0xeb, 0xbe, 0xda, 0xbc, 0x82, 0xbe, 0xb0, 0x39, 0x82, 0x3e, 
  0x8c, 0x75, 0xae, 0xbe, 0x51, 0xa8, 0x23, 0xbf, 0x01, 0xee, 0xa8, 0xbe, 
  0x18, 0xba, 0x83, 0xbc, 0x92, 0x37, 0xd2, 0x3e, 0xf2, 0xc3, 0x9d, 0xbd, 
  0x20, 0x51, 0x33, 0xbe, 0x36, 0x24, 0x2e, 0x3e, 0xc6, 0x00, 0xdf, 0xbd, 
  0x8f, 0x75, 0xc8, 0xbd, 0x52, 0xc3, 0xab, 0xbe, 0xeb, 0xfe, 0x5b, 0xbe, 
  0x2a, 0x6c, 0x09, 0x3f, 0xb5, 0x23, 0x57, 0x3e, 0xec, 0x26, 0xa0, 0x3d, 
  0xe0, 0x33, 0x2c, 0x3e, 0x4a, 0x7c, 0xe7, 0xbc, 0x32, 0x79, 0x48, 0x3e, 
  0xe7, 0x0c, 0x99, 0x3e, 0xc3, 0xe2, 0xd9, 0xbe, 0xb4, 0x30, 0x2b, 0xbd, 
  0x24, 0x8c, 0x2f, 0xbd, 0x7c, 0x73, 0x33, 0x3e, 0x63, 0x3b, 0x4c, 0x3e, 
  0x8e, 0x22, 0x3a, 0xbe, 0x3d, 0x04, 0xe4, 0xbe, 0x7d, 0xf5, 0x59, 0x3e, 
  0x25, 0x9e, 0x1d, 0x3e, 0xd0, 0x82, 0x11, 0x3d, 0x84, 0xad, 0xa2, 0xbd, 
  0xfa, 0x18, 0x3e, 0x3e, 0xb9, 0x51, 0x4b, 0xbd, 0x02, 0xdd, 0xa2, 0x3e, 
  0x76, 0xc0, 0x19, 0xbf, 0x9b, 0x7d, 0x3c, 0x3e, 0x95, 0x0b, 0x04, 0xbf, 
  0x28, 0xa6, 0x82, 0xbe, 0xe2, 0x1d, 0x8a, 0x3d, 0xc2, 0x5a, 0xcf, 0xbe, 
  0x1e, 0xa6, 0xb9, 0x3e, 0x72, 0x6e, 0xdd, 0xbe, 0x5c, 0x8c, 0x8c, 0x3d, 
  0x78, 0x5e, 0x2a, 0xbe, 0xe3, 0x41, 0xd8, 0x3d, 0x6c, 0x4b, 0x36, 0xbe, 
  0x27, 0x8b, 0xa0, 0xbd, 0xb5, 0x8f, 0xb2, 0x3e, 0xc8, 0x55, 0x10, 0xbe, 
  0x41, 0x48, 0xcd, 0x3d, 0xfb, 0x7d, 0xaf, 0xbe, 0xee, 0x4f, 0x06, 0xbf, 
  0x81, 0xa3, 0x25, 0x3d, 0xb7, 0x31, 0x21, 0xbe, 0xa8, 0xa2, 0x1f, 0xbd, 
  0xc0, 0x22, 0x98, 0xbd, 0xb5, 0x4d, 0x9e, 0xbd, 0x87, 0x43, 0x76, 0x3e, 
  0xe8, 0x2e, 0x42, 0xbd, 0xf7, 0xb8, 0x0b, 0xbf, 0x19, 0x41, 0x6a, 0xbe, 
  0x1e, 0x81, 0xef, 0xbe, 0xe3, 0x55, 0x8e, 0xbe, 0x10, 0x87, 0x39, 0x3e, 
  0x2d, 0x67, 0x29, 0x3e, 0x65, 0xe1, 0xc5, 0x3d, 0xa7, 0x1b, 0x8b, 0x3e, 
  0x8f, 0xc4, 0xb3, 0x3e, 0x46, 0xd6, 0xd8, 0xbe, 0x50, 0x1a, 0x81, 0xbd, 
  0xc4, 0x2f, 0x4f, 0xbf, 0x17, 0x5e, 0xae, 0x3e, 0x2b, 0x40, 0xbb, 0x3d, 
  0x46, 0xce, 0xb4, 0xbd, 0x83, 0x6a, 0xcf, 0xbe, 0x80, 0xb9, 0x4e, 0xbd, 
  0x3a, 0x25, 0x10, 0x3e, 0x02, 0x7d, 0x79, 0xbe, 0x78, 0xbe, 0x51, 0x3e, 
  0xb1, 0xf1, 0x80, 0xbe, 0x9e, 0x5f, 0x4e, 0x3e, 0xc4, 0xbf, 0xda, 0x3c, 
  0xc6, 0x72, 0xda, 0x3e, 0x8e, 0x95, 0xfe, 0x3e, 0xa7, 0x6e, 0xdd, 0xbc, 
  0x7f, 0x2a, 0x76, 0x3e, 0x24, 0x43, 0xbb, 0x3d, 0xf1, 0x0a, 0x86, 0xbd, 
  0x84, 0x89, 0xd2, 0x3d, 0xcd, 0x2e, 0xe4, 0x3d, 0x7d, 0x40, 0x5a, 0xbd, 
  0x31, 0xe7, 0xb0, 0x3d, 0x65, 0xf7, 0xa8, 0x3e, 0x1b, 0xcf, 0x36, 0xbe, 
  0xb9, 0x3a, 0x03, 0x3e, 0x6b, 0x0d, 0x9b, 0x3e, 0x61, 0xb1, 0x0d, 0xbe, 
  0x81, 0xf0, 0xfb, 0xbe, 0x35, 0xc5, 0x48, 0xbe, 0xff, 0xa8, 0x96, 0x3d, 
  0x97, 0xec, 0xad, 0xbe, 0x45, 0xd7, 0xec, 0x3e, 0xed, 0x1d, 0xf9, 0x3e, 
  0xc7, 0xfb, 0x33, 0x3b, 0x36, 0x4b, 0x25, 0x3e, 0x51, 0xe9, 0xd0, 0xbc, 
  0x6c, 0xe3, 0x97, 0xbe, 0x17, 0x3d, 0x00, 0xbe, 0x5d, 0x49, 0x72, 0xbe, 
  0x3f, 0x56, 0x0e, 0xbf, 0x08, 0x2a, 0xc9, 0xbd, 0x1f, 0xb7, 0x25, 0x3e, 
  0x5c, 0x2f, 0xa3, 0x3d, 0x89, 0xe8, 0x0b, 0x3e, 0x9f, 0x40, 0x71, 0xbe, 
  0x95, 0xe8, 0x11, 0xbf, 0xf0, 0x16, 0x78, 0xbd, 0x27, 0x25, 0x23, 0x3d, 
  0xe3, 0x34, 0x58, 0x3e, 0x9f, 0xbf, 0x42, 0x3e, 0xc4, 0x11, 0xfd, 0xbe, 
  0x5b, 0x89, 0x3c, 0xbe, 0x15, 0xc1, 0xa1, 0xbe, 0x54, 0xa8, 0x29, 0xbe, 
  0xcb, 0x03, 0xa4, 0x3e, 0x9c, 0xbd, 0x4b, 0x3e, 0x45, 0xa1, 0x5e, 0xbd, 
  0x01, 0x2e, 0x05, 0x3d, 0x1b, 0x19, 0xd3, 0x3d, 0x87, 0x51, 0x25, 0xbb, 
  0xcb, 0x8a, 0xd8, 0x3e, 0x4d, 0xc4, 0x93, 0xbe, 0x68, 0x2b, 0x8f, 0x3e, 
  0xbf, 0xb4, 0x8d, 0xbe, 0x7a, 0x7d, 0xaa, 0xbe, 0xc8, 0x63, 0x6d, 0x3e, 
  0x9c, 0x5c, 0xd4, 0xbe, 0xb8, 0x16, 0x27, 0xbf, 0xf8, 0x53, 0x70, 0x3d, 
  0x6a, 0xc4, 0x2d, 0xbe, 0x94, 0xa5, 0x22, 0x3e, 0x43, 0x4f, 0xd2, 0xbe, 
  0xd3, 0x77, 0xb0, 0xbe, 0x71, 0x5f, 0xe4, 0xbe, 0x9f, 0x59, 0x8a, 0xbe, 
  0x63, 0x84, 0xae, 0xbe, 0x1e, 0x6b, 0xbb, 0xbd, 0x5e, 0xeb, 0x66, 0xbe, 
  0xb0, 0x4e, 0x73, 0x3e, 0xd6, 0xa1, 0x3b, 0xbc, 0x58, 0x8a, 0x7f, 0x3e, 
  0xf7, 0x33, 0x26, 0xbe, 0xfa, 0x99, 0xad, 0x3b, 0x9d, 0x25, 0xaa, 0x3e, 
  0x2f, 0x4a, 0xa8, 0x3e, 0xa8, 0x1b, 0x01, 0xbf, 0x68, 0x86, 0x23, 0x3b, 
  0xff, 0x18, 0xe6, 0xbc, 0xb2, 0xab, 0xb5, 0x3e, 0x8f, 0x5f, 0x2b, 0xbd, 
  0xe3, 0xca, 0x28, 0xbe, 0x7b, 0xc1, 0xb0, 0x3b, 0x96, 0xde, 0xf2, 0xbd, 
  0xf9, 0xfe, 0x69, 0xbe, 0x8f, 0x0c, 0x3e, 0xbc, 0x4b, 0xa7, 0xc9, 0xbe, 
  0xd4, 0xe6, 0xd9, 0xbe, 0x26, 0x15, 0x7c, 0xbd, 0x33, 0x2e, 0x82, 0xbc, 
  0x85, 0x61, 0x4e, 0x3e, 0x26, 0xfa, 0x55, 0xbe, 0x3d, 0x90, 0xdd, 0x3d, 
  0x6f, 0x86, 0x86, 0xbe, 0x2d, 0x4d, 0x21, 0x3f, 0x88, 0x04, 0x71, 0xbe, 
  0x57, 0xe8, 0x07, 0xbf, 0xf4, 0x8e, 0xa9, 0xbd, 0xd1, 0x8d, 0xec, 0x3e, 
  0x31, 0xa7, 0x66, 0x3e, 0x40, 0x10, 0xab, 0xbd, 0xbb, 0xcc, 0xc4, 0x3d, 
  0x49, 0x5d, 0xd3, 0xbe, 0x16, 0x15, 0x8a, 0xbe, 0x69, 0xd3, 0xce, 0x3d, 
  0xb6, 0xe6, 0x96, 0x3b, 0xd1, 0x77, 0x2b, 0x3e, 0x15, 0x96, 0x22, 0x3e, 
  0xeb, 0xf3, 0xb0, 0x3c, 0x35, 0xfd, 0xe2, 0x3c, 0x35, 0x82, 0x81, 0xbe, 
  0x67, 0x49, 0xdc, 0xbc, 0x71, 0x84, 0x72, 0x3e, 0xcd, 0xf9, 0xab, 0xbd, 
  0x0e, 0x48, 0x96, 0x3e, 0xea, 0x35, 0xf2, 0xbe, 0xe8, 0xf8, 0x5d, 0xbd, 
  0x7e, 0xc4, 0xa7, 0xbe, 0xca, 0x41, 0x84, 0xbe, 0x68, 0x6f, 0xc8, 0xbe, 
  0xbb, 0x80, 0x65, 0xbe, 0xd5, 0x22, 0x71, 0x3e, 0xb1, 0xe6, 0xcf, 0x3e, 
  0x42, 0x8e, 0x0e, 0xbe, 0xbd, 0xe8, 0x69, 0xbd, 0x68, 0x67, 0x81, 0xbe, 
  0x53, 0xab, 0xd4, 0x3d, 0xff, 0xca, 0x8e, 0x3d, 0xb8, 0x06, 0xc3, 0xbc, 
  0xda, 0xb7, 0x9d, 0x3d, 0xf1, 0xcb, 0xfa, 0x3d, 0xfe, 0xa9, 0xc3, 0x3e, 
  0xf0, 0xc8, 0xb5, 0x3e, 0x54, 0xe0, 0x68, 0xbd, 0x0f, 0x39, 0x61, 0xbe, 
  0x18, 0xe6, 0x6f, 0x3e, 0x7f, 0x93, 0xc5, 0x3d, 0x63, 0xbb, 0xa3, 0x3e, 
  0x81, 0xab, 0xf2, 0xbe, 0x42, 0x4f, 0x65, 0xbe, 0xa6, 0x3b, 0x94, 0x3e, 
  0xdf, 0xc6, 0xb5, 0x3e, 0x46, 0x16, 0x85, 0xbc, 0x14, 0xaf, 0xaa, 0x3e, 
  0xfc, 0xb6, 0xac, 0xbe, 0xac, 0xb9, 0x56, 0xbf, 0x85, 0x24, 0x85, 0xbe, 
  0x5e, 0xa0, 0x47, 0xbe, 0x7f, 0x60, 0x6e, 0x3c, 0x94, 0x9c, 0x46, 0xbe, 
  0x44, 0xd4, 0x9c, 0x3e, 0xda, 0x82, 0x6b, 0xbd, 0x6e, 0x5c, 0xf8, 0xbe, 
  0x3f, 0x8a, 0xff, 0xbc, 0xef, 0xdc, 0x8b, 0x3e, 0x96, 0xab, 0xfd, 0xbc, 
  0x3c, 0xbd, 0xd2, 0xbd, 0xd7, 0x6c, 0x08, 0xbf, 0x13, 0x59, 0x09, 0x3f, 
  0x87, 0x32, 0xc2, 0x3d, 0xd9, 0x35, 0x80, 0x3e, 0x20, 0x2f, 0x3f, 0x3e, 
  0x74, 0x0b, 0xa0, 0xbe, 0x80, 0x18, 0x50, 0xbd, 0x5c, 0x11, 0x46, 0x3e, 
  0x54, 0x94, 0xbe, 0x3e, 0xb6, 0x64, 0xae, 0xbe, 0x59, 0x52, 0xe0, 0xbe, 
  0xf5, 0x2e, 0x21, 0xbf, 0x9b, 0x61, 0xa1, 0xbb, 0x9e, 0x5b, 0xa0, 0xbe, 
  0x32, 0xca, 0xee, 0x3c, 0xae, 0xe9, 0x53, 0x3e, 0x11, 0x4e, 0xb1, 0x3d, 
  0x95, 0x2b, 0x77, 0x3e, 0xc3, 0xba, 0xad, 0x3e, 0xb6, 0x7f, 0x38, 0x3e, 
  0xf1, 0xf8, 0x63, 0xbe, 0x12, 0x14, 0xa2, 0xbd, 0x1b, 0x93, 0xaf, 0x3d, 
  0x24, 0x17, 0xdc, 0xbd, 0x66, 0x7f, 0xab, 0x3e, 0xc8, 0xe0, 0x1f, 0xbe, 
  0x74, 0x22, 0x9d, 0x3e, 0x00, 0xe0, 0x77, 0xbe, 0xa9, 0xcc, 0x0d, 0x3f, 
  0x89, 0x64, 0x66, 0xbe, 0x9d, 0xfb, 0x92, 0xbe, 0xd3, 0x0a, 0x43, 0x3d, 
  0x2c, 0x9e, 0x2b, 0xbd, 0xf9, 0xca, 0xe4, 0x3e, 0x1e, 0x05, 0x73, 0x3e, 
  0x84, 0xb2, 0x8f, 0x3e, 0x9f, 0xf4, 0x0e, 0xbe, 0x82, 0xae, 0x89, 0x3e, 
  0xc8, 0xaa, 0xe3, 0x3d, 0x71, 0x44, 0xbf, 0x3e, 0xce, 0x32, 0x94, 0xbe, 
  0x52, 0x5e, 0x9d, 0x3e, 0xa0, 0x78, 0x91, 0x3e, 0x19, 0x6c, 0xb9, 0x3a, 
  0x72, 0x20, 0x21, 0x3e, 0x0c, 0x7d, 0xb9, 0x3e, 0xea, 0x6b, 0xce, 0x3c, 
  0x89, 0x16, 0x6d, 0x3e, 0x84, 0x4c, 0x14, 0xbd, 0xa9, 0x23, 0x77, 0x3e, 
  0xa8, 0xad, 0xb4, 0x3e, 0x47, 0xe4, 0xb3, 0x3d, 0xa0, 0xbb, 0x54, 0xbe, 
  0xa1, 0xcc, 0x21, 0xbe, 0x46, 0x43, 0xbe, 0xbe, 0x56, 0x63, 0x37, 0x3e, 
  0x0d, 0x9b, 0xed, 0xbc, 0xc1, 0x2a, 0xf6, 0x3e, 0x51, 0xdf, 0x25, 0x3e, 
  0xf3, 0x35, 0x0e, 0xbe, 0x2d, 0xd7, 0x42, 0x3e, 0x90, 0x96, 0x05, 0x3e, 
  0x91, 0x63, 0x2b, 0x3e, 0x22, 0xf7, 0x63, 0x3c, 0xf8, 0xf4, 0xa2, 0xbd, 
  0xb0, 0x00, 0x9d, 0x3e, 0xec, 0xed, 0x07, 0xbe, 0xbd, 0x3e, 0x39, 0x3e, 
  0x09, 0x17, 0xa5, 0x3d, 0x34, 0xd6, 0x7d, 0x3c, 0xdb, 0xa2, 0xc4, 0x3e, 
  0x38, 0x60, 0x79, 0x3e, 0xc9, 0xa5, 0xb9, 0xbe, 0x82, 0xca, 0x30, 0xbe, 
  0x94, 0xbe, 0x9c, 0x3d, 0xf3, 0xeb, 0xfd, 0xbe, 0x20, 0x5c, 0x1f, 0xbe, 
  0x06, 0x0f, 0xb9, 0x3c, 0x56, 0x51, 0x13, 0x3c, 0x23, 0x49, 0xdf, 0x3e, 
  0x83, 0xaf, 0xd3, 0x3e, 0xee, 0xd2, 0xbf, 0xbd, 0xe5, 0x5e, 0x0a, 0xbe, 
  0xc2, 0x46, 0xdf, 0xbe, 0x6e, 0x87, 0x4f, 0x3d, 0x92, 0x9a, 0x98, 0x3e, 
  0x47, 0xd3, 0xe0, 0xbd, 0x2f, 0x23, 0xd5, 0xbe, 0x12, 0x82, 0x1d, 0x3d, 
  0x3e, 0xf0, 0x4d, 0x3c, 0xed, 0x43, 0xc7, 0x3d, 0xc7, 0xc3, 0x13, 0xbd, 
  0x82, 0x0e, 0x6e, 0xbe, 0xff, 0xf3, 0x02, 0x3f, 0xd1, 0x29, 0x29, 0xbe, 
  0x20, 0x5f, 0x97, 0xbd, 0x4a, 0x67, 0x8d, 0x3d, 0xe4, 0x83, 0x70, 0xbd, 
  0x80, 0x49, 0x06, 0xbd, 0x64, 0x2d, 0xdf, 0xbd, 0x6f, 0x28, 0xa5, 0xbd, 
  0xf7, 0xff, 0x8b, 0x3e, 0xbe, 0xf7, 0xf4, 0xbd, 0x37, 0x5a, 0x4b, 0x3f, 
  0x0b, 0xee, 0x3b, 0xbe, 0x45, 0x9c, 0x65, 0xbe, 0x0b, 0xf1, 0xae, 0xbe, 
  0x6a, 0x6d, 0x22, 0x3e, 0xc3, 0x53, 0x11, 0x3e, 0x27, 0xba, 0x28, 0xbd, 
  0xf9, 0x86, 0xb9, 0xbd, 0xda, 0xd1, 0xe2, 0x3e, 0x5d, 0x94, 0x11, 0x3d, 
  0xcc, 0x32, 0xcc, 0x3e, 0xf9, 0xd0, 0x1f, 0xbd, 0x40, 0xcd, 0x07, 0x3d, 
  0x62, 0x43, 0x2e, 0xbe, 0x17, 0xdb, 0x4e, 0xbe, 0xda, 0xc4, 0x84, 0xbe, 
  0xc9, 0x4f, 0x8a, 0xbd, 0x25, 0xa1, 0x9f, 0xbe, 0x84, 0xc7, 0xa4, 0x3e, 
  0x89, 0x57, 0x99, 0x3e, 0x0e, 0x89, 0x6b, 0xbe, 0x88, 0x01, 0x1c, 0x3b, 
  0xde, 0xfe, 0xff, 0xff, 0x04, 0x00, 0x00, 0x00, 0x80, 0x00, 0x00, 0x00, 
  0x9e, 0x4f, 0x9a, 0xbe, 0x4a, 0x4e, 0x85, 0x3c, 0xa1, 0x3b, 0x0e, 0x3f, 
  0x86, 0x1c, 0x75, 0xbe, 0x92, 0x93, 0x85, 0x3b, 0x4e, 0xdb, 0x27, 0xbf, 
  0xab, 0x5d, 0xad, 0x3d, 0x19, 0x3b, 0xf9, 0xbe, 0x0e, 0xc7, 0xd3, 0x3d, 
  0xc5, 0x5b, 0x16, 0xbe, 0x9a, 0x32, 0xdc, 0xbe, 0x54, 0xf0, 0x3c, 0x3e, 
  0xb5, 0x61, 0xe6, 0xbe, 0xaf, 0xe5, 0xa7, 0xbe, 0x4d, 0x2b, 0x87, 0xbe, 
  0xc9, 0x7d, 0xa3, 0xbe, 0x3c, 0x0a, 0x06, 0xbe, 0x88, 0x89, 0x91, 0xbe, 
  0x03, 0x90, 0x8b, 0xbd, 0xb6, 0x9c, 0x93, 0x3e, 0x86, 0xe2, 0x88, 0x3e, 
  0x5d, 0x74, 0x26, 0x3f, 0x45, 0xb5, 0x8c, 0xbe, 0x2f, 0x8d, 0x76, 0x3e, 
  0xac, 0xdf, 0x6c, 0xbe, 0x46, 0x4d, 0xb9, 0xbe, 0x9a, 0xf5, 0x70, 0xbe, 
  0xd4, 0x9f, 0x1f, 0x3f, 0xc2, 0x02, 0x4c, 0x3f, 0xef, 0x20, 0xfb, 0xbc, 
  0xc5, 0x1b, 0x20, 0x3f, 0x26, 0x07, 0x93, 0x3e, 0x68, 0xfa, 0xff, 0xff, 
  0x6c, 0xfa, 0xff, 0xff, 0x0f, 0x00, 0x00, 0x00, 0x4d, 0x4c, 0x49, 0x52, 
  0x20, 0x43, 0x6f, 0x6e, 0x76, 0x65, 0x72, 0x74, 0x65, 0x64, 0x2e, 0x00, 
  0x01, 0x00, 0x00, 0x00, 0x14, 0x00, 0x00, 0x00, 0x00, 0x00, 0x0e, 0x00, 
  0x18, 0x00, 0x14, 0x00, 0x10, 0x00, 0x0c, 0x00, 0x08, 0x00, 0x04, 0x00, 
  0x0e, 0x00, 0x00, 0x00, 0x14, 0x00, 0x00, 0x00, 0x1c, 0x00, 0x00, 0x00, 
  0x24, 0x01, 0x00, 0x00, 0x28, 0x01, 0x00, 0x00, 0x2c, 0x01, 0x00, 0x00, 
  0x04, 0x00, 0x00, 0x00, 0x6d, 0x61, 0x69, 0x6e, 0x00, 0x00, 0x00, 0x00, 
  0x04, 0x00, 0x00, 0x00, 0xcc, 0x00, 0x00, 0x00, 0x84, 0x00, 0x00, 0x00, 
  0x50, 0x00, 0x00, 0x00, 0x14, 0x00, 0x00, 0x00, 0x00, 0x00, 0x0e, 0x00, 
  0x1a, 0x00, 0x14, 0x00, 0x10, 0x00, 0x0c, 0x00, 0x0b, 0x00, 0x04, 0x00, 
  0x0e, 0x00, 0x00, 0x00, 0x1c, 0x00, 0x00, 0x00, 0x00, 0x00, 0x00, 0x09, 
  0x1c, 0x00, 0x00, 0x00, 0x20, 0x00, 0x00, 0x00, 0x01, 0x00, 0x00, 0x00, 
  0x00, 0x00, 0x06, 0x00, 0x08, 0x00, 0x04, 0x00, 0x06, 0x00, 0x00, 0x00, 
  0x00, 0x00, 0x80, 0x3f, 0x01, 0x00, 0x00, 0x00, 0x0a, 0x00, 0x00, 0x00, 
  0x01, 0x00, 0x00, 0x00, 0x09, 0x00, 0x00, 0x00, 0x9a, 0xff, 0xff, 0xff, 
  0x10, 0x00, 0x00, 0x00, 0x00, 0x00, 0x00, 0x08, 0x0c, 0x00, 0x00, 0x00, 
  0x10, 0x00, 0x00, 0x00, 0x30, 0xfb, 0xff, 0xff, 0x01, 0x00, 0x00, 0x00, 
  0x09, 0x00, 0x00, 0x00, 0x03, 0x00, 0x00, 0x00, 0x08, 0x00, 0x00, 0x00, 
  0x01, 0x00, 0x00, 0x00, 0x03, 0x00, 0x00, 0x00, 0xca, 0xff, 0xff, 0xff, 
  0x10, 0x00, 0x00, 0x00, 0x00, 0x00, 0x00, 0x08, 0x10, 0x00, 0x00, 0x00, 
  0x14, 0x00, 0x00, 0x00, 0xba, 0xff, 0xff, 0xff, 0x00, 0x00, 0x00, 0x01, 
  0x01, 0x00, 0x00, 0x00, 0x08, 0x00, 0x00, 0x00, 0x03, 0x00, 0x00, 0x00, 
  0x07, 0x00, 0x00, 0x00, 0x02, 0x00, 0x00, 0x00, 0x04, 0x00, 0x00, 0x00, 
  0x00, 0x00, 0x0e, 0x00, 0x16, 0x00, 0x00, 0x00, 0x10, 0x00, 0x0c, 0x00, 
  0x0b, 0x00, 0x04, 0x00, 0x0e, 0x00, 0x00, 0x00, 0x18, 0x00, 0x00, 0x00, 
  0x00, 0x00, 0x00, 0x08, 0x18, 0x00, 0x00, 0x00, 0x1c, 0x00, 0x00, 0x00, 
  0x00, 0x00, 0x06, 0x00, 0x08, 0x00, 0x07, 0x00, 0x06, 0x00, 0x00, 0x00, 
  0x00, 0x00, 0x00, 0x01, 0x01, 0x00, 0x00, 0x00, 0x07, 0x00, 0x00, 0x00, 
  0x03, 0x00, 0x00, 0x00, 0x00, 0x00, 0x00, 0x00, 0x06, 0x00, 0x00, 0x00, 
  0x05, 0x00, 0x00, 0x00, 0x01, 0x00, 0x00, 0x00, 0x0a, 0x00, 0x00, 0x00, 
  0x01, 0x00, 0x00, 0x00, 0x00, 0x00, 0x00, 0x00, 0x0b, 0x00, 0x00, 0x00, 
  0xf8, 0x03, 0x00, 0x00, 0xa0, 0x03, 0x00, 0x00, 0x48, 0x03, 0x00, 0x00, 
  0x0c, 0x03, 0x00, 0x00, 0xd0, 0x02, 0x00, 0x00, 0x74, 0x02, 0x00, 0x00, 
  0x24, 0x02, 0x00, 0x00, 0x84, 0x01, 0x00, 0x00, 0xe4, 0x00, 0x00, 0x00, 
  0x60, 0x00, 0x00, 0x00, 0x04, 0x00, 0x00, 0x00, 0x4a, 0xfc, 0xff, 0xff, 
  0x00, 0x00, 0x00, 0x01, 0x14, 0x00, 0x00, 0x00, 0x1c, 0x00, 0x00, 0x00, 
  0x1c, 0x00, 0x00, 0x00, 0x0b, 0x00, 0x00, 0x00, 0x34, 0x00, 0x00, 0x00, 
  0x02, 0x00, 0x00, 0x00, 0xff, 0xff, 0xff, 0xff, 0x02, 0x00, 0x00, 0x00, 
  0x34, 0xfc, 0xff, 0xff, 0x1b, 0x00, 0x00, 0x00, 0x53, 0x74, 0x61, 0x74, 
  0x65, 0x66, 0x75, 0x6c, 0x50, 0x61, 0x72, 0x74, 0x69, 0x74, 0x69, 0x6f, 
  0x6e, 0x65, 0x64, 0x43, 0x61, 0x6c, 0x6c, 0x5f, 0x31, 0x3a, 0x30, 0x00, 
  0x02, 0x00, 0x00, 0x00, 0x01, 0x00, 0x00, 0x00, 0x02, 0x00, 0x00, 0x00, 
  0xa2, 0xfc, 0xff, 0xff, 0x00, 0x00, 0x00, 0x01, 0x14, 0x00, 0x00, 0x00, 
  0x1c, 0x00, 0x00, 0x00, 0x1c, 0x00, 0x00, 0x00, 0x0a, 0x00, 0x00, 0x00, 
  0x5c, 0x00, 0x00, 0x00, 0x02, 0x00, 0x00, 0x00, 0xff, 0xff, 0xff, 0xff, 
  0x02, 0x00, 0x00, 0x00, 0x8c, 0xfc, 0xff, 0xff, 0x40, 0x00, 0x00, 0x00, 
  0x73, 0x65, 0x71, 0x75, 0x65, 0x6e, 0x74, 0x69, 0x61, 0x6c, 0x5f, 0x31, 
  0x5f, 0x31, 0x2f, 0x64, 0x65, 0x6e, 0x73, 0x65, 0x5f, 0x34, 0x5f, 0x31, 
  0x2f, 0x4d, 0x61, 0x74, 0x4d, 0x75, 0x6c, 0x3b, 0x73, 0x65, 0x71, 0x75, 
  0x65, 0x6e, 0x74, 0x69, 0x61, 0x6c, 0x5f, 0x31, 0x5f, 0x31, 0x2f, 0x64, 
  0x65, 0x6e, 0x73, 0x65, 0x5f, 0x34, 0x5f, 0x31, 0x2f, 0x42, 0x69, 0x61, 
  0x73, 0x41, 0x64, 0x64, 0x00, 0x00, 0x00, 0x00, 0x02, 0x00, 0x00, 0x00, 
  0x01, 0x00, 0x00, 0x00, 0x02, 0x00, 0x00, 0x00, 0x22, 0xfd, 0xff, 0xff, 
  0x00, 0x00, 0x00, 0x01, 0x14, 0x00, 0x00, 0x00, 0x1c, 0x00, 0x00, 0x00, 
  0x1c, 0x00, 0x00, 0x00, 0x09, 0x00, 0x00, 0x00, 0x78, 0x00, 0x00, 0x00, 
  0x02, 0x00, 0x00, 0x00, 0xff, 0xff, 0xff, 0xff, 0x10, 0x00, 0x00, 0x00, 
  0x0c, 0xfd, 0xff, 0xff, 0x5e, 0x00, 0x00, 0x00, 0x73, 0x65, 0x71, 0x75, 
  0x65, 0x6e, 0x74, 0x69, 0x61, 0x6c, 0x5f, 0x31, 0x5f, 0x31, 0x2f, 0x64, 
  0x65, 0x6e, 0x73, 0x65, 0x5f, 0x33, 0x5f, 0x31, 0x2f, 0x4d, 0x61, 0x74, 
  0x4d, 0x75, 0x6c, 0x3b, 0x73, 0x65, 0x71, 0x75, 0x65, 0x6e, 0x74, 0x69, 
  0x61, 0x6c, 0x5f, 0x31, 0x5f, 0x31, 0x2f, 0x64, 0x65, 0x6e, 0x73, 0x65, 
  0x5f, 0x33, 0x5f, 0x31, 0x2f, 0x52, 0x65, 0x6c, 0x75, 0x3b, 0x73, 0x65, 
  0x71, 0x75, 0x65, 0x6e, 0x74, 0x69, 0x61, 0x6c, 0x5f, 0x31, 0x5f, 0x31, 
  0x2f, 0x64, 0x65, 0x6e, 0x73, 0x65, 0x5f, 0x33, 0x5f, 0x31, 0x2f, 0x42, 
  0x69, 0x61, 0x73, 0x41, 0x64, 0x64, 0x00, 0x00, 0x02, 0x00, 0x00, 0x00, 
  0x01, 0x00, 0x00, 0x00, 0x10, 0x00, 0x00, 0x00, 0xbe, 0xfd, 0xff, 0xff, 
  0x00, 0x00, 0x00, 0x01, 0x14, 0x00, 0x00, 0x00, 0x1c, 0x00, 0x00, 0x00, 
  0x1c, 0x00, 0x00, 0x00, 0x08, 0x00, 0x00, 0x00, 0x78, 0x00, 0x00, 0x00, 
  0x02, 0x00, 0x00, 0x00, 0xff, 0xff, 0xff, 0xff, 0x20, 0x00, 0x00, 0x00, 
  0xa8, 0xfd, 0xff, 0xff, 0x5e, 0x00, 0x00, 0x00, 0x73, 0x65, 0x71, 0x75, 
  0x65, 0x6e, 0x74, 0x69, 0x61, 0x6c, 0x5f, 0x31, 0x5f, 0x31, 0x2f, 0x64, 
  0x65, 0x6e, 0x73, 0x65, 0x5f, 0x32, 0x5f, 0x31, 0x2f, 0x4d, 0x61, 0x74, 
  0x4d, 0x75, 0x6c, 0x3b, 0x73, 0x65, 0x71, 0x75, 0x65, 0x6e, 0x74, 0x69, 
  0x61, 0x6c, 0x5f, 0x31, 0x5f, 0x31, 0x2f, 0x64, 0x65, 0x6e, 0x73, 0x65, 
  0x5f, 0x32, 0x5f, 0x31, 0x2f, 0x52, 0x65, 0x6c, 0x75, 0x3b, 0x73, 0x65, 
  0x71, 0x75, 0x65, 0x6e, 0x74, 0x69, 0x61, 0x6c, 0x5f, 0x31, 0x5f, 0x31, 
  0x2f, 0x64, 0x65, 0x6e, 0x73, 0x65, 0x5f, 0x32, 0x5f, 0x31, 0x2f, 0x42, 
  0x69, 0x61, 0x73, 0x41, 0x64, 0x64, 0x00, 0x00, 0x02, 0x00, 0x00, 0x00, 
  0x01, 0x00, 0x00, 0x00, 0x20, 0x00, 0x00, 0x00, 0xae, 0xfe, 0xff, 0xff, 
  0x00, 0x00, 0x00, 0x01, 0x10, 0x00, 0x00, 0x00, 0x10, 0x00, 0x00, 0x00, 
  0x07, 0x00, 0x00, 0x00, 0x2c, 0x00, 0x00, 0x00, 0x34, 0xfe, 0xff, 0xff, 
  0x1f, 0x00, 0x00, 0x00, 0x73, 0x65, 0x71, 0x75, 0x65, 0x6e, 0x74, 0x69, 
  0x61, 0x6c, 0x5f, 0x31, 0x5f, 0x31, 0x2f, 0x64, 0x65, 0x6e, 0x73, 0x65, 
  0x5f, 0x32, 0x5f, 0x31, 0x2f, 0x4d, 0x61, 0x74, 0x4d, 0x75, 0x6c, 0x00, 
  0x02, 0x00, 0x00, 0x00, 0x20, 0x00, 0x00, 0x00, 0x04, 0x00, 0x00, 0x00, 
  0xfa, 0xfe, 0xff, 0xff, 0x00, 0x00, 0x00, 0x01, 0x10, 0x00, 0x00, 0x00, 
  0x10, 0x00, 0x00, 0x00, 0x06, 0x00, 0x00, 0x00, 0x3c, 0x00, 0x00, 0x00, 
  0x80, 0xfe, 0xff, 0xff, 0x2f, 0x00, 0x00, 0x00, 0x73, 0x65, 0x71, 0x75, 
  0x65, 0x6e, 0x74, 0x69, 0x61, 0x6c, 0x5f, 0x31, 0x5f, 0x31, 0x2f, 0x64, 
  0x65, 0x6e, 0x73, 0x65, 0x5f, 0x32, 0x5f, 0x31, 0x2f, 0x42, 0x69, 0x61, 
  0x73, 0x41, 0x64, 0x64, 0x2f, 0x52, 0x65, 0x61, 0x64, 0x56, 0x61, 0x72, 
  0x69, 0x61, 0x62, 0x6c, 0x65, 0x4f, 0x70, 0x00, 0x01, 0x00, 0x00, 0x00, 
  0x20, 0x00, 0x00, 0x00, 0x52, 0xff, 0xff, 0xff, 0x00, 0x00, 0x00, 0x01, 
  0x10, 0x00, 0x00, 0x00, 0x10, 0x00, 0x00, 0x00, 0x05, 0x00, 0x00, 0x00, 
  0x1c, 0x00, 0x00, 0x00, 0xd8, 0xfe, 0xff, 0xff, 0x0f, 0x00, 0x00, 0x00, 
  0x61, 0x72, 0x69, 0x74, 0x68, 0x2e, 0x63, 0x6f, 0x6e, 0x73, 0x74, 0x61, 
  0x6e, 0x74, 0x33, 0x00, 0x01, 0x00, 0x00, 0x00, 0x10, 0x00, 0x00, 0x00, 
  0x8a, 0xff, 0xff, 0xff, 0x00, 0x00, 0x00, 0x01, 0x10, 0x00, 0x00, 0x00, 
  0x10, 0x00, 0x00, 0x00, 0x04, 0x00, 0x00, 0x00, 0x1c, 0x00, 0x00, 0x00, 
  0x10, 0xff, 0xff, 0xff, 0x0f, 0x00, 0x00, 0x00, 0x61, 0x72, 0x69, 0x74, 
  0x68, 0x2e, 0x63, 0x6f, 0x6e, 0x73, 0x74, 0x61, 0x6e, 0x74, 0x32, 0x00, 
  0x01, 0x00, 0x00, 0x00, 0x02, 0x00, 0x00, 0x00, 0xc2, 0xff, 0xff, 0xff, 
  0x00, 0x00, 0x00, 0x01, 0x10, 0x00, 0x00, 0x00, 0x10, 0x00, 0x00, 0x00, 
  0x03, 0x00, 0x00, 0x00, 0x1c, 0x00, 0x00, 0x00, 0x48, 0xff, 0xff, 0xff, 
  0x0f, 0x00, 0x00, 0x00, 0x61, 0x72, 0x69, 0x74, 0x68, 0x2e, 0x63, 0x6f, 
  0x6e, 0x73, 0x74, 0x61, 0x6e, 0x74, 0x31, 0x00, 0x02, 0x00, 0x00, 0x00, 
  0x10, 0x00, 0x00, 0x00, 0x20, 0x00, 0x00, 0x00, 0x00, 0x00, 0x16, 0x00, 
  0x18, 0x00, 0x14, 0x00, 0x00, 0x00, 0x10, 0x00, 0x0c, 0x00, 0x08, 0x00, 
  0x00, 0x00, 0x00, 0x00, 0x00, 0x00, 0x07, 0x00, 0x16, 0x00, 0x00, 0x00, 
  0x00, 0x00, 0x00, 0x01, 0x10, 0x00, 0x00, 0x00, 0x10, 0x00, 0x00, 0x00, 
  0x02, 0x00, 0x00, 0x00, 0x1c, 0x00, 0x00, 0x00, 0x9c, 0xff, 0xff, 0xff, 
  0x0e, 0x00, 0x00, 0x00, 0x61, 0x72, 0x69, 0x74, 0x68, 0x2e, 0x63, 0x6f, 
  0x6e, 0x73, 0x74, 0x61, 0x6e, 0x74, 0x00, 0x00, 0x02, 0x00, 0x00, 0x00, 
  0x02, 0x00, 0x00, 0x00, 0x10, 0x00, 0x00, 0x00, 0x00, 0x00, 0x16, 0x00, 
  0x1c, 0x00, 0x18, 0x00, 0x00, 0x00, 0x14, 0x00, 0x10, 0x00, 0x0c, 0x00, 
  0x00, 0x00, 0x00, 0x00, 0x08, 0x00, 0x07, 0x00, 0x16, 0x00, 0x00, 0x00, 
  0x00, 0x00, 0x00, 0x01, 0x14, 0x00, 0x00, 0x00, 0x20, 0x00, 0x00, 0x00, 
  0x20, 0x00, 0x00, 0x00, 0x01, 0x00, 0x00, 0x00, 0x40, 0x00, 0x00, 0x00, 
  0x02, 0x00, 0x00, 0x00, 0xff, 0xff, 0xff, 0xff, 0x04, 0x00, 0x00, 0x00, 
  0x04, 0x00, 0x04, 0x00, 0x04, 0x00, 0x00, 0x00, 0x20, 0x00, 0x00, 0x00, 
  0x73, 0x65, 0x72, 0x76, 0x69, 0x6e, 0x67, 0x5f, 0x64, 0x65, 0x66, 0x61, 
  0x75, 0x6c, 0x74, 0x5f, 0x6b, 0x65, 0x72, 0x61, 0x73, 0x5f, 0x74, 0x65, 
  0x6e, 0x73, 0x6f, 0x72, 0x5f, 0x36, 0x3a, 0x30, 0x00, 0x00, 0x00, 0x00, 
  0x02, 0x00, 0x00, 0x00, 0x01, 0x00, 0x00, 0x00, 0x04, 0x00, 0x00, 0x00, 
  0x02, 0x00, 0x00, 0x00, 0x20, 0x00, 0x00, 0x00, 0x04, 0x00, 0x00, 0x00, 
  0xf4, 0xff, 0xff, 0xff, 0x19, 0x00, 0x00, 0x00, 0x00, 0x00, 0x00, 0x19, 
  0x0c, 0x00, 0x0c, 0x00, 0x0b, 0x00, 0x00, 0x00, 0x00, 0x00, 0x04, 0x00, 
  0x0c, 0x00, 0x00, 0x00, 0x09, 0x00, 0x00, 0x00, 0x00, 0x00, 0x00, 0x09, 

};
const unsigned int emg_model_data_len = 4992;