const unsigned char emg_model_data[] = {
  0x1c, 0x00, 0x00, 0x00, 0x54, 0x46, 0x4c, 0x33, 0x14, 0x00, 0x20, 0x00, 
  0x1c, 0x00, 0x18, 0x00, 0x14, 0x00, 0x10, 0x00, 0x0c, 0x00, 0x00, 0x00, 
  0x08, 0x00, 0x04, 0x00, 0x14, 0x00, 0x00, 0x00, 0x1c, 0x00, 0x00, 0x00, 
  0x98, 0x00, 0x00, 0x00, 0xf0, 0x00, 0x00, 0x00, 0x58, 0x0d, 0x00, 0x00, 
  0x68, 0x0d, 0x00, 0x00, 0x68, 0x13, 0x00, 0x00, 0x03, 0x00, 0x00, 0x00, 
  0x01, 0x00, 0x00, 0x00, 0x10, 0x00, 0x00, 0x00, 0x00, 0x00, 0x0a, 0x00, 
  0x10, 0x00, 0x0c, 0x00, 0x08, 0x00, 0x04, 0x00, 0x0a, 0x00, 0x00, 0x00, 
  0x0c, 0x00, 0x00, 0x00, 0x1c, 0x00, 0x00, 0x00, 0x3c, 0x00, 0x00, 0x00, 
  0x0f, 0x00, 0x00, 0x00, 0x73, 0x65, 0x72, 0x76, 0x69, 0x6e, 0x67, 0x5f, 
  0x64, 0x65, 0x66, 0x61, 0x75, 0x6c, 0x74, 0x00, 0x01, 0x00, 0x00, 0x00, 
  0x04, 0x00, 0x00, 0x00, 0x90, 0xff, 0xff, 0xff, 0x0a, 0x00, 0x00, 0x00, 
  0x04, 0x00, 0x00, 0x00, 0x08, 0x00, 0x00, 0x00, 0x6f, 0x75, 0x74, 0x70, 
  0x75, 0x74, 0x5f, 0x30, 0x00, 0x00, 0x00, 0x00, 0x01, 0x00, 0x00, 0x00, 
  0x04, 0x00, 0x00, 0x00, 0x8e, 0xf2, 0xff, 0xff, 0x04, 0x00, 0x00, 0x00, 
  0x0f, 0x00, 0x00, 0x00, 0x6b, 0x65, 0x72, 0x61, 0x73, 0x5f, 0x74, 0x65, 
  0x6e, 0x73, 0x6f, 0x72, 0x5f, 0x31, 0x35, 0x00, 0x02, 0x00, 0x00, 0x00, 
  0x34, 0x00, 0x00, 0x00, 0x04, 0x00, 0x00, 0x00, 0xdc, 0xff, 0xff, 0xff, 
  0x0d, 0x00, 0x00, 0x00, 0x04, 0x00, 0x00, 0x00, 0x13, 0x00, 0x00, 0x00, 
  0x43, 0x4f, 0x4e, 0x56, 0x45, 0x52, 0x53, 0x49, 0x4f, 0x4e, 0x5f, 0x4d, 
  0x45, 0x54, 0x41, 0x44, 0x41, 0x54, 0x41, 0x00, 0x08, 0x00, 0x0c, 0x00, 
  0x08, 0x00, 0x04, 0x00, 0x08, 0x00, 0x00, 0x00, 0x0c, 0x00, 0x00, 0x00, 
  0x04, 0x00, 0x00, 0x00, 0x13, 0x00, 0x00, 0x00, 0x6d, 0x69, 0x6e, 0x5f, 
  0x72, 0x75, 0x6e, 0x74, 0x69, 0x6d, 0x65, 0x5f, 0x76, 0x65, 0x72, 0x73, 
  0x69, 0x6f, 0x6e, 0x00, 0x0e, 0x00, 0x00, 0x00, 0x64, 0x0c, 0x00, 0x00, 
  0x5c, 0x0c, 0x00, 0x00, 0xcc, 0x0b, 0x00, 0x00, 0xbc, 0x03, 0x00, 0x00, 
  0x6c, 0x03, 0x00, 0x00, 0x54, 0x03, 0x00, 0x00, 0xc4, 0x02, 0x00, 0x00, 
  0xb4, 0x00, 0x00, 0x00, 0xac, 0x00, 0x00, 0x00, 0xa4, 0x00, 0x00, 0x00, 
  0x9c, 0x00, 0x00, 0x00, 0x94, 0x00, 0x00, 0x00, 0x74, 0x00, 0x00, 0x00, 
  0x04, 0x00, 0x00, 0x00, 0x42, 0xf3, 0xff, 0xff, 0x04, 0x00, 0x00, 0x00, 
  0x60, 0x00, 0x00, 0x00, 0x0c, 0x00, 0x00, 0x00, 0x08, 0x00, 0x0e, 0x00, 
  0x08, 0x00, 0x04, 0x00, 0x08, 0x00, 0x00, 0x00, 0x10, 0x00, 0x00, 0x00, 
  0x28, 0x00, 0x00, 0x00, 0x00, 0x00, 0x06, 0x00, 0x08, 0x00, 0x04, 0x00, 
  0x06, 0x00, 0x00, 0x00, 0x04, 0x00, 0x00, 0x00, 0x01, 0x00, 0x00, 0x00, 
  0xea, 0x03, 0x00, 0x00, 0x0c, 0x00, 0x18, 0x00, 0x14, 0x00, 0x10, 0x00, 
  0x0c, 0x00, 0x04, 0x00, 0x0c, 0x00, 0x00, 0x00, 0xe0, 0x24, 0x9a, 0x2e, 
  0x3d, 0x4f, 0xc9, 0x94, 0x02, 0x00, 0x00, 0x00, 0x02, 0x00, 0x00, 0x00, 
  0x04, 0x00, 0x00, 0x00, 0x06, 0x00, 0x00, 0x00, 0x32, 0x2e, 0x31, 0x39, 
  0x2e, 0x30, 0x00, 0x00, 0xae, 0xf3, 0xff, 0xff, 0x04, 0x00, 0x00, 0x00, 
  0x10, 0x00, 0x00, 0x00, 0x31, 0x2e, 0x35, 0x2e, 0x30, 0x00, 0x00, 0x00, 
  0x00, 0x00, 0x00, 0x00, 0x00, 0x00, 0x00, 0x00, 0x7c, 0xee, 0xff, 0xff, 
  0x80, 0xee, 0xff, 0xff, 0x84, 0xee, 0xff, 0xff, 0x88, 0xee, 0xff, 0xff, 
  0xda, 0xf3, 0xff, 0xff, 0x04, 0x00, 0x00, 0x00, 0x00, 0x02, 0x00, 0x00, 
  0x74, 0x06, 0xac, 0x3f, 0x40, 0xad, 0xbd, 0xbd, 0x8f, 0x00, 0x2f, 0x3d, 
  0x22, 0xe2, 0xe3, 0x3b, 0x1b, 0xcb, 0xad, 0xbd, 0x3e, 0x80, 0xda, 0xbd, 
  0x82, 0xa6, 0xb8, 0xbd, 0xf8, 0x46, 0x14, 0x3f, 0xf7, 0x75, 0xaf, 0xbf, 
  0x03, 0x29, 0xc7, 0x3d, 0x6f, 0x98, 0x59, 0x3d, 0x36, 0xe6, 0x7f, 0x3c, 
  0xed, 0xae, 0x44, 0xbe, 0x6b, 0xbf, 0xaf, 0x3e, 0x96, 0x2e, 0x68, 0x3f, 
  0xb6, 0xb7, 0x8f, 0x3c, 0xe1, 0x47, 0x97, 0xbc, 0x9c, 0x52, 0xa3, 0x3d, 
  0x90, 0x7b, 0xc8, 0xbd, 0x32, 0x64, 0xd6, 0x3e, 0x3e, 0xaf, 0x67, 0x3f, 
  0x1c, 0x37, 0x9f, 0xbe, 0x40, 0xcc, 0xe6, 0xbe, 0x69, 0x2d, 0x37, 0xbe, 
  0x37, 0x07, 0x67, 0x3f, 0x98, 0x01, 0x07, 0xbf, 0xef, 0x66, 0x29, 0xbf, 
  0xff, 0x75, 0x1e, 0x3e, 0x1c, 0x6f, 0xcb, 0xbe, 0x6c, 0xeb, 0xb3, 0x3f, 
  0xb3, 0xa5, 0xa6, 0x3c, 0x1a, 0x0f, 0xb5, 0x3b, 0xa4, 0x13, 0x44, 0x3e, 
  0x2b, 0x92, 0x11, 0xbc, 0xff, 0x08, 0x37, 0xbf, 0xc9, 0x6e, 0xbb, 0x3d, 
  0x58, 0x09, 0xda, 0xbd, 0x66, 0x88, 0x8e, 0xbe, 0xfe, 0x8a, 0x2f, 0x3f, 
  0x8f, 0x92, 0x9c, 0x3e, 0xc8, 0x3a, 0xb1, 0x3f, 0x70, 0xb8, 0x23, 0xbe, 
  0x6d, 0x29, 0x91, 0xbc, 0xe4, 0x94, 0x7c, 0x3d, 0xce, 0x7a, 0x0d, 0x3d, 
  0xae, 0x3a, 0xde, 0x3d, 0x5a, 0x3f, 0x59, 0xbf, 0xcb, 0x19, 0xbb, 0xbd, 
  0x0f, 0x83, 0xac, 0xbe, 0xe4, 0x4e, 0x93, 0x3f, 0x4e, 0x72, 0xb2, 0xbd, 
  0xde, 0x3a, 0xd5, 0xbc, 0x44, 0x77, 0x2a, 0xbd, 0x38, 0xfe, 0x2c, 0x3e, 
  0xff, 0x39, 0x3f, 0x3e, 0xed, 0x2e, 0x25, 0xbf, 0xae, 0x10, 0x98, 0xbf, 
  0xd3, 0xaf, 0x07, 0x3e, 0xe8, 0xd3, 0x38, 0x3e, 0xa8, 0xe0, 0xdb, 0x3e, 
  0xb3, 0xe1, 0x8e, 0xbd, 0x57, 0x58, 0x50, 0xbf, 0x5c, 0x19, 0x41, 0x3f, 
  0x74, 0xde, 0x90, 0xbc, 0xd6, 0x60, 0xf7, 0x3e, 0x16, 0x6b, 0x5c, 0x3d, 
  0x96, 0x36, 0x89, 0x3d, 0xa2, 0xc6, 0x41, 0xbf, 0x77, 0xc1, 0x9d, 0x3f, 
  0xe5, 0x26, 0x4d, 0xbd, 0xc1, 0x7a, 0x40, 0xbc, 0x8a, 0xaa, 0x18, 0xbd, 
  0xa6, 0xd8, 0xc9, 0x3f, 0x91, 0xfd, 0xd5, 0x3d, 0xdf, 0xce, 0xe7, 0x3c, 
  0xa4, 0x5e, 0x92, 0x3c, 0xc2, 0xe9, 0x88, 0xbd, 0x50, 0xbb, 0x8f, 0x3f, 
  0xce, 0xd4, 0x28, 0xbf, 0xa1, 0x34, 0x82, 0x3d, 0x85, 0x31, 0x4a, 0x3e, 
  0x2a, 0xc5, 0x32, 0xbf, 0x36, 0x90, 0x49, 0x3f, 0x96, 0xc5, 0x82, 0x3a, 
  0x71, 0x11, 0x9c, 0xbe, 0x99, 0x71, 0x54, 0x3f, 0x2f, 0xaa, 0xac, 0x3e, 
  0xd9, 0xeb, 0x17, 0xbe, 0xad, 0x1a, 0x5b, 0xbe, 0x40, 0x47, 0x9b, 0x3c, 
  0x00, 0x33, 0x1d, 0x3e, 0x19, 0x31, 0x05, 0x3f, 0x0b, 0xd7, 0xd6, 0x3e, 
  0x66, 0xdb, 0x48, 0xbe, 0x24, 0xbb, 0x97, 0xbd, 0xda, 0x92, 0x17, 0x3f, 
  0xe6, 0xbc, 0x5d, 0x3e, 0x54, 0x86, 0x56, 0xbf, 0x8c, 0x84, 0x62, 0x3c, 
  0x7e, 0xda, 0x16, 0x3c, 0x7c, 0x97, 0x39, 0x3f, 0x58, 0x30, 0x23, 0xbf, 
  0x23, 0x25, 0x63, 0x3e, 0x2c, 0xc4, 0x4c, 0x3e, 0x3a, 0xb4, 0x92, 0x3e, 
  0x6f, 0x10, 0x82, 0xbf, 0xb6, 0xcb, 0x80, 0x3c, 0xad, 0x3d, 0x8a, 0x3c, 
  0xa2, 0x59, 0xf8, 0xbd, 0x54, 0x7b, 0xbc, 0xbd, 0x31, 0xcf, 0x65, 0x3f, 
  0x31, 0xa1, 0x01, 0xbc, 0x73, 0x58, 0xc7, 0xbf, 0x0d, 0xe2, 0x00, 0x3e, 
  0x72, 0xf7, 0x87, 0x3d, 0xa5, 0xa5, 0x12, 0x3d, 0x46, 0xdc, 0xd2, 0xbf, 
  0x38, 0xf8, 0x4b, 0x3d, 0xc3, 0xad, 0x7c, 0x3c, 0x80, 0x6f, 0x95, 0x3c, 
  0x8e, 0xac, 0x3c, 0x3e, 0xbe, 0xb8, 0x9e, 0xbe, 0xb8, 0x54, 0x21, 0xbd, 
  0x97, 0xa7, 0x23, 0xbf, 0xe9, 0x4c, 0xba, 0x3e, 0xaf, 0x64, 0x88, 0xbf, 
  0x0b, 0x7b, 0xf8, 0xbc, 0x00, 0x51, 0x12, 0x3d, 0xe6, 0xf5, 0xff, 0xff, 
  0x04, 0x00, 0x00, 0x00, 0x80, 0x00, 0x00, 0x00, 0xff, 0x6c, 0x0e, 0xbe, 
  0x86, 0x0e, 0x6f, 0xbf, 0xa1, 0x68, 0x81, 0xbd, 0xcf, 0x5b, 0xeb, 0xbe, 
  0xae, 0x00, 0xaa, 0xbe, 0xcc, 0x06, 0xb4, 0xbe, 0x3c, 0x9d, 0xfc, 0xbe, 
  0x71, 0xa9, 0x62, 0xbe, 0xe7, 0xf1, 0xa6, 0xbe, 0xb3, 0x69, 0xa2, 0xbe, 
  0x86, 0x14, 0x07, 0xbe, 0x1b, 0xa8, 0x95, 0xbe, 0x76, 0xfd, 0x90, 0xbe, 
  0xf8, 0xe5, 0x8d, 0xbf, 0xa3, 0x66, 0x8e, 0xbe, 0xfa, 0xf8, 0x32, 0xbf, 
  0x23, 0xfe, 0x01, 0xbf, 0x55, 0x0c, 0xfc, 0xbd, 0x59, 0x96, 0x02, 0xbe, 
  0xab, 0x35, 0xe4, 0xbe, 0xbb, 0x83, 0xcf, 0xbe, 0x25, 0x52, 0x01, 0xbf, 
  0x88, 0x6c, 0x66, 0xbf, 0xad, 0x98, 0xc6, 0xbe, 0x7e, 0x62, 0x85, 0xbc, 
  0xc6, 0xd7, 0x5e, 0xbf, 0xa0, 0x4d, 0x04, 0xbe, 0xf5, 0xe8, 0x86, 0xbe, 
  0xb6, 0x03, 0xef, 0xbd, 0x89, 0x5d, 0xa2, 0xbd, 0xcc, 0xef, 0x69, 0xbf, 
  0xe7, 0x40, 0xa6, 0xbe, 0x72, 0xf6, 0xff, 0xff, 0x04, 0x00, 0x00, 0x00, 
  0x08, 0x00, 0x00, 0x00, 0xe9, 0x76, 0x85, 0xbe, 0xac, 0x76, 0x85, 0x3e, 
  0x86, 0xf6, 0xff, 0xff, 0x04, 0x00, 0x00, 0x00, 0x40, 0x00, 0x00, 0x00, 
  0xcd, 0x40, 0xa7, 0xbe, 0xe0, 0x33, 0x82, 0x3f, 0x9b, 0xf3, 0xd0, 0x3d, 
  0x2c, 0x8f, 0x9e, 0xbc, 0x27, 0x36, 0x13, 0xbf, 0x07, 0xfb, 0x76, 0xbe, 
  0x33, 0x40, 0xba, 0x3c, 0xb3, 0x0d, 0xce, 0x3e, 0xf1, 0x17, 0x2e, 0xbd, 
  0x38, 0x7e, 0x06, 0x3f, 0x59, 0x69, 0x7e, 0x3f, 0xcd, 0x15, 0x2d, 0x3f, 
  0x83, 0xb7, 0x65, 0x3f, 0xe5, 0xf0, 0xdc, 0xbf, 0x96, 0x22, 0x4d, 0x3e, 
  0x92, 0x90, 0x90, 0xbe, 0xd2, 0xf6, 0xff, 0xff, 0x04, 0x00, 0x00, 0x00, 
  0x00, 0x08, 0x00, 0x00, 0xc0, 0xdf, 0x99, 0xbe, 0xbb, 0x48, 0x12, 0xbf, 
  0xba, 0x35, 0xc8, 0xbd, 0xf2, 0x71, 0xcf, 0xbe, 0xd8, 0xed, 0x4c, 0xbe, 
  0x90, 0xff, 0xcc, 0xbe, 0x45, 0x0b, 0x02, 0x3e, 0xc0, 0x7d, 0x9a, 0xbe, 
  0x45, 0xd5, 0x87, 0xbd, 0x98, 0x5e, 0x37, 0xbf, 0x55, 0x4d, 0xb7, 0xbc, 
  0x86, 0x21, 0xe0, 0xbc, 0xfe, 0xd9, 0x1a, 0xbe, 0x7f, 0xb6, 0x18, 0xbf, 
  0x94, 0xa7, 0x8a, 0xbd, 0x73, 0x5a, 0xe7, 0xbb, 0xd8, 0x92, 0x9b, 0x3c, 
  0xa3, 0x5e, 0x33, 0xbc, 0xc3, 0xe2, 0x38, 0xbf, 0x5d, 0xe5, 0x4d, 0xbe, 
  0x2a, 0xd0, 0x4b, 0xbe, 0xf2, 0x1c, 0xaa, 0xbe, 0xb6, 0x4b, 0xa1, 0xbe, 
  0xc9, 0xe0, 0x2f, 0xbf, 0x17, 0x89, 0xc6, 0xbd, 0x07, 0x7d, 0x34, 0xbe, 
  0xc2, 0x48, 0xc1, 0x3c, 0x5c, 0x51, 0x2c, 0x3e, 0xf8, 0xf9, 0xab, 0xbd, 
  0x62, 0x29, 0x7e, 0xbc, 0x8a, 0x9e, 0x2c, 0x3d, 0x4d, 0xfc, 0xb0, 0xbe, 
  0x3a, 0x56, 0x19, 0xbf, 0xa4, 0xeb, 0x0d, 0xbf, 0xf9, 0x52, 0xec, 0xbe, 
  0x8b, 0xf1, 0x91, 0xbe, 0x78, 0xc5, 0x65, 0x3e, 0x16, 0xa9, 0x04, 0xbe, 
  0x54, 0x81, 0x10, 0xbe, 0x9d, 0x7f, 0x4b, 0x3e, 0xfe, 0xed, 0x9f, 0x3d, 
  0xa9, 0x78, 0xb9, 0xbe, 0x2d, 0x9a, 0x77, 0xbf, 0xb3, 0xbc, 0x99, 0x3d, 
  0x06, 0x11, 0x2e, 0xbd, 0xf5, 0x33, 0x86, 0x3e, 0x38, 0x65, 0x13, 0xbf, 
  0x3a, 0x72, 0x4f, 0xbe, 0x13, 0x71, 0x09, 0x3f, 0xc2, 0x2a, 0x38, 0xbf, 
  0xa6, 0xfb, 0x02, 0xbf, 0xc7, 0xfd, 0xa1, 0x3e, 0xe1, 0x17, 0xe1, 0xbd, 
  0x4a, 0x65, 0x67, 0xbe, 0x23, 0xd0, 0x71, 0x3c, 0x8b, 0xd4, 0x05, 0x3f, 
  0x93, 0xf7, 0x69, 0x3e, 0x2d, 0x1a, 0x46, 0xbf, 0x8d, 0xfd, 0x34, 0x3e, 
  0xc0, 0xa9, 0x92, 0xbe, 0x2f, 0x6b, 0x0b, 0xbf, 0x95, 0x00, 0xb8, 0xbe, 
  0x45, 0xd2, 0x04, 0xbf, 0x71, 0xdf, 0x61, 0x3d, 0xf2, 0x53, 0xb4, 0x3e, 
  0x00, 0x6c, 0x24, 0xbf, 0x59, 0x9c, 0x37, 0xbd, 0xd4, 0xde, 0x4e, 0x3f, 
  0x4a, 0x9e, 0x65, 0x3e, 0xcf, 0x6e, 0x07, 0xbf, 0x5d, 0x69, 0xdf, 0xbe, 
  0x6e, 0xc9, 0x93, 0xbd, 0x88, 0x5b, 0xea, 0x3d, 0x3a, 0xa3, 0x08, 0xbf, 
  0xa0, 0x58, 0x96, 0x3d, 0x88, 0xb7, 0xee, 0xbe, 0x93, 0x4a, 0xd1, 0xbe, 
  0xee, 0x08, 0x8f, 0xbe, 0x8c, 0xb7, 0x36, 0x3d, 0x9a, 0xf4, 0xa1, 0xbf, 
  0xb9, 0xb4, 0x65, 0xbe, 0x6b, 0xf5, 0xee, 0x3d, 0x3f, 0x13, 0x2b, 0xbf, 
  0x1c, 0x11, 0x0a, 0x3f, 0xb5, 0x04, 0x3e, 0x3d, 0x17, 0xba, 0x24, 0x3f, 
  0xf0, 0x67, 0x20, 0xbf, 0x77, 0xd0, 0x39, 0xbf, 0x90, 0xa3, 0x36, 0xc0, 
  0xf6, 0x59, 0x45, 0xbf, 0x91, 0x1e, 0xdc, 0xbe, 0xa2, 0xce, 0xa6, 0xbe, 
  0x90, 0x3a, 0xc6, 0xb9, 0xd6, 0xf4, 0x95, 0x3c, 0x50, 0xaf, 0xf0, 0xbe, 
  0x25, 0x87, 0x63, 0x3e, 0x98, 0x1b, 0xd0, 0x3c, 0xab, 0xcc, 0x77, 0xbf, 
  0xd2, 0x11, 0xbd, 0x3b, 0x2f, 0x77, 0xba, 0xbe, 0xb8, 0x07, 0x69, 0xbf, 
  0xe6, 0x5a, 0x3a, 0xbf, 0x66, 0x95, 0x49, 0xbf, 0xf0, 0x5e, 0x09, 0xbf, 
  0x41, 0x8c, 0x75, 0x3f, 0x80, 0x72, 0x16, 0x3f, 0x02, 0xb7, 0xdd, 0x3d, 
  0x60, 0x67, 0x21, 0xbe, 0x9a, 0x15, 0x9f, 0x3f, 0x8d, 0xb5, 0x84, 0xbf, 
  0xff, 0x36, 0xe9, 0x3d, 0xba, 0x8f, 0x57, 0x3e, 0xdc, 0xa9, 0x6d, 0xbf, 
  0x6d, 0xc5, 0x9d, 0x3e, 0x0f, 0x22, 0xb8, 0x3c, 0x32, 0xfd, 0xe0, 0xbe, 
  0x12, 0x38, 0x72, 0x3f, 0xde, 0xf1, 0xb7, 0xbe, 0xe0, 0x9f, 0x9e, 0xbf, 
  0x04, 0x55, 0x19, 0xbd, 0x9b, 0xff, 0x7b, 0x3e, 0x58, 0x2c, 0x2f, 0x3f, 
  0x26, 0x6a, 0x6c, 0xbe, 0xee, 0x97, 0x8d, 0x3e, 0x1d, 0xf6, 0x84, 0x3e, 
  0x3e, 0x63, 0x47, 0x3e, 0xdc, 0xbe, 0x33, 0xbf, 0xdb, 0x4c, 0x13, 0xbe, 
  0x0e, 0x70, 0xde, 0xbe, 0xb1, 0xd7, 0x9b, 0xbe, 0x15, 0xc0, 0x37, 0x3e, 
  0x14, 0x98, 0x80, 0xbe, 0xad, 0x9a, 0x05, 0x3e, 0x6d, 0x5e, 0x9c, 0xbe, 
  0xbf, 0xe4, 0xa0, 0x3c, 0x6b, 0x70, 0x48, 0xbf, 0xe9, 0x5a, 0x90, 0xbd, 
  0xb3, 0x5b, 0xb1, 0x3e, 0xa8, 0x73, 0xc3, 0x3e, 0xed, 0x8f, 0x98, 0x3e, 
  0x13, 0x8b, 0x54, 0x3f, 0x3e, 0xc0, 0x45, 0xbf, 0x57, 0x28, 0x24, 0xbd, 
  0x92, 0x1a, 0x0f, 0x3e, 0x57, 0x19, 0x9c, 0xbe, 0xdb, 0x3f, 0xb0, 0x3e, 
  0x03, 0x49, 0xc5, 0xbe, 0x5a, 0xb4, 0x4c, 0xbe, 0x51, 0x09, 0x31, 0xbf, 
  0x6e, 0xce, 0xa5, 0xbd, 0x7f, 0x6f, 0x6a, 0xbf, 0xcf, 0x70, 0x06, 0xbe, 
  0x44, 0x28, 0x00, 0x3f, 0x7a, 0x6f, 0x06, 0xbf, 0x63, 0x5c, 0x54, 0x3e, 
  0x07, 0x1c, 0x75, 0x3e, 0xc6, 0x80, 0x23, 0x3d, 0x5d, 0xea, 0xaa, 0x3c, 
  0x5a, 0x97, 0x33, 0xbe, 0x71, 0xb6, 0xd8, 0xbd, 0xb8, 0xc7, 0x99, 0xbd, 
  0x31, 0x1b, 0xb5, 0xbe, 0x85, 0x6a, 0x11, 0xbe, 0xbd, 0xf7, 0x28, 0xbd, 
  0x9e, 0xba, 0x35, 0x3e, 0x5e, 0x7a, 0x0a, 0xbf, 0xc0, 0xe4, 0xfc, 0xbe, 
  0x0a, 0x51, 0x5f, 0x3f, 0xe4, 0xa5, 0x42, 0x3e, 0x20, 0xbb, 0x40, 0xbc, 
  0x13, 0x85, 0xeb, 0x3e, 0xb1, 0xee, 0x1c, 0x3f, 0x5a, 0xf5, 0xab, 0xbd, 
  0x54, 0xdf, 0xbd, 0xbf, 0x83, 0x68, 0x48, 0xbe, 0x64, 0x0c, 0x20, 0x3f, 
  0x76, 0x18, 0xe3, 0xbe, 0x74, 0x5a, 0xcc, 0x3c, 0x6b, 0x0c, 0x94, 0xbe, 
  0x35, 0x91, 0x80, 0xbf, 0x4b, 0xd8, 0xed, 0x3d, 0x81, 0x79, 0xd0, 0xbe, 
  0xf6, 0x04, 0x44, 0xbf, 0x21, 0x2e, 0x27, 0x3e, 0x39, 0x03, 0x09, 0x3f, 
  0x6c, 0x67, 0x48, 0xbe, 0x5a, 0x87, 0x3f, 0xbd, 0x12, 0x1f, 0x31, 0x3d, 
  0x59, 0x4e, 0x09, 0x3e, 0x1f, 0x82, 0xa2, 0x3e, 0x94, 0x66, 0xb8, 0xbe, 
  0x66, 0xa2, 0xe4, 0xbe, 0xd7, 0xf3, 0x88, 0x3e, 0xb3, 0x90, 0x10, 0xbe, 
  0xf4, 0x49, 0x75, 0x3f, 0x30, 0xbc, 0xb4, 0xbd, 0xa3, 0x5d, 0x1d, 0x3c, 
  0x18, 0x3d, 0x90, 0xbe, 0xa3, 0x8c, 0x7e, 0xbe, 0x22, 0x4f, 0x45, 0xbf, 
  0x9d, 0xf9, 0x90, 0x3e, 0x69, 0x3a, 0x3c, 0xbe, 0xcc, 0x48, 0xd1, 0xbd, 
  0xa0, 0x27, 0xac, 0x3d, 0x7f, 0x97, 0xd4, 0x3f, 0x79, 0x89, 0x01, 0xbf, 
  0x6e, 0xb7, 0x7e, 0xbe, 0x02, 0x68, 0xef, 0xbe, 0xd9, 0xae, 0xb1, 0xbe, 
  0xe9, 0x23, 0xca, 0xbc, 0xe5, 0x05, 0x76, 0xbe, 0x03, 0x1e, 0x15, 0xbf, 
  0x2c, 0x2a, 0xd9, 0x3e, 0xc8, 0x05, 0x18, 0xbe, 0x5a, 0x06, 0x6b, 0xbe, 
  0xc0, 0x6c, 0xb4, 0x3d, 0x82, 0xbe, 0x15, 0xbf, 0x28, 0xd4, 0x9b, 0xbe, 
  0x0a, 0xe4, 0x90, 0x3f, 0x4c, 0xe4, 0x48, 0x3d, 0x7d, 0xa6, 0x32, 0xbe, 
  0xb9, 0x6d, 0xc5, 0xbe, 0xec, 0xd6, 0x61, 0xbe, 0xa3, 0xff, 0xc8, 0xbe, 
  0x09, 0xf0, 0x09, 0xbf, 0x82, 0x80, 0x47, 0x3d, 0x4e, 0x8a, 0x8d, 0xbf, 
  0x3d, 0x27, 0xd8, 0x3c, 0xdc, 0x1d, 0x2f, 0x3e, 0x85, 0x69, 0x33, 0x3f, 
  0xce, 0x06, 0xd4, 0x3b, 0x20, 0x4c, 0xb9, 0xbf, 0xe6, 0x38, 0x8f, 0xbd, 
  0x50, 0x2d, 0x61, 0x3e, 0xfd, 0xd6, 0xa9, 0xbf, 0x74, 0xcd, 0x66, 0x3e, 
  0x2e, 0xcf, 0x28, 0xc0, 0x63, 0xf1, 0x2c, 0xbe, 0xa7, 0x9b, 0xbf, 0x3e, 
  0xd0, 0x42, 0x14, 0x3b, 0x89, 0x94, 0x9f, 0x3e, 0xbb, 0x79, 0xde, 0xbe, 
  0xc9, 0x0e, 0x74, 0xbf, 0x90, 0xa4, 0xcc, 0x3d, 0x2c, 0xb6, 0xb9, 0x3e, 
  0xfc, 0xda, 0x20, 0xbb, 0x9f, 0x3b, 0x32, 0xbf, 0x33, 0xb8, 0xd4, 0x3e, 
  0x75, 0x51, 0x17, 0xbf, 0x9a, 0x9a, 0x2f, 0xc0, 0xdd, 0x99, 0x16, 0xc0, 
  0xd8, 0x96, 0xfa, 0x3e, 0x77, 0x14, 0xae, 0xbf, 0xfa, 0xe2, 0x9b, 0xbf, 
  0x12, 0xda, 0xd7, 0x3e, 0xf8, 0x9a, 0x06, 0xc0, 0x60, 0x08, 0x0d, 0x3f, 
  0xc9, 0x2f, 0xa6, 0x3c, 0x2f, 0x42, 0x7a, 0x3e, 0x85, 0x5e, 0x04, 0xc0, 
  0xcc, 0xc2, 0xa6, 0x3e, 0xc4, 0xc4, 0xd9, 0x3d, 0x17, 0x3a, 0x18, 0xbd, 
  0x96, 0x06, 0xc6, 0xbe, 0xa9, 0x8e, 0x3b, 0xc0, 0xd6, 0xf2, 0x38, 0x3e, 
  0xcc, 0xce, 0xe4, 0x3e, 0x68, 0xe0, 0x15, 0xc0, 0xd8, 0xeb, 0x9b, 0xbf, 
  0xaa, 0x78, 0xe4, 0x3e, 0x75, 0x41, 0xb5, 0x3e, 0xeb, 0x8b, 0xa2, 0xbf, 
  0xd2, 0xc7, 0x8a, 0xbf, 0x1e, 0xfa, 0xcd, 0x3e, 0x1d, 0x3f, 0xa1, 0x3e, 
  0x68, 0x35, 0xcf, 0xbf, 0xe2, 0xdb, 0xcc, 0xbf, 0xd1, 0xc3, 0xeb, 0xbf, 
  0xf3, 0x60, 0xb5, 0x3e, 0x27, 0x8b, 0x91, 0xbd, 0x17, 0xfa, 0xff, 0xbd, 
  0x70, 0xd2, 0x8d, 0xbe, 0x35, 0xa1, 0xc6, 0xbe, 0x92, 0xed, 0xe2, 0xbf, 
  0xba, 0x0d, 0x59, 0x3e, 0x9c, 0x1d, 0xa1, 0x3e, 0x86, 0x4c, 0x1f, 0xbe, 
  0xca, 0xe9, 0xe7, 0xbe, 0x00, 0x9e, 0x8a, 0xbf, 0x92, 0x3f, 0x61, 0x3d, 
  0x80, 0x79, 0x72, 0xbf, 0x0b, 0x10, 0x85, 0x3e, 0xf4, 0xb3, 0xbb, 0x3e, 
  0xca, 0xce, 0x4f, 0xbe, 0xd2, 0x33, 0xd8, 0xbe, 0x48, 0xbe, 0xc2, 0xbd, 
  0xf9, 0x2b, 0x8d, 0x3d, 0x31, 0x20, 0x3b, 0x3f, 0x49, 0x47, 0x90, 0xbf, 
  0x2e, 0x0a, 0x18, 0x3f, 0x15, 0xe1, 0xec, 0xbe, 0x36, 0xb5, 0x87, 0xbe, 
  0xe3, 0x45, 0x66, 0x3f, 0xfc, 0xf2, 0x2e, 0x3e, 0x0a, 0x02, 0x47, 0x3e, 
  0x80, 0x41, 0x66, 0xbf, 0xcf, 0xbf, 0x58, 0xbf, 0x81, 0xad, 0x13, 0xbf, 
  0x60, 0xa7, 0x02, 0x3f, 0xe8, 0x9a, 0x8e, 0xbf, 0xc3, 0x80, 0xfd, 0xbe, 
  0xa0, 0x94, 0x2e, 0x3f, 0xf2, 0x44, 0x19, 0xbf, 0x7d, 0x7e, 0x07, 0xbf, 
  0xd8, 0xe9, 0x8b, 0xbe, 0xe6, 0x3a, 0x97, 0x3e, 0xfd, 0xdd, 0x83, 0xbf, 
  0x1e, 0x49, 0x97, 0xbf, 0x8d, 0xfe, 0x26, 0xbe, 0x50, 0x00, 0x49, 0xbe, 
  0xb2, 0xbf, 0x95, 0xbd, 0x26, 0x01, 0xbb, 0x3e, 0x26, 0x0d, 0xf5, 0xbd, 
  0x53, 0xd9, 0x38, 0xbf, 0x00, 0x82, 0x8d, 0x3c, 0x8a, 0x2b, 0x0f, 0xbf, 
  0x07, 0x5d, 0x61, 0xbf, 0xe9, 0xba, 0xa7, 0xbd, 0x54, 0xd6, 0x2b, 0xbf, 
  0x77, 0x39, 0x13, 0xbd, 0xb7, 0x20, 0x0e, 0xbe, 0x65, 0xac, 0xe9, 0xbe, 
  0x69, 0x28, 0x23, 0xbd, 0xf8, 0x04, 0x8b, 0x3e, 0x8f, 0x40, 0x60, 0xbe, 
  0x1d, 0x4b, 0xe3, 0xbf, 0x0a, 0x14, 0x85, 0xbe, 0x2d, 0x0b, 0x8c, 0xbd, 
  0x69, 0x82, 0xf8, 0xbd, 0xce, 0xdd, 0xd6, 0xbe, 0x6c, 0xff, 0x8d, 0xbf, 
  0xe1, 0x12, 0x34, 0xbf, 0x93, 0x54, 0x14, 0x3f, 0x56, 0x22, 0x8c, 0xbe, 
  0x53, 0x27, 0xe7, 0xbd, 0x36, 0xaa, 0x94, 0xbe, 0xa9, 0x58, 0xf2, 0xbd, 
  0x27, 0x7e, 0x55, 0xbe, 0x6d, 0x0c, 0x30, 0xbe, 0x54, 0xfa, 0x69, 0xbe, 
  0x11, 0xd0, 0x47, 0x3e, 0x8b, 0x47, 0x16, 0xbe, 0x81, 0x11, 0x10, 0xbf, 
  0x69, 0x5d, 0x8c, 0x3e, 0xb8, 0x20, 0x88, 0xbf, 0x7d, 0x14, 0x8b, 0xbf, 
  0x6b, 0x28, 0x85, 0xbd, 0xe2, 0x95, 0x37, 0xbf, 0x1d, 0x73, 0xca, 0xbe, 
  0xd4, 0x77, 0x65, 0x3e, 0x8e, 0x42, 0x7b, 0xbf, 0x49, 0xed, 0x2d, 0xbf, 
  0x4f, 0x9b, 0x79, 0xbf, 0x52, 0x3a, 0x35, 0xbf, 0x06, 0x26, 0x3d, 0x3d, 
  0x0f, 0x88, 0xab, 0xbf, 0xf2, 0x42, 0x92, 0xbe, 0x44, 0xe9, 0x82, 0xbe, 
  0x8f, 0xba, 0x4e, 0xbf, 0x52, 0x85, 0x35, 0xbf, 0x9a, 0x43, 0xcb, 0xbe, 
  0xaa, 0x5e, 0x2c, 0xbe, 0xd3, 0x7c, 0x19, 0xbe, 0x95, 0x67, 0xca, 0xbe, 
  0xa9, 0x22, 0x8d, 0x3f, 0x6e, 0xd8, 0x02, 0xbf, 0xb1, 0x64, 0x0c, 0x3d, 
  0x1b, 0xf3, 0x6d, 0xbf, 0x36, 0xc3, 0xb4, 0x3e, 0xb7, 0x3d, 0x7b, 0xbf, 
  0xea, 0x88, 0x80, 0xbf, 0x1b, 0xe0, 0x60, 0xbf, 0x17, 0x8a, 0x3b, 0xc0, 
  0x02, 0x58, 0x8d, 0x3e, 0x29, 0xea, 0x90, 0x3e, 0x2e, 0xde, 0xee, 0xbf, 
  0xe9, 0xa1, 0x95, 0xbd, 0x28, 0xd6, 0xa3, 0xbe, 0x33, 0x9a, 0xb7, 0xbe, 
  0xab, 0x8d, 0x6b, 0x3e, 0x54, 0x80, 0x6c, 0x3d, 0xea, 0x81, 0xff, 0x3e, 
  0xe3, 0xa6, 0x80, 0x3e, 0xd1, 0x43, 0x8f, 0x3e, 0x54, 0x34, 0x47, 0x3e, 
  0xaa, 0x1e, 0xc7, 0x3e, 0x5d, 0x9c, 0xe3, 0x3e, 0x3d, 0x00, 0xd8, 0xbf, 
  0x4d, 0xf9, 0xbb, 0xbe, 0xde, 0x7a, 0x64, 0xbe, 0x58, 0x3a, 0xe4, 0xbe, 
  0xb0, 0x11, 0x0e, 0x3e, 0xc0, 0x54, 0x53, 0x3e, 0xb9, 0x1f, 0xcb, 0x3e, 
  0x6f, 0x8e, 0xf6, 0xbd, 0x89, 0x0a, 0x28, 0x3e, 0x76, 0xfd, 0xe9, 0xbf, 
  0x09, 0x08, 0xe0, 0xbb, 0x40, 0x28, 0x0f, 0x3f, 0xb0, 0x4f, 0x12, 0xbe, 
  0xe1, 0xd1, 0x84, 0x3e, 0x1e, 0x08, 0x5f, 0xbb, 0x37, 0x53, 0x1a, 0x3d, 
  0x00, 0x69, 0x01, 0xbe, 0x39, 0xef, 0x9f, 0xbf, 0x4d, 0x4b, 0x0c, 0x3f, 
  0x05, 0xbc, 0x40, 0xbc, 0xbb, 0x1f, 0xe4, 0x3d, 0xa8, 0x17, 0xd6, 0xbd, 
  0x44, 0xb4, 0x12, 0xbe, 0x03, 0xfb, 0x2d, 0xbc, 0x07, 0x98, 0x14, 0x3e, 
  0x6d, 0xc8, 0x06, 0xbe, 0xeb, 0x95, 0x0b, 0x3f, 0x19, 0x2a, 0xc1, 0x3e, 
  0xde, 0x45, 0xca, 0x3e, 0xb3, 0x1f, 0x7c, 0xbd, 0x1c, 0x28, 0x15, 0x3f, 
  0x2f, 0x9d, 0x05, 0x3f, 0x0c, 0xad, 0xa1, 0xbf, 0x66, 0x54, 0xa2, 0xbe, 
  0x00, 0x54, 0x7c, 0x3d, 0xd4, 0xd3, 0x62, 0xbe, 0x66, 0x5e, 0x01, 0xbe, 
  0x2e, 0x8f, 0xab, 0xbc, 0x82, 0xd4, 0x26, 0x3f, 0x15, 0xb6, 0x93, 0x3b, 
  0xc3, 0xa6, 0x51, 0x3f, 0x6a, 0x53, 0xb7, 0xbe, 0x61, 0xea, 0x1e, 0x3e, 
  0x9a, 0x2a, 0xac, 0x3e, 0x7b, 0xda, 0xec, 0x3e, 0xbe, 0x86, 0xb8, 0x3e, 
  0xe1, 0xa8, 0xe7, 0x3d, 0xd3, 0xdb, 0x76, 0xbe, 0xc7, 0xaa, 0xb5, 0xbd, 
  0xbf, 0x6f, 0xe7, 0xbd, 0x5c, 0xf3, 0x1f, 0x3e, 0x18, 0x0a, 0x20, 0xc0, 
  0xfc, 0xf4, 0x0c, 0xc0, 0xba, 0x83, 0x01, 0xbf, 0x21, 0x63, 0x14, 0x3d, 
  0x22, 0x30, 0x57, 0xbf, 0x0d, 0xd4, 0x14, 0xbf, 0xdc, 0x4a, 0x56, 0xbf, 
  0xc0, 0xf9, 0xd6, 0xbf, 0xd7, 0x2c, 0x5f, 0x3e, 0xe2, 0x46, 0xce, 0xbe, 
  0xf4, 0x81, 0x48, 0xc0, 0xcb, 0xdf, 0xc7, 0x3e, 0x3f, 0x87, 0x26, 0xbf, 
  0xda, 0x99, 0x84, 0x3f, 0xfc, 0xda, 0xdf, 0xbf, 0x36, 0xf3, 0xcb, 0xbe, 
  0xc6, 0xd7, 0x75, 0xbf, 0xc1, 0xd2, 0x31, 0xc0, 0x07, 0x55, 0x63, 0xc0, 
  0x1e, 0xbe, 0xb8, 0xbe, 0xf8, 0x93, 0x18, 0xbe, 0x2e, 0xb3, 0xbe, 0x3e, 
  0x0c, 0xb7, 0xa7, 0xbe, 0x2b, 0x6d, 0x13, 0xc0, 0xe4, 0x13, 0xa7, 0x3d, 
  0x33, 0xb7, 0xe8, 0xbf, 0x25, 0x61, 0xfe, 0x3e, 0x25, 0xf9, 0xd4, 0x3e, 
  0xe2, 0x6b, 0x19, 0xbf, 0x6a, 0x1b, 0x5f, 0xbe, 0xe0, 0xe8, 0x8d, 0xbd, 
  0x2c, 0x90, 0xf5, 0x3e, 0x0d, 0x85, 0x01, 0x3e, 0x78, 0xb1, 0x7c, 0xbf, 
  0x8e, 0xee, 0x39, 0x3e, 0xe0, 0xbe, 0x84, 0x3e, 0x2f, 0x57, 0x93, 0xbe, 
  0xa5, 0xe8, 0x2c, 0xbf, 0x0f, 0x30, 0xa3, 0xbf, 0x81, 0x3d, 0x3d, 0x3f, 
  0x0c, 0x0c, 0x7b, 0x3e, 0xed, 0x1f, 0x6f, 0x3e, 0xaa, 0x0d, 0x3b, 0x3e, 
  0x68, 0x1a, 0xea, 0x3e, 0x51, 0xe1, 0xec, 0xbc, 0xdb, 0xde, 0x54, 0xbf, 
  0xa3, 0x03, 0x35, 0x3f, 0x78, 0x12, 0x06, 0x3f, 0xc5, 0x38, 0x9b, 0x3d, 
  0x8e, 0xd0, 0xb0, 0x3e, 0x4b, 0x37, 0x5d, 0x3e, 0xbe, 0x8c, 0x64, 0x3f, 
  0xd5, 0x42, 0x86, 0x3d, 0x3c, 0x1e, 0xfa, 0x3e, 0x7e, 0x88, 0xd3, 0xbe, 
  0x2b, 0x37, 0x10, 0xbf, 0xb4, 0xdb, 0x0b, 0xbe, 0xb2, 0x72, 0xa2, 0xbf, 
  0x08, 0xdc, 0xfd, 0x3e, 0x3f, 0x63, 0xd0, 0x3e, 0x33, 0xd8, 0xd9, 0xbc, 
  0x98, 0xc2, 0x00, 0x3e, 0xe9, 0x2c, 0x2f, 0xbf, 0x98, 0x56, 0x37, 0x3f, 
  0xde, 0xfe, 0xff, 0xff, 0x04, 0x00, 0x00, 0x00, 0x80, 0x00, 0x00, 0x00, 
  0x89, 0x5a, 0xf5, 0x3e, 0x46, 0x96, 0x02, 0xbe, 0x9d, 0xd7, 0x96, 0x3c, 
  0x2b, 0x8e, 0x24, 0x3e, 0x33, 0xc8, 0x8b, 0x3d, 0x43, 0xc2, 0xb2, 0xbe, 
  0x02, 0xf8, 0x25, 0x3e, 0xc8, 0x8c, 0xa7, 0x3e, 0x50, 0xd4, 0xbc, 0x3d, 
  0x5b, 0x9b, 0x09, 0x3f, 0x02, 0x8f, 0x53, 0x3f, 0x24, 0x03, 0xb8, 0x3e, 
  0x14, 0x66, 0xc5, 0xbe, 0xe5, 0xd1, 0xc5, 0x3c, 0x11, 0x56, 0xa4, 0x3e, 
  0xfc, 0xb3, 0x61, 0xbd, 0x23, 0x07, 0xe6, 0x3e, 0x41, 0xcc, 0x1b, 0xbf, 
  0x74, 0xb6, 0x85, 0x3e, 0x84, 0x7f, 0xc3, 0x3e, 0xa9, 0xd6, 0xeb, 0x3d, 
  0x46, 0x48, 0xa3, 0xbd, 0xcd, 0x03, 0x13, 0x3f, 0x16, 0x66, 0xdc, 0xbd, 
  0xd5, 0x1d, 0x7b, 0xbe, 0x43, 0x67, 0x35, 0x3e, 0x2f, 0x0e, 0x84, 0xbe, 
  0x67, 0xf5, 0xda, 0xbe, 0x4c, 0x04, 0x55, 0x3e, 0x15, 0x6e, 0xd7, 0xbe, 
  0x8f, 0x5d, 0x82, 0xbd, 0x7d, 0xb7, 0x8b, 0x3e, 0x1c, 0xfa, 0xff, 0xff, 
  0x20, 0xfa, 0xff, 0xff, 0x0f, 0x00, 0x00, 0x00, 0x4d, 0x4c, 0x49, 0x52, 
  0x20, 0x43, 0x6f, 0x6e, 0x76, 0x65, 0x72, 0x74, 0x65, 0x64, 0x2e, 0x00, 
  0x01, 0x00, 0x00, 0x00, 0x14, 0x00, 0x00, 0x00, 0x00, 0x00, 0x0e, 0x00, 
  0x18, 0x00, 0x14, 0x00, 0x10, 0x00, 0x0c, 0x00, 0x08, 0x00, 0x04, 0x00, 
  0x0e, 0x00, 0x00, 0x00, 0x14, 0x00, 0x00, 0x00, 0x1c, 0x00, 0x00, 0x00, 
  0x24, 0x01, 0x00, 0x00, 0x28, 0x01, 0x00, 0x00, 0x2c, 0x01, 0x00, 0x00, 
  0x04, 0x00, 0x00, 0x00, 0x6d, 0x61, 0x69, 0x6e, 0x00, 0x00, 0x00, 0x00, 
  0x04, 0x00, 0x00, 0x00, 0xcc, 0x00, 0x00, 0x00, 0x84, 0x00, 0x00, 0x00, 
  0x50, 0x00, 0x00, 0x00, 0x14, 0x00, 0x00, 0x00, 0x00, 0x00, 0x0e, 0x00, 
  0x1a, 0x00, 0x14, 0x00, 0x10, 0x00, 0x0c, 0x00, 0x0b, 0x00, 0x04, 0x00, 
  0x0e, 0x00, 0x00, 0x00, 0x1c, 0x00, 0x00, 0x00, 0x00, 0x00, 0x00, 0x09, 
  0x1c, 0x00, 0x00, 0x00, 0x20, 0x00, 0x00, 0x00, 0x01, 0x00, 0x00, 0x00, 
  0x00, 0x00, 0x06, 0x00, 0x08, 0x00, 0x04, 0x00, 0x06, 0x00, 0x00, 0x00, 
  0x00, 0x00, 0x80, 0x3f, 0x01, 0x00, 0x00, 0x00, 0x0a, 0x00, 0x00, 0x00, 
  0x01, 0x00, 0x00, 0x00, 0x09, 0x00, 0x00, 0x00, 0x9a, 0xff, 0xff, 0xff, 
  0x10, 0x00, 0x00, 0x00, 0x00, 0x00, 0x00, 0x08, 0x0c, 0x00, 0x00, 0x00, 
  0x10, 0x00, 0x00, 0x00, 0xe4, 0xfa, 0xff, 0xff, 0x01, 0x00, 0x00, 0x00, 
  0x09, 0x00, 0x00, 0x00, 0x03, 0x00, 0x00, 0x00, 0x08, 0x00, 0x00, 0x00, 
  0x01, 0x00, 0x00, 0x00, 0x04, 0x00, 0x00, 0x00, 0xca, 0xff, 0xff, 0xff, 
  0x10, 0x00, 0x00, 0x00, 0x00, 0x00, 0x00, 0x08, 0x10, 0x00, 0x00, 0x00, 
  0x14, 0x00, 0x00, 0x00, 0xba, 0xff, 0xff, 0xff, 0x00, 0x00, 0x00, 0x01, 
  0x01, 0x00, 0x00, 0x00, 0x08, 0x00, 0x00, 0x00, 0x03, 0x00, 0x00, 0x00, 
  0x07, 0x00, 0x00, 0x00, 0x02, 0x00, 0x00, 0x00, 0x03, 0x00, 0x00, 0x00, 
  0x00, 0x00, 0x0e, 0x00, 0x16, 0x00, 0x00, 0x00, 0x10, 0x00, 0x0c, 0x00, 
  0x0b, 0x00, 0x04, 0x00, 0x0e, 0x00, 0x00, 0x00, 0x18, 0x00, 0x00, 0x00, 
  0x00, 0x00, 0x00, 0x08, 0x18, 0x00, 0x00, 0x00, 0x1c, 0x00, 0x00, 0x00, 
  0x00, 0x00, 0x06, 0x00, 0x08, 0x00, 0x07, 0x00, 0x06, 0x00, 0x00, 0x00, 
  0x00, 0x00, 0x00, 0x01, 0x01, 0x00, 0x00, 0x00, 0x07, 0x00, 0x00, 0x00, 
  0x03, 0x00, 0x00, 0x00, 0x00, 0x00, 0x00, 0x00, 0x06, 0x00, 0x00, 0x00, 
  0x05, 0x00, 0x00, 0x00, 0x01, 0x00, 0x00, 0x00, 0x0a, 0x00, 0x00, 0x00, 
  0x01, 0x00, 0x00, 0x00, 0x00, 0x00, 0x00, 0x00, 0x0b, 0x00, 0x00, 0x00, 
  0x44, 0x04, 0x00, 0x00, 0xec, 0x03, 0x00, 0x00, 0x94, 0x03, 0x00, 0x00, 
  0x34, 0x03, 0x00, 0x00, 0xd4, 0x02, 0x00, 0x00, 0x78, 0x02, 0x00, 0x00, 
  0x28, 0x02, 0x00, 0x00, 0x88, 0x01, 0x00, 0x00, 0xe4, 0x00, 0x00, 0x00, 
  0x60, 0x00, 0x00, 0x00, 0x04, 0x00, 0x00, 0x00, 0xfe, 0xfb, 0xff, 0xff, 
  0x00, 0x00, 0x00, 0x01, 0x14, 0x00, 0x00, 0x00, 0x1c, 0x00, 0x00, 0x00, 
  0x1c, 0x00, 0x00, 0x00, 0x0b, 0x00, 0x00, 0x00, 0x34, 0x00, 0x00, 0x00, 
  0x02, 0x00, 0x00, 0x00, 0xff, 0xff, 0xff, 0xff, 0x02, 0x00, 0x00, 0x00, 
  0xe8, 0xfb, 0xff, 0xff, 0x1b, 0x00, 0x00, 0x00, 0x53, 0x74, 0x61, 0x74, 
  0x65, 0x66, 0x75, 0x6c, 0x50, 0x61, 0x72, 0x74, 0x69, 0x74, 0x69, 0x6f, 
  0x6e, 0x65, 0x64, 0x43, 0x61, 0x6c, 0x6c, 0x5f, 0x31, 0x3a, 0x30, 0x00, 
  0x02, 0x00, 0x00, 0x00, 0x01, 0x00, 0x00, 0x00, 0x02, 0x00, 0x00, 0x00, 
  0x56, 0xfc, 0xff, 0xff, 0x00, 0x00, 0x00, 0x01, 0x14, 0x00, 0x00, 0x00, 
  0x1c, 0x00, 0x00, 0x00, 0x1c, 0x00, 0x00, 0x00, 0x0a, 0x00, 0x00, 0x00, 
  0x5c, 0x00, 0x00, 0x00, 0x02, 0x00, 0x00, 0x00, 0xff, 0xff, 0xff, 0xff, 
  0x02, 0x00, 0x00, 0x00, 0x40, 0xfc, 0xff, 0xff, 0x42, 0x00, 0x00, 0x00, 
  0x73, 0x65, 0x71, 0x75, 0x65, 0x6e, 0x74, 0x69, 0x61, 0x6c, 0x5f, 0x33, 
  0x5f, 0x31, 0x2f, 0x64, 0x65, 0x6e, 0x73, 0x65, 0x5f, 0x31, 0x31, 0x5f, 
  0x31, 0x2f, 0x4d, 0x61, 0x74, 0x4d, 0x75, 0x6c, 0x3b, 0x73, 0x65, 0x71, 
  0x75, 0x65, 0x6e, 0x74, 0x69, 0x61, 0x6c, 0x5f, 0x33, 0x5f, 0x31, 0x2f, 
  0x64, 0x65, 0x6e, 0x73, 0x65, 0x5f, 0x31, 0x31, 0x5f, 0x31, 0x2f, 0x42, 
  0x69, 0x61, 0x73, 0x41, 0x64, 0x64, 0x00, 0x00, 0x02, 0x00, 0x00, 0x00, 
  0x01, 0x00, 0x00, 0x00, 0x02, 0x00, 0x00, 0x00, 0xd6, 0xfc, 0xff, 0xff, 
  0x00, 0x00, 0x00, 0x01, 0x14, 0x00, 0x00, 0x00, 0x1c, 0x00, 0x00, 0x00, 
  0x1c, 0x00, 0x00, 0x00, 0x09, 0x00, 0x00, 0x00, 0x7c, 0x00, 0x00, 0x00, 
  0x02, 0x00, 0x00, 0x00, 0xff, 0xff, 0xff, 0xff, 0x10, 0x00, 0x00, 0x00, 
  0xc0, 0xfc, 0xff, 0xff, 0x61, 0x00, 0x00, 0x00, 0x73, 0x65, 0x71, 0x75, 
  0x65, 0x6e, 0x74, 0x69, 0x61, 0x6c, 0x5f, 0x33, 0x5f, 0x31, 0x2f, 0x64, 
  0x65, 0x6e, 0x73, 0x65, 0x5f, 0x31, 0x30, 0x5f, 0x31, 0x2f, 0x4d, 0x61, 
  0x74, 0x4d, 0x75, 0x6c, 0x3b, 0x73, 0x65, 0x71, 0x75, 0x65, 0x6e, 0x74, 
  0x69, 0x61, 0x6c, 0x5f, 0x33, 0x5f, 0x31, 0x2f, 0x64, 0x65, 0x6e, 0x73, 
  0x65, 0x5f, 0x31, 0x30, 0x5f, 0x31, 0x2f, 0x52, 0x65, 0x6c, 0x75, 0x3b, 
  0x73, 0x65, 0x71, 0x75, 0x65, 0x6e, 0x74, 0x69, 0x61, 0x6c, 0x5f, 0x33, 
  0x5f, 0x31, 0x2f, 0x64, 0x65, 0x6e, 0x73, 0x65, 0x5f, 0x31, 0x30, 0x5f, 
  0x31, 0x2f, 0x42, 0x69, 0x61, 0x73, 0x41, 0x64, 0x64, 0x00, 0x00, 0x00, 
  0x02, 0x00, 0x00, 0x00, 0x01, 0x00, 0x00, 0x00, 0x10, 0x00, 0x00, 0x00, 
  0x76, 0xfd, 0xff, 0xff, 0x00, 0x00, 0x00, 0x01, 0x14, 0x00, 0x00, 0x00, 
  0x1c, 0x00, 0x00, 0x00, 0x1c, 0x00, 0x00, 0x00, 0x08, 0x00, 0x00, 0x00, 
  0x78, 0x00, 0x00, 0x00, 0x02, 0x00, 0x00, 0x00, 0xff, 0xff, 0xff, 0xff, 
  0x20, 0x00, 0x00, 0x00, 0x60, 0xfd, 0xff, 0xff, 0x5e, 0x00, 0x00, 0x00, 
  0x73, 0x65, 0x71, 0x75, 0x65, 0x6e, 0x74, 0x69, 0x61, 0x6c, 0x5f, 0x33, 
  0x5f, 0x31, 0x2f, 0x64, 0x65, 0x6e, 0x73, 0x65, 0x5f, 0x39, 0x5f, 0x31, 
  0x2f, 0x4d, 0x61, 0x74, 0x4d, 0x75, 0x6c, 0x3b, 0x73, 0x65, 0x71, 0x75, 
  0x65, 0x6e, 0x74, 0x69, 0x61, 0x6c, 0x5f, 0x33, 0x5f, 0x31, 0x2f, 0x64, 
  0x65, 0x6e, 0x73, 0x65, 0x5f, 0x39, 0x5f, 0x31, 0x2f, 0x52, 0x65, 0x6c, 
  0x75, 0x3b, 0x73, 0x65, 0x71, 0x75, 0x65, 0x6e, 0x74, 0x69, 0x61, 0x6c, 
  0x5f, 0x33, 0x5f, 0x31, 0x2f, 0x64, 0x65, 0x6e, 0x73, 0x65, 0x5f, 0x39, 
  0x5f, 0x31, 0x2f, 0x42, 0x69, 0x61, 0x73, 0x41, 0x64, 0x64, 0x00, 0x00, 
  0x02, 0x00, 0x00, 0x00, 0x01, 0x00, 0x00, 0x00, 0x20, 0x00, 0x00, 0x00, 
  0x66, 0xfe, 0xff, 0xff, 0x00, 0x00, 0x00, 0x01, 0x10, 0x00, 0x00, 0x00, 
  0x10, 0x00, 0x00, 0x00, 0x07, 0x00, 0x00, 0x00, 0x2c, 0x00, 0x00, 0x00, 
  0xec, 0xfd, 0xff, 0xff, 0x1f, 0x00, 0x00, 0x00, 0x73, 0x65, 0x71, 0x75, 
  0x65, 0x6e, 0x74, 0x69, 0x61, 0x6c, 0x5f, 0x33, 0x5f, 0x31, 0x2f, 0x64, 
  0x65, 0x6e, 0x73, 0x65, 0x5f, 0x39, 0x5f, 0x31, 0x2f, 0x4d, 0x61, 0x74, 
  0x4d, 0x75, 0x6c, 0x00, 0x02, 0x00, 0x00, 0x00, 0x20, 0x00, 0x00, 0x00, 
  0x04, 0x00, 0x00, 0x00, 0xb2, 0xfe, 0xff, 0xff, 0x00, 0x00, 0x00, 0x01, 
  0x10, 0x00, 0x00, 0x00, 0x10, 0x00, 0x00, 0x00, 0x06, 0x00, 0x00, 0x00, 
  0x3c, 0x00, 0x00, 0x00, 0x38, 0xfe, 0xff, 0xff, 0x2f, 0x00, 0x00, 0x00, 
  0x73, 0x65, 0x71, 0x75, 0x65, 0x6e, 0x74, 0x69, 0x61, 0x6c, 0x5f, 0x33, 
  0x5f, 0x31, 0x2f, 0x64, 0x65, 0x6e, 0x73, 0x65, 0x5f, 0x39, 0x5f, 0x31, 
  0x2f, 0x42, 0x69, 0x61, 0x73, 0x41, 0x64, 0x64, 0x2f, 0x52, 0x65, 0x61, 
  0x64, 0x56, 0x61, 0x72, 0x69, 0x61, 0x62, 0x6c, 0x65, 0x4f, 0x70, 0x00, 
  0x01, 0x00, 0x00, 0x00, 0x20, 0x00, 0x00, 0x00, 0x0a, 0xff, 0xff, 0xff, 
  0x00, 0x00, 0x00, 0x01, 0x10, 0x00, 0x00, 0x00, 0x10, 0x00, 0x00, 0x00, 
  0x05, 0x00, 0x00, 0x00, 0x40, 0x00, 0x00, 0x00, 0x90, 0xfe, 0xff, 0xff, 
  0x30, 0x00, 0x00, 0x00, 0x73, 0x65, 0x71, 0x75, 0x65, 0x6e, 0x74, 0x69, 
  0x61, 0x6c, 0x5f, 0x33, 0x5f, 0x31, 0x2f, 0x64, 0x65, 0x6e, 0x73, 0x65, 
  0x5f, 0x31, 0x31, 0x5f, 0x31, 0x2f, 0x42, 0x69, 0x61, 0x73, 0x41, 0x64, 
  0x64, 0x2f, 0x52, 0x65, 0x61, 0x64, 0x56, 0x61, 0x72, 0x69, 0x61, 0x62, 
  0x6c, 0x65, 0x4f, 0x70, 0x00, 0x00, 0x00, 0x00, 0x01, 0x00, 0x00, 0x00, 
  0x02, 0x00, 0x00, 0x00, 0x66, 0xff, 0xff, 0xff, 0x00, 0x00, 0x00, 0x01, 
  0x10, 0x00, 0x00, 0x00, 0x10, 0x00, 0x00, 0x00, 0x04, 0x00, 0x00, 0x00, 
  0x40, 0x00, 0x00, 0x00, 0xec, 0xfe, 0xff, 0xff, 0x30, 0x00, 0x00, 0x00, 
  0x73, 0x65, 0x71, 0x75, 0x65, 0x6e, 0x74, 0x69, 0x61, 0x6c, 0x5f, 0x33, 
  0x5f, 0x31, 0x2f, 0x64, 0x65, 0x6e, 0x73, 0x65, 0x5f, 0x31, 0x30, 0x5f, 
  0x31, 0x2f, 0x42, 0x69, 0x61, 0x73, 0x41, 0x64, 0x64, 0x2f, 0x52, 0x65, 
  0x61, 0x64, 0x56, 0x61, 0x72, 0x69, 0x61, 0x62, 0x6c, 0x65, 0x4f, 0x70, 
  0x00, 0x00, 0x00, 0x00, 0x01, 0x00, 0x00, 0x00, 0x10, 0x00, 0x00, 0x00, 
  0xc2, 0xff, 0xff, 0xff, 0x00, 0x00, 0x00, 0x01, 0x10, 0x00, 0x00, 0x00, 
  0x10, 0x00, 0x00, 0x00, 0x03, 0x00, 0x00, 0x00, 0x1c, 0x00, 0x00, 0x00, 
  0x48, 0xff, 0xff, 0xff, 0x0f, 0x00, 0x00, 0x00, 0x61, 0x72, 0x69, 0x74, 
  0x68, 0x2e, 0x63, 0x6f, 0x6e, 0x73, 0x74, 0x61, 0x6e, 0x74, 0x31, 0x00, 
  0x02, 0x00, 0x00, 0x00, 0x10, 0x00, 0x00, 0x00, 0x20, 0x00, 0x00, 0x00, 
  0x00, 0x00, 0x16, 0x00, 0x18, 0x00, 0x14, 0x00, 0x00, 0x00, 0x10, 0x00, 
  0x0c, 0x00, 0x08, 0x00, 0x00, 0x00, 0x00, 0x00, 0x00, 0x00, 0x07, 0x00, 
  0x16, 0x00, 0x00, 0x00, 0x00, 0x00, 0x00, 0x01, 0x10, 0x00, 0x00, 0x00, 
  0x10, 0x00, 0x00, 0x00, 0x02, 0x00, 0x00, 0x00, 0x1c, 0x00, 0x00, 0x00, 
  0x9c, 0xff, 0xff, 0xff, 0x0e, 0x00, 0x00, 0x00, 0x61, 0x72, 0x69, 0x74, 
  0x68, 0x2e, 0x63, 0x6f, 0x6e, 0x73, 0x74, 0x61, 0x6e, 0x74, 0x00, 0x00, 
  0x02, 0x00, 0x00, 0x00, 0x02, 0x00, 0x00, 0x00, 0x10, 0x00, 0x00, 0x00, 
  0x00, 0x00, 0x16, 0x00, 0x1c, 0x00, 0x18, 0x00, 0x00, 0x00, 0x14, 0x00, 
  0x10, 0x00, 0x0c, 0x00, 0x00, 0x00, 0x00, 0x00, 0x08, 0x00, 0x07, 0x00, 
  0x16, 0x00, 0x00, 0x00, 0x00, 0x00, 0x00, 0x01, 0x14, 0x00, 0x00, 0x00, 
  0x20, 0x00, 0x00, 0x00, 0x20, 0x00, 0x00, 0x00, 0x01, 0x00, 0x00, 0x00, 
  0x40, 0x00, 0x00, 0x00, 0x02, 0x00, 0x00, 0x00, 0xff, 0xff, 0xff, 0xff, 
  0x04, 0x00, 0x00, 0x00, 0x04, 0x00, 0x04, 0x00, 0x04, 0x00, 0x00, 0x00, 
  0x21, 0x00, 0x00, 0x00, 0x73, 0x65, 0x72, 0x76, 0x69, 0x6e, 0x67, 0x5f, 
  0x64, 0x65, 0x66, 0x61, 0x75, 0x6c, 0x74, 0x5f, 0x6b, 0x65, 0x72, 0x61, 
  0x73, 0x5f, 0x74, 0x65, 0x6e, 0x73, 0x6f, 0x72, 0x5f, 0x31, 0x35, 0x3a, 
  0x30, 0x00, 0x00, 0x00, 0x02, 0x00, 0x00, 0x00, 0x01, 0x00, 0x00, 0x00, 
  0x04, 0x00, 0x00, 0x00, 0x02, 0x00, 0x00, 0x00, 0x20, 0x00, 0x00, 0x00, 
  0x04, 0x00, 0x00, 0x00, 0xf4, 0xff, 0xff, 0xff, 0x19, 0x00, 0x00, 0x00, 
  0x00, 0x00, 0x00, 0x19, 0x0c, 0x00, 0x0c, 0x00, 0x0b, 0x00, 0x00, 0x00, 
  0x00, 0x00, 0x04, 0x00, 0x0c, 0x00, 0x00, 0x00, 0x09, 0x00, 0x00, 0x00, 
  0x00, 0x00, 0x00, 0x09
};
const unsigned int emg_model_data_len = 5068;