const unsigned char emg_model_data[] = {
  0x1c, 0x00, 0x00, 0x00, 0x54, 0x46, 0x4c, 0x33, 0x14, 0x00, 0x20, 0x00, 
  0x1c, 0x00, 0x18, 0x00, 0x14, 0x00, 0x10, 0x00, 0x0c, 0x00, 0x00, 0x00, 
  0x08, 0x00, 0x04, 0x00, 0x14, 0x00, 0x00, 0x00, 0x1c, 0x00, 0x00, 0x00, 
  0x98, 0x00, 0x00, 0x00, 0xf0, 0x00, 0x00, 0x00, 0xb8, 0x05, 0x00, 0x00, 
  0xc8, 0x05, 0x00, 0x00, 0x7c, 0x0b, 0x00, 0x00, 0x03, 0x00, 0x00, 0x00, 
  0x01, 0x00, 0x00, 0x00, 0x10, 0x00, 0x00, 0x00, 0x00, 0x00, 0x0a, 0x00, 
  0x10, 0x00, 0x0c, 0x00, 0x08, 0x00, 0x04, 0x00, 0x0a, 0x00, 0x00, 0x00, 
  0x0c, 0x00, 0x00, 0x00, 0x1c, 0x00, 0x00, 0x00, 0x3c, 0x00, 0x00, 0x00, 
  0x0f, 0x00, 0x00, 0x00, 0x73, 0x65, 0x72, 0x76, 0x69, 0x6e, 0x67, 0x5f, 
  0x64, 0x65, 0x66, 0x61, 0x75, 0x6c, 0x74, 0x00, 0x01, 0x00, 0x00, 0x00, 
  0x04, 0x00, 0x00, 0x00, 0x90, 0xff, 0xff, 0xff, 0x0a, 0x00, 0x00, 0x00, 
  0x04, 0x00, 0x00, 0x00, 0x08, 0x00, 0x00, 0x00, 0x6f, 0x75, 0x74, 0x70, 
  0x75, 0x74, 0x5f, 0x30, 0x00, 0x00, 0x00, 0x00, 0x01, 0x00, 0x00, 0x00, 
  0x04, 0x00, 0x00, 0x00, 0x2e, 0xfa, 0xff, 0xff, 0x04, 0x00, 0x00, 0x00, 
  0x0c, 0x00, 0x00, 0x00, 0x6b, 0x65, 0x72, 0x61, 0x73, 0x5f, 0x74, 0x65, 
  0x6e, 0x73, 0x6f, 0x72, 0x00, 0x00, 0x00, 0x00, 0x02, 0x00, 0x00, 0x00, 
  0x34, 0x00, 0x00, 0x00, 0x04, 0x00, 0x00, 0x00, 0xdc, 0xff, 0xff, 0xff, 
  0x0d, 0x00, 0x00, 0x00, 0x04, 0x00, 0x00, 0x00, 0x13, 0x00, 0x00, 0x00, 
  0x43, 0x4f, 0x4e, 0x56, 0x45, 0x52, 0x53, 0x49, 0x4f, 0x4e, 0x5f, 0x4d, 
  0x45, 0x54, 0x41, 0x44, 0x41, 0x54, 0x41, 0x00, 0x08, 0x00, 0x0c, 0x00, 
  0x08, 0x00, 0x04, 0x00, 0x08, 0x00, 0x00, 0x00, 0x0c, 0x00, 0x00, 0x00, 
  0x04, 0x00, 0x00, 0x00, 0x13, 0x00, 0x00, 0x00, 0x6d, 0x69, 0x6e, 0x5f, 
  0x72, 0x75, 0x6e, 0x74, 0x69, 0x6d, 0x65, 0x5f, 0x76, 0x65, 0x72, 0x73, 
  0x69, 0x6f, 0x6e, 0x00, 0x0e, 0x00, 0x00, 0x00, 0xc4, 0x04, 0x00, 0x00, 
  0xbc, 0x04, 0x00, 0x00, 0x6c, 0x04, 0x00, 0x00, 0x5c, 0x02, 0x00, 0x00, 
  0x44, 0x02, 0x00, 0x00, 0x14, 0x02, 0x00, 0x00, 0xc4, 0x01, 0x00, 0x00, 
  0xb4, 0x00, 0x00, 0x00, 0xac, 0x00, 0x00, 0x00, 0xa4, 0x00, 0x00, 0x00, 
  0x9c, 0x00, 0x00, 0x00, 0x94, 0x00, 0x00, 0x00, 0x74, 0x00, 0x00, 0x00, 
  0x04, 0x00, 0x00, 0x00, 0xe2, 0xfa, 0xff, 0xff, 0x04, 0x00, 0x00, 0x00, 
  0x60, 0x00, 0x00, 0x00, 0x0c, 0x00, 0x00, 0x00, 0x08, 0x00, 0x0e, 0x00, 
  0x08, 0x00, 0x04, 0x00, 0x08, 0x00, 0x00, 0x00, 0x10, 0x00, 0x00, 0x00, 
  0x28, 0x00, 0x00, 0x00, 0x00, 0x00, 0x06, 0x00, 0x08, 0x00, 0x04, 0x00, 
  0x06, 0x00, 0x00, 0x00, 0x04, 0x00, 0x00, 0x00, 0x01, 0x00, 0x00, 0x00, 
  0xea, 0x03, 0x00, 0x00, 0x0c, 0x00, 0x18, 0x00, 0x14, 0x00, 0x10, 0x00, 
  0x0c, 0x00, 0x04, 0x00, 0x0c, 0x00, 0x00, 0x00, 0xb6, 0xb3, 0x48, 0x6d, 
  0x90, 0xd0, 0xac, 0x35, 0x02, 0x00, 0x00, 0x00, 0x02, 0x00, 0x00, 0x00, 
  0x04, 0x00, 0x00, 0x00, 0x06, 0x00, 0x00, 0x00, 0x32, 0x2e, 0x31, 0x39, 
  0x2e, 0x30, 0x00, 0x00, 0x4e, 0xfb, 0xff, 0xff, 0x04, 0x00, 0x00, 0x00, 
  0x10, 0x00, 0x00, 0x00, 0x31, 0x2e, 0x35, 0x2e, 0x30, 0x00, 0x00, 0x00, 
  0x00, 0x00, 0x00, 0x00, 0x00, 0x00, 0x00, 0x00, 0x64, 0xf6, 0xff, 0xff, 
  0x68, 0xf6, 0xff, 0xff, 0x6c, 0xf6, 0xff, 0xff, 0x70, 0xf6, 0xff, 0xff, 
  0x7a, 0xfb, 0xff, 0xff, 0x04, 0x00, 0x00, 0x00, 0x00, 0x01, 0x00, 0x00, 
  0x63, 0x97, 0x0d, 0x3e, 0x7c, 0xe1, 0x85, 0xbe, 0x43, 0xa9, 0x88, 0x3d, 
  0x69, 0xa8, 0xed, 0xbe, 0x72, 0xb5, 0xb3, 0xbe, 0x1c, 0x4a, 0x4c, 0xbf, 
  0xd3, 0x50, 0x1f, 0x3e, 0xde, 0x5e, 0xc3, 0xbe, 0xe5, 0xc9, 0x18, 0xbe, 
  0x34, 0x8e, 0x86, 0x3e, 0xf4, 0xc0, 0xe2, 0x3e, 0x19, 0xfc, 0x37, 0x3e, 
  0x41, 0x34, 0x98, 0xbe, 0xf1, 0xe0, 0x35, 0xbf, 0x0a, 0x71, 0x9c, 0xbe, 
  0x4f, 0x5d, 0xb1, 0x3e, 0x71, 0x94, 0x1f, 0x3e, 0x2f, 0x7b, 0x48, 0xbf, 
  0xfa, 0x48, 0x71, 0xbc, 0xfb, 0x1c, 0xc0, 0xbd, 0xc3, 0xa1, 0x83, 0x3e, 
  0x9a, 0x77, 0x90, 0x3d, 0x71, 0x2e, 0x37, 0x3f, 0x60, 0x0f, 0x17, 0x3f, 
  0x3d, 0xaf, 0x14, 0xbf, 0x25, 0x3b, 0x06, 0xbf, 0x96, 0x6e, 0x77, 0xbe, 
  0x36, 0x60, 0x8f, 0xbc, 0x51, 0x98, 0x4d, 0x3c, 0x1d, 0x8e, 0x29, 0x3f, 
  0x19, 0x92, 0xed, 0xbe, 0x89, 0xd2, 0x9e, 0xbe, 0x96, 0x52, 0xb5, 0x3d, 
  0x8c, 0xd0, 0xe8, 0x3e, 0x9e, 0xde, 0xe3, 0xbe, 0x53, 0x68, 0x85, 0x3e, 
  0x1c, 0xb2, 0x83, 0xbc, 0xf8, 0x5c, 0x9a, 0xbd, 0x77, 0x71, 0x12, 0xbf, 
  0x03, 0x31, 0xea, 0x3e, 0x25, 0xe5, 0xc5, 0xbe, 0xd4, 0xd0, 0xe0, 0x3e, 
  0xee, 0xdd, 0x47, 0x3f, 0xbb, 0xf7, 0xbe, 0xbe, 0xd5, 0xd1, 0xc4, 0x3d, 
  0x31, 0xfb, 0xa3, 0xbe, 0xb6, 0xdc, 0x48, 0x3f, 0x5e, 0x59, 0xef, 0xbd, 
  0xe5, 0x05, 0x53, 0x3e, 0x03, 0x56, 0x3d, 0xbe, 0xb2, 0xba, 0x19, 0xbf, 
  0xdc, 0xa1, 0x30, 0x3e, 0xd9, 0x16, 0x29, 0x3c, 0x1d, 0xbc, 0x8a, 0xbe, 
  0xd6, 0x00, 0xe2, 0x3e, 0x0e, 0x2c, 0xf9, 0xbd, 0xcf, 0xc5, 0xbb, 0x3b, 
  0x58, 0xd5, 0x52, 0x3f, 0x59, 0x4d, 0x92, 0x3e, 0xfa, 0x5b, 0xac, 0xbe, 
  0xe1, 0x83, 0xc6, 0xbe, 0x89, 0xfb, 0x4a, 0xbd, 0xdf, 0x0f, 0x0d, 0xbe, 
  0x79, 0xcc, 0x1e, 0xbf, 0x86, 0xfc, 0xff, 0xff, 0x04, 0x00, 0x00, 0x00, 
  0x40, 0x00, 0x00, 0x00, 0xda, 0xd1, 0x30, 0x3e, 0x4c, 0x7d, 0xab, 0xbd, 
  0x73, 0xbc, 0xee, 0x3e, 0x3d, 0x32, 0x99, 0xbd, 0x3c, 0x32, 0xb7, 0xbd, 
  0x8c, 0x7a, 0x0f, 0x3e, 0x12, 0xfa, 0xb4, 0xbd, 0x3e, 0x36, 0x57, 0x3d, 
  0x67, 0x97, 0x2d, 0x3e, 0x88, 0x5b, 0xd0, 0xbd, 0x6b, 0xaf, 0x37, 0x3e, 
  0x07, 0x86, 0x17, 0xbd, 0x64, 0xfa, 0x08, 0xbe, 0xcd, 0xcc, 0xec, 0x3c, 
  0x0d, 0xc2, 0x17, 0x3f, 0xbc, 0x7b, 0xc4, 0x3d, 0xd2, 0xfc, 0xff, 0xff, 
  0x04, 0x00, 0x00, 0x00, 0x20, 0x00, 0x00, 0x00, 0x99, 0xaa, 0xd6, 0x3e, 
  0xe5, 0x5d, 0x94, 0x3e, 0x66, 0xa8, 0x6a, 0xbe, 0x9a, 0x4b, 0x4b, 0xbd, 
  0xb6, 0x90, 0x92, 0x3e, 0x33, 0xc9, 0x69, 0x3e, 0x92, 0x7f, 0xea, 0xbd, 
  0x12, 0x97, 0xd4, 0xbd, 0xfe, 0xfc, 0xff, 0xff, 0x04, 0x00, 0x00, 0x00, 
  0x08, 0x00, 0x00, 0x00, 0xe1, 0x2f, 0xab, 0xbd, 0xd8, 0x2f, 0xab, 0x3d, 
  0x12, 0xfd, 0xff, 0xff, 0x04, 0x00, 0x00, 0x00, 0x00, 0x02, 0x00, 0x00, 
  0xbc, 0x8a, 0xd2, 0x3d, 0xb7, 0x28, 0x28, 0xbe, 0x25, 0xa5, 0xe3, 0x3e, 
  0x1a, 0x05, 0x15, 0xbf, 0x6a, 0xf7, 0x15, 0xbf, 0x18, 0x05, 0x55, 0x3e, 
  0x58, 0x3e, 0x84, 0xbe, 0x57, 0xa6, 0x2c, 0x3f, 0x28, 0xa9, 0xc4, 0xbd, 
  0xcc, 0xb7, 0x35, 0xbf, 0x6c, 0x45, 0x35, 0xbf, 0xf9, 0xca, 0xbc, 0xbe, 
  0x12, 0x99, 0x4e, 0x3b, 0x91, 0x2f, 0x1b, 0x3f, 0x1f, 0x40, 0x3e, 0x3f, 
  0x75, 0xbf, 0xca, 0x3e, 0x55, 0x30, 0x51, 0x3e, 0x1c, 0xce, 0x55, 0x3e, 
  0x42, 0xf7, 0x1f, 0x3f, 0x06, 0x90, 0x3c, 0xbf, 0x1c, 0x38, 0x39, 0x3e, 
  0xf1, 0x15, 0x26, 0xbf, 0x32, 0xf8, 0x1f, 0xbf, 0x2e, 0xe3, 0xa7, 0x3f, 
  0xd2, 0xde, 0xee, 0x3e, 0xfc, 0xb6, 0x4c, 0xbe, 0x87, 0xdc, 0x18, 0x3e, 
  0x88, 0xf0, 0xc5, 0xbe, 0xf4, 0x74, 0xf7, 0xbe, 0x17, 0x1a, 0x92, 0x3e, 
  0x88, 0x49, 0x9e, 0x3f, 0x45, 0x35, 0x82, 0x3e, 0x94, 0x97, 0x28, 0x3e, 
  0x10, 0xd7, 0x95, 0x3e, 0xe1, 0x0b, 0x3f, 0x3f, 0x32, 0xe7, 0x94, 0xbe, 
  0xa1, 0xb2, 0x91, 0x3e, 0x71, 0xcc, 0x5d, 0xbe, 0xbd, 0x5b, 0xc7, 0xbb, 
  0xce, 0x5c, 0xa0, 0xbe, 0x68, 0x2a, 0xda, 0x3e, 0x8b, 0x0e, 0x3a, 0xbf, 
  0x9b, 0x98, 0x1c, 0x3e, 0xa7, 0x88, 0x9a, 0x3e, 0xce, 0x27, 0x63, 0xbd, 
  0xd8, 0xff, 0x12, 0x3f, 0x6f, 0x66, 0xda, 0x3e, 0x8c, 0x06, 0xac, 0xbe, 
  0xef, 0xe4, 0xb6, 0x3e, 0x6a, 0xa1, 0x0e, 0x3f, 0x92, 0x70, 0x34, 0xbe, 
  0x11, 0xfe, 0x16, 0x3f, 0x70, 0xe4, 0x21, 0x3f, 0xd3, 0x9a, 0x0c, 0x3f, 
  0x45, 0xc1, 0xfe, 0x3e, 0xf9, 0x17, 0x33, 0xbf, 0xe4, 0x38, 0x7e, 0xbc, 
  0x4f, 0x51, 0xc2, 0x3e, 0xdc, 0x22, 0x35, 0x3f, 0xe7, 0x19, 0x52, 0x3e, 
  0x41, 0xd9, 0x0f, 0x3f, 0x9e, 0x9c, 0xde, 0xbe, 0x19, 0xd1, 0x9c, 0xbf, 
  0x1e, 0x8f, 0x67, 0xbe, 0x94, 0x54, 0x0d, 0xbe, 0x67, 0x30, 0xc7, 0xbe, 
  0x2a, 0xe4, 0x24, 0x3f, 0xaf, 0x89, 0xa6, 0xbd, 0x32, 0x07, 0x05, 0xbf, 
  0xf6, 0x12, 0x57, 0x3b, 0x21, 0x38, 0xd4, 0xbd, 0xed, 0x99, 0xcf, 0x3f, 
  0x1b, 0xbb, 0x65, 0x3c, 0x58, 0x43, 0x33, 0x3e, 0x34, 0x7f, 0xf7, 0xbe, 
  0xd9, 0xaf, 0x6d, 0xbd, 0x71, 0x48, 0x98, 0x3c, 0xa4, 0xc4, 0xc9, 0x3e, 
  0x15, 0x25, 0x79, 0x3f, 0x4f, 0x36, 0xd1, 0x3e, 0x85, 0x43, 0x87, 0x3e, 
  0x4f, 0x17, 0xb3, 0xbe, 0xde, 0x6d, 0x10, 0x3f, 0xed, 0xbe, 0x03, 0xbf, 
  0x14, 0x12, 0x7f, 0x3e, 0xbb, 0x22, 0xd8, 0xbe, 0x32, 0x7b, 0x0e, 0xbe, 
  0x85, 0x70, 0x93, 0x3f, 0x00, 0x15, 0x03, 0xbe, 0x5b, 0xca, 0x9b, 0xbd, 
  0xf1, 0x97, 0xc3, 0xbe, 0xc0, 0x75, 0x1d, 0xbf, 0x38, 0xf2, 0xdc, 0xbe, 
  0x80, 0x5b, 0xc1, 0x3e, 0x92, 0x03, 0x40, 0x3f, 0xe9, 0xeb, 0x33, 0x3e, 
  0xec, 0xf4, 0xb8, 0x3e, 0x67, 0x19, 0x2f, 0x3f, 0x0c, 0x29, 0xa7, 0x3e, 
  0xc8, 0x23, 0x85, 0xbd, 0xaf, 0x99, 0x4a, 0x3f, 0x58, 0xa3, 0x80, 0x3e, 
  0xcb, 0x5a, 0x77, 0xbd, 0x8e, 0x1a, 0xb3, 0xbe, 0x84, 0x16, 0x07, 0xbd, 
  0xd8, 0x8e, 0xe9, 0xbe, 0x06, 0xbe, 0x6b, 0xbe, 0xab, 0x9b, 0x36, 0x3f, 
  0x08, 0xf1, 0x84, 0x3e, 0x75, 0x2d, 0x79, 0xbe, 0xa5, 0x14, 0x84, 0xbd, 
  0xdd, 0xc4, 0x4c, 0x3e, 0x7d, 0x5c, 0x9c, 0x3d, 0xa5, 0x5c, 0x4e, 0xbd, 
  0x56, 0x33, 0x93, 0xbe, 0x4f, 0xbb, 0x0c, 0x3f, 0xfb, 0x1e, 0xc0, 0x3e, 
  0xdc, 0x4c, 0xe6, 0x3e, 0x28, 0x79, 0xb1, 0x3d, 0x91, 0xd3, 0xb9, 0xbf, 
  0x89, 0x28, 0x43, 0xbf, 0xe4, 0x68, 0xd3, 0xbb, 0xa9, 0x95, 0xc1, 0xbd, 
  0x1c, 0xd3, 0x85, 0xbe, 0x9b, 0x58, 0x41, 0x3f, 0x2e, 0x93, 0x2b, 0x3d, 
  0xf4, 0x87, 0x0b, 0xbf, 0x38, 0xa8, 0xf5, 0x3e, 0x1e, 0xff, 0xff, 0xff, 
  0x04, 0x00, 0x00, 0x00, 0x40, 0x00, 0x00, 0x00, 0x7c, 0xbd, 0xdf, 0xbf, 
  0x7f, 0x04, 0xbf, 0xbe, 0xaa, 0x61, 0x13, 0x3f, 0xb8, 0x91, 0xf5, 0x3e, 
  0x91, 0x72, 0x41, 0xbf, 0x44, 0xab, 0xd8, 0xbf, 0x40, 0x94, 0xae, 0xbe, 
  0x22, 0xfb, 0x4e, 0xbe, 0x19, 0xd6, 0xf0, 0x3f, 0xc8, 0x00, 0x36, 0x3f, 
  0xf5, 0x7f, 0xbf, 0xbe, 0x0b, 0xd8, 0x7f, 0xbf, 0x56, 0x83, 0xa1, 0x3e, 
  0x27, 0x78, 0xd4, 0x3f, 0x29, 0x79, 0x49, 0xbf, 0x0a, 0x0d, 0x75, 0xbf, 
  0x64, 0xfa, 0xff, 0xff, 0x68, 0xfa, 0xff, 0xff, 0x0f, 0x00, 0x00, 0x00, 
  0x4d, 0x4c, 0x49, 0x52, 0x20, 0x43, 0x6f, 0x6e, 0x76, 0x65, 0x72, 0x74, 
  0x65, 0x64, 0x2e, 0x00, 0x01, 0x00, 0x00, 0x00, 0x14, 0x00, 0x00, 0x00, 
  0x00, 0x00, 0x0e, 0x00, 0x18, 0x00, 0x14, 0x00, 0x10, 0x00, 0x0c, 0x00, 
  0x08, 0x00, 0x04, 0x00, 0x0e, 0x00, 0x00, 0x00, 0x14, 0x00, 0x00, 0x00, 
  0x1c, 0x00, 0x00, 0x00, 0x24, 0x01, 0x00, 0x00, 0x28, 0x01, 0x00, 0x00, 
  0x2c, 0x01, 0x00, 0x00, 0x04, 0x00, 0x00, 0x00, 0x6d, 0x61, 0x69, 0x6e, 
  0x00, 0x00, 0x00, 0x00, 0x04, 0x00, 0x00, 0x00, 0xcc, 0x00, 0x00, 0x00, 
  0x84, 0x00, 0x00, 0x00, 0x50, 0x00, 0x00, 0x00, 0x14, 0x00, 0x00, 0x00, 
  0x00, 0x00, 0x0e, 0x00, 0x1a, 0x00, 0x14, 0x00, 0x10, 0x00, 0x0c, 0x00, 
  0x0b, 0x00, 0x04, 0x00, 0x0e, 0x00, 0x00, 0x00, 0x1c, 0x00, 0x00, 0x00, 
  0x00, 0x00, 0x00, 0x09, 0x1c, 0x00, 0x00, 0x00, 0x20, 0x00, 0x00, 0x00, 
  0x01, 0x00, 0x00, 0x00, 0x00, 0x00, 0x06, 0x00, 0x08, 0x00, 0x04, 0x00, 
  0x06, 0x00, 0x00, 0x00, 0x00, 0x00, 0x80, 0x3f, 0x01, 0x00, 0x00, 0x00, 
  0x0a, 0x00, 0x00, 0x00, 0x01, 0x00, 0x00, 0x00, 0x09, 0x00, 0x00, 0x00, 
  0x9a, 0xff, 0xff, 0xff, 0x10, 0x00, 0x00, 0x00, 0x00, 0x00, 0x00, 0x08, 
  0x0c, 0x00, 0x00, 0x00, 0x10, 0x00, 0x00, 0x00, 0x2c, 0xfb, 0xff, 0xff, 
  0x01, 0x00, 0x00, 0x00, 0x09, 0x00, 0x00, 0x00, 0x03, 0x00, 0x00, 0x00, 
  0x08, 0x00, 0x00, 0x00, 0x01, 0x00, 0x00, 0x00, 0x03, 0x00, 0x00, 0x00, 
  0xca, 0xff, 0xff, 0xff, 0x10, 0x00, 0x00, 0x00, 0x00, 0x00, 0x00, 0x08, 
  0x10, 0x00, 0x00, 0x00, 0x14, 0x00, 0x00, 0x00, 0xba, 0xff, 0xff, 0xff, 
  0x00, 0x00, 0x00, 0x01, 0x01, 0x00, 0x00, 0x00, 0x08, 0x00, 0x00, 0x00, 
  0x03, 0x00, 0x00, 0x00, 0x07, 0x00, 0x00, 0x00, 0x02, 0x00, 0x00, 0x00, 
  0x04, 0x00, 0x00, 0x00, 0x00, 0x00, 0x0e, 0x00, 0x16, 0x00, 0x00, 0x00, 
  0x10, 0x00, 0x0c, 0x00, 0x0b, 0x00, 0x04, 0x00, 0x0e, 0x00, 0x00, 0x00, 
  0x18, 0x00, 0x00, 0x00, 0x00, 0x00, 0x00, 0x08, 0x18, 0x00, 0x00, 0x00, 
  0x1c, 0x00, 0x00, 0x00, 0x00, 0x00, 0x06, 0x00, 0x08, 0x00, 0x07, 0x00, 
  0x06, 0x00, 0x00, 0x00, 0x00, 0x00, 0x00, 0x01, 0x01, 0x00, 0x00, 0x00, 
  0x07, 0x00, 0x00, 0x00, 0x03, 0x00, 0x00, 0x00, 0x00, 0x00, 0x00, 0x00, 
  0x06, 0x00, 0x00, 0x00, 0x05, 0x00, 0x00, 0x00, 0x01, 0x00, 0x00, 0x00, 
  0x0a, 0x00, 0x00, 0x00, 0x01, 0x00, 0x00, 0x00, 0x00, 0x00, 0x00, 0x00, 
  0x0b, 0x00, 0x00, 0x00, 0xfc, 0x03, 0x00, 0x00, 0xa4, 0x03, 0x00, 0x00, 
  0x4c, 0x03, 0x00, 0x00, 0x10, 0x03, 0x00, 0x00, 0xb4, 0x02, 0x00, 0x00, 
  0x5c, 0x02, 0x00, 0x00, 0x10, 0x02, 0x00, 0x00, 0x7c, 0x01, 0x00, 0x00, 
  0xe0, 0x00, 0x00, 0x00, 0x60, 0x00, 0x00, 0x00, 0x04, 0x00, 0x00, 0x00, 
  0x46, 0xfc, 0xff, 0xff, 0x00, 0x00, 0x00, 0x01, 0x14, 0x00, 0x00, 0x00, 
  0x1c, 0x00, 0x00, 0x00, 0x1c, 0x00, 0x00, 0x00, 0x0b, 0x00, 0x00, 0x00, 
  0x34, 0x00, 0x00, 0x00, 0x02, 0x00, 0x00, 0x00, 0xff, 0xff, 0xff, 0xff, 
  0x02, 0x00, 0x00, 0x00, 0x30, 0xfc, 0xff, 0xff, 0x1b, 0x00, 0x00, 0x00, 
  0x53, 0x74, 0x61, 0x74, 0x65, 0x66, 0x75, 0x6c, 0x50, 0x61, 0x72, 0x74, 
  0x69, 0x74, 0x69, 0x6f, 0x6e, 0x65, 0x64, 0x43, 0x61, 0x6c, 0x6c, 0x5f, 
  0x31, 0x3a, 0x30, 0x00, 0x02, 0x00, 0x00, 0x00, 0x01, 0x00, 0x00, 0x00, 
  0x02, 0x00, 0x00, 0x00, 0x9e, 0xfc, 0xff, 0xff, 0x00, 0x00, 0x00, 0x01, 
  0x14, 0x00, 0x00, 0x00, 0x1c, 0x00, 0x00, 0x00, 0x1c, 0x00, 0x00, 0x00, 
  0x0a, 0x00, 0x00, 0x00, 0x58, 0x00, 0x00, 0x00, 0x02, 0x00, 0x00, 0x00, 
  0xff, 0xff, 0xff, 0xff, 0x02, 0x00, 0x00, 0x00, 0x88, 0xfc, 0xff, 0xff, 
  0x3c, 0x00, 0x00, 0x00, 0x73, 0x65, 0x71, 0x75, 0x65, 0x6e, 0x74, 0x69, 
  0x61, 0x6c, 0x5f, 0x31, 0x2f, 0x64, 0x65, 0x6e, 0x73, 0x65, 0x5f, 0x32, 
  0x5f, 0x31, 0x2f, 0x4d, 0x61, 0x74, 0x4d, 0x75, 0x6c, 0x3b, 0x73, 0x65, 
  0x71, 0x75, 0x65, 0x6e, 0x74, 0x69, 0x61, 0x6c, 0x5f, 0x31, 0x2f, 0x64, 
  0x65, 0x6e, 0x73, 0x65, 0x5f, 0x32, 0x5f, 0x31, 0x2f, 0x42, 0x69, 0x61, 
  0x73, 0x41, 0x64, 0x64, 0x00, 0x00, 0x00, 0x00, 0x02, 0x00, 0x00, 0x00, 
  0x01, 0x00, 0x00, 0x00, 0x02, 0x00, 0x00, 0x00, 0x1a, 0xfd, 0xff, 0xff, 
  0x00, 0x00, 0x00, 0x01, 0x14, 0x00, 0x00, 0x00, 0x1c, 0x00, 0x00, 0x00, 
  0x1c, 0x00, 0x00, 0x00, 0x09, 0x00, 0x00, 0x00, 0x74, 0x00, 0x00, 0x00, 
  0x02, 0x00, 0x00, 0x00, 0xff, 0xff, 0xff, 0xff, 0x08, 0x00, 0x00, 0x00, 
  0x04, 0xfd, 0xff, 0xff, 0x58, 0x00, 0x00, 0x00, 0x73, 0x65, 0x71, 0x75, 
  0x65, 0x6e, 0x74, 0x69, 0x61, 0x6c, 0x5f, 0x31, 0x2f, 0x64, 0x65, 0x6e, 
  0x73, 0x65, 0x5f, 0x31, 0x5f, 0x32, 0x2f, 0x4d, 0x61, 0x74, 0x4d, 0x75, 
  0x6c, 0x3b, 0x73, 0x65, 0x71, 0x75, 0x65, 0x6e, 0x74, 0x69, 0x61, 0x6c, 
  0x5f, 0x31, 0x2f, 0x64, 0x65, 0x6e, 0x73, 0x65, 0x5f, 0x31, 0x5f, 0x32, 
  0x2f, 0x52, 0x65, 0x6c, 0x75, 0x3b, 0x73, 0x65, 0x71, 0x75, 0x65, 0x6e, 
  0x74, 0x69, 0x61, 0x6c, 0x5f, 0x31, 0x2f, 0x64, 0x65, 0x6e, 0x73, 0x65, 
  0x5f, 0x31, 0x5f, 0x32, 0x2f, 0x42, 0x69, 0x61, 0x73, 0x41, 0x64, 0x64, 
  0x00, 0x00, 0x00, 0x00, 0x02, 0x00, 0x00, 0x00, 0x01, 0x00, 0x00, 0x00, 
  0x08, 0x00, 0x00, 0x00, 0xb2, 0xfd, 0xff, 0xff, 0x00, 0x00, 0x00, 0x01, 
  0x14, 0x00, 0x00, 0x00, 0x1c, 0x00, 0x00, 0x00, 0x1c, 0x00, 0x00, 0x00, 
  0x08, 0x00, 0x00, 0x00, 0x6c, 0x00, 0x00, 0x00, 0x02, 0x00, 0x00, 0x00, 
  0xff, 0xff, 0xff, 0xff, 0x10, 0x00, 0x00, 0x00, 0x9c, 0xfd, 0xff, 0xff, 
  0x52, 0x00, 0x00, 0x00, 0x73, 0x65, 0x71, 0x75, 0x65, 0x6e, 0x74, 0x69, 
  0x61, 0x6c, 0x5f, 0x31, 0x2f, 0x64, 0x65, 0x6e, 0x73, 0x65, 0x5f, 0x31, 
  0x2f, 0x4d, 0x61, 0x74, 0x4d, 0x75, 0x6c, 0x3b, 0x73, 0x65, 0x71, 0x75, 
  0x65, 0x6e, 0x74, 0x69, 0x61, 0x6c, 0x5f, 0x31, 0x2f, 0x64, 0x65, 0x6e, 
  0x73, 0x65, 0x5f, 0x31, 0x2f, 0x52, 0x65, 0x6c, 0x75, 0x3b, 0x73, 0x65, 
  0x71, 0x75, 0x65, 0x6e, 0x74, 0x69, 0x61, 0x6c, 0x5f, 0x31, 0x2f, 0x64, 
  0x65, 0x6e, 0x73, 0x65, 0x5f, 0x31, 0x2f, 0x42, 0x69, 0x61, 0x73, 0x41, 
  0x64, 0x64, 0x00, 0x00, 0x02, 0x00, 0x00, 0x00, 0x01, 0x00, 0x00, 0x00, 
  0x10, 0x00, 0x00, 0x00, 0x96, 0xfe, 0xff, 0xff, 0x00, 0x00, 0x00, 0x01, 
  0x10, 0x00, 0x00, 0x00, 0x10, 0x00, 0x00, 0x00, 0x07, 0x00, 0x00, 0x00, 
  0x28, 0x00, 0x00, 0x00, 0x1c, 0xfe, 0xff, 0xff, 0x1b, 0x00, 0x00, 0x00, 
  0x73, 0x65, 0x71, 0x75, 0x65, 0x6e, 0x74, 0x69, 0x61, 0x6c, 0x5f, 0x31, 
  0x2f, 0x64, 0x65, 0x6e, 0x73, 0x65, 0x5f, 0x31, 0x2f, 0x4d, 0x61, 0x74, 
  0x4d, 0x75, 0x6c, 0x00, 0x02, 0x00, 0x00, 0x00, 0x10, 0x00, 0x00, 0x00, 
  0x04, 0x00, 0x00, 0x00, 0xde, 0xfe, 0xff, 0xff, 0x00, 0x00, 0x00, 0x01, 
  0x10, 0x00, 0x00, 0x00, 0x10, 0x00, 0x00, 0x00, 0x06, 0x00, 0x00, 0x00, 
  0x38, 0x00, 0x00, 0x00, 0x64, 0xfe, 0xff, 0xff, 0x2b, 0x00, 0x00, 0x00, 
  0x73, 0x65, 0x71, 0x75, 0x65, 0x6e, 0x74, 0x69, 0x61, 0x6c, 0x5f, 0x31, 
  0x2f, 0x64, 0x65, 0x6e, 0x73, 0x65, 0x5f, 0x31, 0x2f, 0x42, 0x69, 0x61, 
  0x73, 0x41, 0x64, 0x64, 0x2f, 0x52, 0x65, 0x61, 0x64, 0x56, 0x61, 0x72, 
  0x69, 0x61, 0x62, 0x6c, 0x65, 0x4f, 0x70, 0x00, 0x01, 0x00, 0x00, 0x00, 
  0x10, 0x00, 0x00, 0x00, 0x32, 0xff, 0xff, 0xff, 0x00, 0x00, 0x00, 0x01, 
  0x10, 0x00, 0x00, 0x00, 0x10, 0x00, 0x00, 0x00, 0x05, 0x00, 0x00, 0x00, 
  0x3c, 0x00, 0x00, 0x00, 0xb8, 0xfe, 0xff, 0xff, 0x2d, 0x00, 0x00, 0x00, 
  0x73, 0x65, 0x71, 0x75, 0x65, 0x6e, 0x74, 0x69, 0x61, 0x6c, 0x5f, 0x31, 
  0x2f, 0x64, 0x65, 0x6e, 0x73, 0x65, 0x5f, 0x31, 0x5f, 0x32, 0x2f, 0x42, 
  0x69, 0x61, 0x73, 0x41, 0x64, 0x64, 0x2f, 0x52, 0x65, 0x61, 0x64, 0x56, 
  0x61, 0x72, 0x69, 0x61, 0x62, 0x6c, 0x65, 0x4f, 0x70, 0x00, 0x00, 0x00, 
  0x01, 0x00, 0x00, 0x00, 0x08, 0x00, 0x00, 0x00, 0x8a, 0xff, 0xff, 0xff, 
  0x00, 0x00, 0x00, 0x01, 0x10, 0x00, 0x00, 0x00, 0x10, 0x00, 0x00, 0x00, 
  0x04, 0x00, 0x00, 0x00, 0x1c, 0x00, 0x00, 0x00, 0x10, 0xff, 0xff, 0xff, 
  0x0f, 0x00, 0x00, 0x00, 0x61, 0x72, 0x69, 0x74, 0x68, 0x2e, 0x63, 0x6f, 
  0x6e, 0x73, 0x74, 0x61, 0x6e, 0x74, 0x32, 0x00, 0x01, 0x00, 0x00, 0x00, 
  0x02, 0x00, 0x00, 0x00, 0xc2, 0xff, 0xff, 0xff, 0x00, 0x00, 0x00, 0x01, 
  0x10, 0x00, 0x00, 0x00, 0x10, 0x00, 0x00, 0x00, 0x03, 0x00, 0x00, 0x00, 
  0x1c, 0x00, 0x00, 0x00, 0x48, 0xff, 0xff, 0xff, 0x0f, 0x00, 0x00, 0x00, 
  0x61, 0x72, 0x69, 0x74, 0x68, 0x2e, 0x63, 0x6f, 0x6e, 0x73, 0x74, 0x61, 
  0x6e, 0x74, 0x31, 0x00, 0x02, 0x00, 0x00, 0x00, 0x08, 0x00, 0x00, 0x00, 
  0x10, 0x00, 0x00, 0x00, 0x00, 0x00, 0x16, 0x00, 0x18, 0x00, 0x14, 0x00, 
  0x00, 0x00, 0x10, 0x00, 0x0c, 0x00, 0x08, 0x00, 0x00, 0x00, 0x00, 0x00, 
  0x00, 0x00, 0x07, 0x00, 0x16, 0x00, 0x00, 0x00, 0x00, 0x00, 0x00, 0x01, 
  0x10, 0x00, 0x00, 0x00, 0x10, 0x00, 0x00, 0x00, 0x02, 0x00, 0x00, 0x00, 
  0x1c, 0x00, 0x00, 0x00, 0x9c, 0xff, 0xff, 0xff, 0x0e, 0x00, 0x00, 0x00, 
  0x61, 0x72, 0x69, 0x74, 0x68, 0x2e, 0x63, 0x6f, 0x6e, 0x73, 0x74, 0x61, 
  0x6e, 0x74, 0x00, 0x00, 0x02, 0x00, 0x00, 0x00, 0x02, 0x00, 0x00, 0x00, 
  0x08, 0x00, 0x00, 0x00, 0x00, 0x00, 0x16, 0x00, 0x1c, 0x00, 0x18, 0x00, 
  0x00, 0x00, 0x14, 0x00, 0x10, 0x00, 0x0c, 0x00, 0x00, 0x00, 0x00, 0x00, 
  0x08, 0x00, 0x07, 0x00, 0x16, 0x00, 0x00, 0x00, 0x00, 0x00, 0x00, 0x01, 
  0x14, 0x00, 0x00, 0x00, 0x20, 0x00, 0x00, 0x00, 0x20, 0x00, 0x00, 0x00, 
  0x01, 0x00, 0x00, 0x00, 0x3c, 0x00, 0x00, 0x00, 0x02, 0x00, 0x00, 0x00, 
  0xff, 0xff, 0xff, 0xff, 0x04, 0x00, 0x00, 0x00, 0x04, 0x00, 0x04, 0x00, 
  0x04, 0x00, 0x00, 0x00, 0x1e, 0x00, 0x00, 0x00, 0x73, 0x65, 0x72, 0x76, 
  0x69, 0x6e, 0x67, 0x5f, 0x64, 0x65, 0x66, 0x61, 0x75, 0x6c, 0x74, 0x5f, 
  0x6b, 0x65, 0x72, 0x61, 0x73, 0x5f, 0x74, 0x65, 0x6e, 0x73, 0x6f, 0x72, 
  0x3a, 0x30, 0x00, 0x00, 0x02, 0x00, 0x00, 0x00, 0x01, 0x00, 0x00, 0x00, 
  0x04, 0x00, 0x00, 0x00, 0x02, 0x00, 0x00, 0x00, 0x20, 0x00, 0x00, 0x00, 
  0x04, 0x00, 0x00, 0x00, 0xf4, 0xff, 0xff, 0xff, 0x19, 0x00, 0x00, 0x00, 
  0x00, 0x00, 0x00, 0x19, 0x0c, 0x00, 0x0c, 0x00, 0x0b, 0x00, 0x00, 0x00, 
  0x00, 0x00, 0x04, 0x00, 0x0c, 0x00, 0x00, 0x00, 0x09, 0x00, 0x00, 0x00, 
  0x00, 0x00, 0x00, 0x09
};
const unsigned int emg_model_data_len = 3040;