unsigned char emg_model_tflite[] = {
  0x1c, 0x00, 0x00, 0x00, 0x54, 0x46, 0x4c, 0x33, 0x14, 0x00, 0x20, 0x00,
  0x1c, 0x00, 0x18, 0x00, 0x14, 0x00, 0x10, 0x00, 0x0c, 0x00, 0x00, 0x00,
  0x08, 0x00, 0x04, 0x00, 0x14, 0x00, 0x00, 0x00, 0x1c, 0x00, 0x00, 0x00,
  0x98, 0x00, 0x00, 0x00, 0xf0, 0x00, 0x00, 0x00, 0x84, 0x14, 0x00, 0x00,
  0x94, 0x14, 0x00, 0x00, 0x0c, 0x1c, 0x00, 0x00, 0x03, 0x00, 0x00, 0x00,
  0x01, 0x00, 0x00, 0x00, 0x10, 0x00, 0x00, 0x00, 0x00, 0x00, 0x0a, 0x00,
  0x10, 0x00, 0x0c, 0x00, 0x08, 0x00, 0x04, 0x00, 0x0a, 0x00, 0x00, 0x00,
  0x0c, 0x00, 0x00, 0x00, 0x1c, 0x00, 0x00, 0x00, 0x3c, 0x00, 0x00, 0x00,
  0x0f, 0x00, 0x00, 0x00, 0x73, 0x65, 0x72, 0x76, 0x69, 0x6e, 0x67, 0x5f,
  0x64, 0x65, 0x66, 0x61, 0x75, 0x6c, 0x74, 0x00, 0x01, 0x00, 0x00, 0x00,
  0x04, 0x00, 0x00, 0x00, 0x90, 0xff, 0xff, 0xff, 0x0a, 0x00, 0x00, 0x00,
  0x04, 0x00, 0x00, 0x00, 0x08, 0x00, 0x00, 0x00, 0x6f, 0x75, 0x74, 0x70,
  0x75, 0x74, 0x5f, 0x30, 0x00, 0x00, 0x00, 0x00, 0x01, 0x00, 0x00, 0x00,
  0x04, 0x00, 0x00, 0x00, 0x62, 0xeb, 0xff, 0xff, 0x04, 0x00, 0x00, 0x00,
  0x0e, 0x00, 0x00, 0x00, 0x6b, 0x65, 0x72, 0x61, 0x73, 0x5f, 0x74, 0x65,
  0x6e, 0x73, 0x6f, 0x72, 0x5f, 0x34, 0x00, 0x00, 0x02, 0x00, 0x00, 0x00,
  0x34, 0x00, 0x00, 0x00, 0x04, 0x00, 0x00, 0x00, 0xdc, 0xff, 0xff, 0xff,
  0x0d, 0x00, 0x00, 0x00, 0x04, 0x00, 0x00, 0x00, 0x13, 0x00, 0x00, 0x00,
  0x43, 0x4f, 0x4e, 0x56, 0x45, 0x52, 0x53, 0x49, 0x4f, 0x4e, 0x5f, 0x4d,
  0x45, 0x54, 0x41, 0x44, 0x41, 0x54, 0x41, 0x00, 0x08, 0x00, 0x0c, 0x00,
  0x08, 0x00, 0x04, 0x00, 0x08, 0x00, 0x00, 0x00, 0x0c, 0x00, 0x00, 0x00,
  0x04, 0x00, 0x00, 0x00, 0x13, 0x00, 0x00, 0x00, 0x6d, 0x69, 0x6e, 0x5f,
  0x72, 0x75, 0x6e, 0x74, 0x69, 0x6d, 0x65, 0x5f, 0x76, 0x65, 0x72, 0x73,
  0x69, 0x6f, 0x6e, 0x00, 0x0e, 0x00, 0x00, 0x00, 0x90, 0x13, 0x00, 0x00,
  0x88, 0x13, 0x00, 0x00, 0x38, 0x10, 0x00, 0x00, 0x28, 0x08, 0x00, 0x00,
  0xe4, 0x07, 0x00, 0x00, 0x94, 0x07, 0x00, 0x00, 0x04, 0x07, 0x00, 0x00,
  0xb4, 0x00, 0x00, 0x00, 0xac, 0x00, 0x00, 0x00, 0xa4, 0x00, 0x00, 0x00,
  0x9c, 0x00, 0x00, 0x00, 0x94, 0x00, 0x00, 0x00, 0x74, 0x00, 0x00, 0x00,
  0x04, 0x00, 0x00, 0x00, 0x16, 0xec, 0xff, 0xff, 0x04, 0x00, 0x00, 0x00,
  0x60, 0x00, 0x00, 0x00, 0x0c, 0x00, 0x00, 0x00, 0x08, 0x00, 0x0e, 0x00,
  0x08, 0x00, 0x04, 0x00, 0x08, 0x00, 0x00, 0x00, 0x10, 0x00, 0x00, 0x00,
  0x28, 0x00, 0x00, 0x00, 0x00, 0x00, 0x06, 0x00, 0x08, 0x00, 0x04, 0x00,
  0x06, 0x00, 0x00, 0x00, 0x04, 0x00, 0x00, 0x00, 0x01, 0x00, 0x00, 0x00,
  0xea, 0x03, 0x00, 0x00, 0x0c, 0x00, 0x18, 0x00, 0x14, 0x00, 0x10, 0x00,
  0x0c, 0x00, 0x04, 0x00, 0x0c, 0x00, 0x00, 0x00, 0x16, 0x5d, 0xac, 0x41,
  0xcf, 0xb8, 0x24, 0xcc, 0x02, 0x00, 0x00, 0x00, 0x02, 0x00, 0x00, 0x00,
  0x04, 0x00, 0x00, 0x00, 0x06, 0x00, 0x00, 0x00, 0x32, 0x2e, 0x31, 0x39,
  0x2e, 0x30, 0x00, 0x00, 0x82, 0xec, 0xff, 0xff, 0x04, 0x00, 0x00, 0x00,
  0x10, 0x00, 0x00, 0x00, 0x32, 0x2e, 0x31, 0x37, 0x2e, 0x30, 0x00, 0x00,
  0x00, 0x00, 0x00, 0x00, 0x00, 0x00, 0x00, 0x00, 0xd8, 0xe5, 0xff, 0xff,
  0xdc, 0xe5, 0xff, 0xff, 0xe0, 0xe5, 0xff, 0xff, 0xe4, 0xe5, 0xff, 0xff,
  0xae, 0xec, 0xff, 0xff, 0x04, 0x00, 0x00, 0x00, 0x40, 0x06, 0x00, 0x00,
  0x0a, 0x2f, 0x2a, 0xd5, 0xef, 0xf4, 0x07, 0x7f, 0xfe, 0xd0, 0xfe, 0x1a,
  0x1b, 0xda, 0x09, 0xd4, 0x0f, 0x67, 0xbb, 0xd5, 0xe7, 0x04, 0x52, 0xa7,
  0xee, 0xef, 0xfd, 0x29, 0xc5, 0xdf, 0xd5, 0x0b, 0x31, 0xb2, 0x01, 0xfd,
  0x2b, 0x47, 0xdb, 0xe7, 0xcb, 0xfb, 0x40, 0xac, 0xbb, 0xdc, 0xfe, 0x47,
  0xa8, 0x0f, 0x13, 0xf6, 0xe8, 0xf8, 0x4b, 0x66, 0xe2, 0x91, 0x3a, 0x3d,
  0x47, 0x38, 0x0d, 0x5a, 0x2c, 0x32, 0xcf, 0xa3, 0x57, 0x53, 0x2a, 0x21,
  0xe9, 0x31, 0x71, 0x5e, 0x2e, 0xe3, 0x62, 0x6a, 0x5a, 0x36, 0xae, 0x48,
  0x3b, 0xea, 0x0b, 0xb6, 0x7f, 0x65, 0x2a, 0x1c, 0xef, 0x42, 0x7a, 0xe7,
  0x01, 0xf1, 0x49, 0x78, 0x7f, 0x96, 0xf0, 0xdb, 0xda, 0xaa, 0x95, 0xe1,
  0x33, 0xd5, 0x99, 0xc6, 0x07, 0xb4, 0xe6, 0x7a, 0x8b, 0xac, 0x10, 0x6f,
  0xa4, 0x3f, 0xfd, 0x43, 0xcc, 0x32, 0x19, 0x08, 0x05, 0xae, 0xfb, 0x26,
  0x92, 0x23, 0xf8, 0xa3, 0x75, 0x95, 0x4d, 0x8f, 0xe3, 0x0c, 0x3b, 0x30,
  0x63, 0xcf, 0x33, 0x9e, 0xf0, 0xd6, 0xe9, 0xef, 0x3a, 0xe1, 0xdc, 0x03,
  0x17, 0x7f, 0xf7, 0xe5, 0xd7, 0x23, 0x52, 0x09, 0xe9, 0xeb, 0x22, 0x6a,
  0xf3, 0xf5, 0xf4, 0x0f, 0x17, 0xe7, 0x00, 0xdb, 0x01, 0x69, 0xee, 0x00,
  0xd7, 0x05, 0x47, 0x10, 0xd7, 0xfc, 0x0c, 0x49, 0xb9, 0x0d, 0xcf, 0xf4,
  0x5d, 0x11, 0xf0, 0xf6, 0xf1, 0x6c, 0xd8, 0xe5, 0xf0, 0x2d, 0xb0, 0x2f,
  0x1f, 0xea, 0x24, 0xc3, 0x00, 0x7b, 0xed, 0x0d, 0xd7, 0x0b, 0x70, 0xf3,
  0x19, 0xe5, 0xeb, 0x48, 0x2d, 0xf1, 0xcd, 0x14, 0x68, 0x34, 0xe5, 0xaa,
  0xff, 0x4b, 0x09, 0x04, 0xa0, 0x06, 0x40, 0xf7, 0x24, 0xbf, 0x48, 0x43,
  0xe2, 0xd8, 0x81, 0xf1, 0x3c, 0x1f, 0x36, 0x9e, 0x31, 0x24, 0xed, 0xed,
  0x64, 0xf4, 0xec, 0xef, 0xef, 0x7f, 0x08, 0x02, 0xf3, 0x16, 0x78, 0xe8,
  0xd5, 0xd2, 0xf0, 0x73, 0xe0, 0xf5, 0xfb, 0xf8, 0x5c, 0xe6, 0x0a, 0xe5,
  0x04, 0x4c, 0x0a, 0xe5, 0xd7, 0x21, 0x52, 0xf0, 0xce, 0xe0, 0xf6, 0x66,
  0xe5, 0xfe, 0xd2, 0xdf, 0x73, 0xe0, 0x04, 0xcb, 0x1d, 0x51, 0xe3, 0xe8,
  0x07, 0x15, 0xdf, 0xf7, 0x6b, 0x01, 0x3c, 0xe8, 0x16, 0x7f, 0x15, 0xf9,
  0x04, 0xec, 0x65, 0xec, 0xe7, 0x0c, 0xfc, 0x5d, 0x13, 0x27, 0xe7, 0x11,
  0x64, 0xe5, 0x1c, 0x2d, 0xf4, 0x6b, 0x15, 0x1b, 0xf3, 0xf5, 0x50, 0xdf,
  0x23, 0x1d, 0xea, 0x74, 0x15, 0x22, 0x12, 0xdc, 0x4f, 0xe6, 0x1f, 0x07,
  0xe7, 0x72, 0x17, 0x18, 0x4c, 0xbc, 0xe4, 0xe2, 0x3f, 0xbf, 0xfd, 0xc9,
  0x1a, 0x1b, 0x5e, 0xf2, 0xea, 0xe6, 0x24, 0xd7, 0x08, 0xef, 0xd2, 0xf0,
  0x3a, 0xe0, 0xd7, 0xa4, 0x22, 0xcb, 0x24, 0xe2, 0x14, 0xd7, 0x4d, 0xad,
  0x0e, 0xa2, 0x3e, 0xd9, 0xfd, 0xd7, 0xf8, 0xdd, 0x7f, 0xa0, 0x16, 0xa3,
  0x07, 0x20, 0x3a, 0xfe, 0x18, 0x4f, 0xfb, 0x31, 0xb9, 0x0f, 0xcd, 0xe8,
  0xc5, 0xe3, 0xe5, 0x2b, 0x2c, 0x4f, 0x0b, 0x3c, 0xa2, 0x1d, 0x9c, 0xe4,
  0x29, 0x21, 0x24, 0xfe, 0xe5, 0xfa, 0xd1, 0x02, 0xd0, 0x01, 0x33, 0xff,
  0xf6, 0x55, 0xda, 0x21, 0xae, 0xef, 0xbf, 0xd9, 0x28, 0x25, 0x37, 0x49,
  0xd4, 0x4a, 0xf6, 0xfa, 0x81, 0xc6, 0xc1, 0xbb, 0xa0, 0xa8, 0xb3, 0x22,
  0x27, 0xe5, 0x34, 0x10, 0xb8, 0xbd, 0xb9, 0x97, 0x8e, 0x0b, 0x2e, 0xe1,
  0x1e, 0xeb, 0xd2, 0xe6, 0xb1, 0xb3, 0xa6, 0xfb, 0x18, 0xfa, 0x14, 0xfc,
  0xca, 0xe1, 0x95, 0x9f, 0xa7, 0x1f, 0x23, 0xe5, 0x1e, 0xf5, 0xe2, 0xd4,
  0x81, 0xb3, 0xa8, 0x13, 0x2c, 0xfc, 0x11, 0xe4, 0x98, 0x0a, 0x58, 0xd7,
  0x41, 0x90, 0xc5, 0x1f, 0xe5, 0x2b, 0x9c, 0x14, 0x35, 0xb4, 0x63, 0x96,
  0x05, 0x61, 0x98, 0x65, 0x92, 0x29, 0x51, 0xa3, 0x4f, 0x8e, 0x0d, 0x6a,
  0x81, 0x4a, 0xed, 0xdd, 0x29, 0xbd, 0x2c, 0xec, 0xd1, 0x39, 0x98, 0x6c,
  0xa3, 0xe6, 0x60, 0x97, 0x5c, 0xbe, 0x16, 0x2c, 0xb3, 0x7d, 0x38, 0x0b,
  0xe0, 0x00, 0x81, 0x08, 0xe9, 0x19, 0x30, 0x8e, 0x38, 0xf1, 0x00, 0x4f,
  0xb9, 0x56, 0x05, 0x18, 0x12, 0xc5, 0x22, 0x20, 0xeb, 0xff, 0xc4, 0x3d,
  0xfa, 0xef, 0x31, 0xa9, 0x01, 0x1a, 0xc7, 0x00, 0xc3, 0x28, 0x29, 0x28,
  0x35, 0xd3, 0x4a, 0x1b, 0x19, 0x2c, 0xda, 0x4e, 0x23, 0xdc, 0x3c, 0xb8,
  0xe8, 0xf3, 0xfa, 0x04, 0xf5, 0x3f, 0xe2, 0x29, 0x4f, 0xfb, 0xf9, 0x1e,
  0x11, 0x6d, 0xb2, 0x46, 0xf8, 0x5f, 0x46, 0x95, 0x0d, 0x09, 0xf4, 0x46,
  0xeb, 0x05, 0x22, 0x00, 0x0a, 0x03, 0x40, 0xee, 0xeb, 0x0f, 0xcf, 0x43,
  0xdf, 0x6e, 0x46, 0x00, 0x19, 0xe7, 0x02, 0x38, 0x81, 0xe1, 0x17, 0x21,
  0x57, 0xc6, 0xcd, 0x26, 0x1d, 0xcd, 0x12, 0xf3, 0x32, 0x36, 0xc3, 0x49,
  0xf9, 0x19, 0x0c, 0xca, 0x35, 0xcf, 0x23, 0x10, 0xe5, 0x7f, 0x1a, 0x17,
  0xf9, 0xea, 0x4b, 0xe7, 0x2a, 0xff, 0xc9, 0x2a, 0x06, 0x24, 0xcf, 0xc7,
  0x5c, 0xd5, 0x28, 0x07, 0xd6, 0x25, 0xbc, 0x2d, 0x15, 0xbb, 0x3a, 0xb4,
  0x15, 0xf2, 0x01, 0x60, 0xe7, 0x70, 0xb9, 0x13, 0x27, 0x3d, 0x6f, 0x21,
  0xfa, 0x4f, 0x27, 0x59, 0xc9, 0x20, 0x12, 0xfd, 0x41, 0xad, 0xc8, 0x35,
  0xd0, 0xe1, 0x46, 0x06, 0x27, 0x72, 0xd6, 0x82, 0x2a, 0x4c, 0xbd, 0x0a,
  0xa8, 0xaa, 0x62, 0xe1, 0x4d, 0xb8, 0xfc, 0x1b, 0x33, 0xec, 0x1c, 0xbe,
  0x40, 0x18, 0x14, 0x81, 0xf0, 0x0b, 0x4c, 0xfd, 0xef, 0xe5, 0xa0, 0x1a,
  0x65, 0x99, 0x2a, 0x27, 0x36, 0x3d, 0xac, 0xcc, 0x3a, 0xc8, 0xf2, 0x07,
  0x29, 0x16, 0x25, 0x3c, 0x81, 0xdf, 0x19, 0x1c, 0x25, 0xde, 0xc0, 0xca,
  0x40, 0x25, 0xcb, 0xa8, 0xb9, 0x9a, 0xf5, 0xb4, 0xeb, 0xc4, 0xde, 0xf0,
  0xe7, 0x86, 0xdc, 0xa7, 0xce, 0xc9, 0xb6, 0xbe, 0xc7, 0xeb, 0x0b, 0xb5,
  0x7f, 0xd3, 0x42, 0x4a, 0xe4, 0x32, 0x14, 0x30, 0xf7, 0xdb, 0x7a, 0xb0,
  0xfa, 0x6f, 0xe8, 0x27, 0xd2, 0x24, 0x15, 0xb5, 0x44, 0xfa, 0xf0, 0x14,
  0xf8, 0x35, 0xed, 0x33, 0xf7, 0xea, 0x72, 0xb2, 0x02, 0x6f, 0xfe, 0x7a,
  0xfa, 0xee, 0xfc, 0xbe, 0x74, 0xee, 0xe6, 0x6a, 0xa8, 0x6d, 0x34, 0x1e,
  0xca, 0x37, 0x17, 0x0f, 0xfe, 0xab, 0x4e, 0x50, 0x01, 0xf1, 0xa9, 0x34,
  0xd1, 0x1c, 0x36, 0xa2, 0x16, 0x33, 0x18, 0x31, 0xbd, 0x41, 0xfd, 0x5b,
  0xda, 0xdb, 0x15, 0x42, 0xeb, 0x2a, 0xdb, 0x49, 0xfe, 0x16, 0xea, 0xe4,
  0x25, 0x30, 0x05, 0x20, 0x81, 0xfd, 0x32, 0x1c, 0xee, 0xb3, 0x16, 0xf5,
  0x5e, 0xe3, 0xc3, 0x0b, 0x06, 0x18, 0xe6, 0x81, 0x31, 0xc2, 0x0c, 0x3f,
  0xa2, 0x1d, 0x31, 0xdf, 0x37, 0xbc, 0xfa, 0x1c, 0x4d, 0x35, 0xeb, 0x49,
  0xea, 0x4a, 0xfa, 0x9f, 0x3e, 0x0d, 0x04, 0x53, 0xc1, 0x45, 0xe5, 0xfb,
  0x2b, 0xf5, 0x77, 0x21, 0x31, 0xea, 0xda, 0x20, 0x48, 0x02, 0x45, 0xb6,
  0x63, 0xfd, 0x10, 0xcd, 0xa6, 0x0a, 0x20, 0x29, 0x44, 0xf1, 0x0c, 0x20,
  0x1a, 0xd0, 0x9b, 0x41, 0x13, 0x08, 0x56, 0xdb, 0x3b, 0x0d, 0x1a, 0xd0,
  0x05, 0x09, 0xf7, 0x12, 0x2c, 0x04, 0x18, 0x58, 0x50, 0x20, 0x8b, 0xef,
  0x66, 0xfc, 0x1e, 0xb8, 0x44, 0x4c, 0xea, 0x1a, 0x81, 0x2c, 0x06, 0xd1,
  0x34, 0x9d, 0x58, 0x3b, 0x41, 0x71, 0x9f, 0xc1, 0x5e, 0xb8, 0x28, 0xc8,
  0xbe, 0x07, 0x48, 0x63, 0xde, 0x27, 0x3c, 0x2a, 0x11, 0xb0, 0x11, 0x48,
  0xfd, 0x76, 0x81, 0x09, 0x06, 0x2d, 0x4b, 0xcc, 0x99, 0x68, 0xf8, 0x53,
  0x90, 0x48, 0x56, 0xc5, 0x6b, 0xc9, 0x99, 0x3f, 0xdd, 0x7f, 0x9f, 0x20,
  0x79, 0xd6, 0x26, 0x8f, 0xa4, 0x46, 0xe0, 0xe7, 0xec, 0xf7, 0x59, 0x51,
  0x0b, 0xfc, 0x97, 0x9b, 0x1a, 0x49, 0x0c, 0x48, 0xd1, 0xfe, 0xd2, 0x0f,
  0x98, 0x36, 0xe3, 0x81, 0x56, 0x85, 0xe8, 0x98, 0xfc, 0x9a, 0xfe, 0x5e,
  0x53, 0x2f, 0x09, 0xb9, 0xb5, 0xbf, 0x34, 0xdc, 0x97, 0x88, 0x4f, 0x95,
  0xf1, 0xf5, 0x38, 0x6f, 0xe1, 0x31, 0x60, 0xe5, 0x23, 0x02, 0xec, 0xff,
  0xec, 0x42, 0x36, 0xeb, 0x52, 0x81, 0x53, 0xf3, 0x00, 0x3c, 0xed, 0x2f,
  0x36, 0x07, 0x4b, 0x8d, 0x5d, 0xc6, 0x1b, 0xea, 0xd1, 0x09, 0x0c, 0xff,
  0x3a, 0x97, 0x43, 0x0a, 0xdd, 0x0c, 0xbd, 0xff, 0x02, 0x27, 0x6c, 0x9f,
  0x66, 0xe5, 0x26, 0x01, 0x9d, 0x21, 0x46, 0xd3, 0x39, 0xc4, 0xd0, 0x2e,
  0xf2, 0x2a, 0x19, 0x07, 0xe9, 0xec, 0x25, 0x36, 0xac, 0x01, 0x93, 0x39,
  0xef, 0xb2, 0x3a, 0x92, 0xd8, 0x7f, 0x0d, 0x3a, 0xcf, 0x44, 0x31, 0xa6,
  0x09, 0xc0, 0x41, 0x6e, 0x2f, 0xd6, 0xc1, 0x22, 0x3a, 0x0f, 0xbc, 0xed,
  0x1a, 0x35, 0xfa, 0x10, 0x14, 0xf0, 0x56, 0xba, 0xf5, 0xe3, 0x33, 0x66,
  0xe4, 0xe5, 0x2f, 0x44, 0xe9, 0xaa, 0xf1, 0x32, 0x4d, 0x0c, 0x01, 0xe6,
  0x2a, 0x4e, 0x38, 0x87, 0x19, 0x4e, 0x54, 0x12, 0xcd, 0xe0, 0x1a, 0x18,
  0x05, 0xb8, 0xef, 0x40, 0x57, 0x0c, 0xce, 0xd5, 0x3a, 0x41, 0x2e, 0x88,
  0x1e, 0x12, 0x66, 0x21, 0xe7, 0xe6, 0x52, 0x28, 0x0a, 0x81, 0x0e, 0x16,
  0x57, 0xd7, 0xa8, 0x01, 0xd5, 0x44, 0xff, 0x07, 0xd2, 0x0c, 0x18, 0xe1,
  0x93, 0x1f, 0xf7, 0x4a, 0xe5, 0xec, 0xbc, 0x20, 0x07, 0xea, 0xad, 0xe3,
  0xee, 0x13, 0x00, 0xf9, 0xda, 0x15, 0x1a, 0x27, 0x81, 0x23, 0xd5, 0x03,
  0xd3, 0x26, 0xae, 0x25, 0x0a, 0x1d, 0x8c, 0x09, 0xfc, 0x3b, 0xe6, 0x24,
  0xdd, 0xfc, 0x1e, 0xf9, 0xb1, 0xb2, 0x56, 0x81, 0x68, 0xc0, 0x2a, 0xa5,
  0x8a, 0xdd, 0x1d, 0xd7, 0xdc, 0x4a, 0x98, 0x92, 0x77, 0x5b, 0xce, 0xbe,
  0xbe, 0xa4, 0x8b, 0x12, 0x33, 0xc9, 0x8f, 0x52, 0x74, 0x01, 0x39, 0xe0,
  0x8c, 0x68, 0xba, 0xc6, 0xb6, 0xb7, 0x87, 0xa0, 0xec, 0xd4, 0xfc, 0x73,
  0xeb, 0x23, 0xe1, 0x5b, 0x4d, 0x2c, 0x98, 0xed, 0x4f, 0xdf, 0x6c, 0x41,
  0x02, 0xfb, 0xf8, 0xf2, 0xe1, 0xe0, 0x15, 0x00, 0x58, 0x53, 0xdd, 0x0a,
  0x1f, 0xd4, 0xe9, 0xee, 0x14, 0xec, 0x1b, 0x33, 0x00, 0xe9, 0xf1, 0xcd,
  0xfe, 0xd5, 0x35, 0xe9, 0x69, 0x7f, 0x1e, 0x11, 0x10, 0xde, 0xc3, 0xfc,
  0x2a, 0xdd, 0x52, 0x1f, 0xd8, 0xd7, 0xcf, 0xe7, 0x10, 0xf1, 0x40, 0xd9,
  0xd4, 0xfb, 0x21, 0x42, 0x1f, 0xed, 0xe2, 0x21, 0x62, 0xed, 0xfb, 0x0b,
  0x11, 0x5d, 0xe3, 0xfa, 0xdd, 0x0f, 0x2f, 0x13, 0xc0, 0x10, 0xec, 0x6d,
  0xf0, 0xcd, 0x01, 0x1c, 0x2f, 0xfb, 0xf9, 0xf5, 0x16, 0x56, 0xd4, 0xc4,
  0xf8, 0x2d, 0x5a, 0xfe, 0xdd, 0xf8, 0xfa, 0x7f, 0xe9, 0xfe, 0xec, 0x07,
  0xd2, 0xeb, 0x27, 0xd8, 0x17, 0xf4, 0xed, 0x64, 0xf4, 0x12, 0x21, 0x35,
  0x51, 0xe2, 0xd4, 0x02, 0x30, 0x7f, 0xec, 0x1a, 0x22, 0xfe, 0x53, 0xf7,
  0xe5, 0xf7, 0xdf, 0x5d, 0xf1, 0xd9, 0xff, 0x1d, 0x4c, 0xd0, 0x03, 0x0b,
  0x20, 0x5e, 0xd1, 0x0f, 0x2a, 0x0d, 0x63, 0x1d, 0xe1, 0xfb, 0x09, 0x61,
  0xa1, 0xa9, 0x02, 0x3e, 0x64, 0xca, 0xb6, 0x4d, 0xd2, 0x1e, 0x2e, 0xea,
  0xfc, 0x21, 0x94, 0x95, 0x30, 0xc2, 0xb6, 0xc4, 0x5c, 0x85, 0xae, 0x92,
  0x38, 0xeb, 0x02, 0x38, 0x7b, 0xff, 0x61, 0x8e, 0x6c, 0x56, 0xce, 0x94,
  0xa3, 0xd1, 0x7f, 0x19, 0xdf, 0xdf, 0xc0, 0x05, 0xd9, 0x65, 0x79, 0x09,
  0x21, 0xa1, 0x04, 0xfa, 0x35, 0x27, 0x02, 0x28, 0xd9, 0x17, 0xb9, 0xaf,
  0x19, 0x35, 0x15, 0xdc, 0x15, 0x66, 0xc8, 0x06, 0x8b, 0xee, 0x29, 0xd8,
  0x4c, 0x1b, 0xbf, 0x24, 0xb7, 0xf4, 0xa3, 0xe2, 0x10, 0x34, 0x4b, 0x36,
  0xb0, 0x62, 0xb4, 0x10, 0x81, 0xba, 0x1a, 0xdc, 0x5b, 0xfc, 0xfe, 0x29,
  0x07, 0x4a, 0xbf, 0xe2, 0xfa, 0xf2, 0xff, 0xff, 0x04, 0x00, 0x00, 0x00,
  0x80, 0x00, 0x00, 0x00, 0x6e, 0x64, 0x6f, 0xbe, 0x5b, 0xf8, 0xa8, 0x3e,
  0x00, 0x00, 0x00, 0x00, 0xb3, 0x8b, 0x85, 0xbc, 0xb3, 0xa2, 0x89, 0x3d,
  0xd7, 0x0b, 0xef, 0x3c, 0x68, 0xf6, 0x8f, 0xbe, 0x94, 0xf8, 0x85, 0xbe,
  0x2e, 0xbe, 0x4f, 0x3e, 0x91, 0x46, 0x86, 0x3e, 0xa0, 0xd0, 0xb8, 0x3d,
  0x0f, 0x4f, 0x6d, 0x3e, 0xb9, 0xee, 0x9e, 0x3e, 0x85, 0xe5, 0x52, 0xbe,
  0x7c, 0x58, 0x8c, 0xbd, 0x45, 0x76, 0xd3, 0x3e, 0x03, 0x15, 0xcb, 0xbd,
  0x51, 0x77, 0x8b, 0x3d, 0x1a, 0x61, 0x6f, 0x3e, 0x88, 0x11, 0x08, 0x3f,
  0x1a, 0x11, 0xd6, 0xbd, 0x50, 0xb4, 0x48, 0xbd, 0x8d, 0x11, 0x46, 0x3d,
  0xac, 0xac, 0xbb, 0x3e, 0x79, 0x10, 0x4b, 0x3e, 0x26, 0x37, 0x3f, 0x3f,
  0x00, 0x00, 0x00, 0x00, 0x39, 0x63, 0x05, 0x3b, 0x41, 0x7c, 0x8d, 0xbe,
  0x42, 0x1f, 0xf1, 0x3c, 0x00, 0x00, 0x00, 0x00, 0x38, 0x03, 0xb4, 0x3e,
  0x86, 0xf3, 0xff, 0xff, 0x04, 0x00, 0x00, 0x00, 0x40, 0x00, 0x00, 0x00,
  0xde, 0xce, 0xa7, 0x3e, 0x0e, 0x58, 0x89, 0xbc, 0x47, 0xef, 0x41, 0x3e,
  0x39, 0x1c, 0x59, 0x3e, 0x59, 0x25, 0x3e, 0x3e, 0x10, 0x67, 0xc4, 0x3e,
  0x9b, 0x0a, 0x91, 0x3e, 0xae, 0xf0, 0xe7, 0xbc, 0x0a, 0xd0, 0x79, 0xbc,
  0x7e, 0x5d, 0xf9, 0x3d, 0x9c, 0x82, 0x16, 0x3e, 0xbb, 0xf6, 0x71, 0xbc,
  0x9d, 0xf5, 0x68, 0xbe, 0x00, 0x1a, 0xa8, 0x3e, 0x28, 0xd5, 0x09, 0x3f,
  0x3d, 0xd1, 0x2e, 0xbd, 0xd2, 0xf3, 0xff, 0xff, 0x04, 0x00, 0x00, 0x00,
  0x34, 0x00, 0x00, 0x00, 0x15, 0x13, 0x77, 0xbb, 0x86, 0x6d, 0x9c, 0x3c,
  0x08, 0xb5, 0x83, 0x3e, 0xf0, 0xb6, 0xc3, 0x3d, 0x4b, 0x30, 0x98, 0xbe,
  0x69, 0xb7, 0x27, 0xbe, 0x02, 0x26, 0x17, 0xbe, 0x85, 0xc9, 0xf6, 0xbd,
  0x76, 0x12, 0xc6, 0x3e, 0xb4, 0x27, 0x39, 0x3d, 0x95, 0xf8, 0x49, 0xbe,
  0xdf, 0x76, 0xf5, 0x3b, 0xf5, 0xb6, 0xd6, 0xbd, 0x12, 0xf4, 0xff, 0xff,
  0x04, 0x00, 0x00, 0x00, 0x00, 0x08, 0x00, 0x00, 0x65, 0x5d, 0x25, 0xbc,
  0xc3, 0x56, 0x87, 0x3e, 0xac, 0xab, 0xa2, 0xbe, 0x03, 0xd3, 0x7d, 0xbe,
  0x1d, 0x22, 0x4d, 0xbd, 0x01, 0xad, 0x29, 0xbe, 0x7e, 0x94, 0x09, 0xbf,
  0x39, 0x29, 0x0a, 0xbf, 0x77, 0x5d, 0x90, 0x3e, 0xac, 0xf5, 0x86, 0x3f,
  0x82, 0x4b, 0xa2, 0xbf, 0xdc, 0x6b, 0x57, 0x3d, 0xed, 0xa2, 0x87, 0xbc,
  0xe7, 0xfe, 0x98, 0xbe, 0xcd, 0xcc, 0x73, 0x3e, 0x71, 0xc1, 0xea, 0x3e,
  0xba, 0xbd, 0x53, 0xbd, 0x22, 0x1d, 0xa2, 0xba, 0xb4, 0xea, 0xab, 0x3e,
  0x88, 0xab, 0xce, 0x3e, 0x33, 0x29, 0x6d, 0xbe, 0xbc, 0x2c, 0x6c, 0xbe,
  0x62, 0x2d, 0xaf, 0x3e, 0x50, 0xb5, 0x63, 0xbd, 0x76, 0x1b, 0xa7, 0xbd,
  0x6f, 0xe7, 0xa7, 0x3e, 0xf3, 0x54, 0x8e, 0x3e, 0x31, 0x6f, 0xa8, 0xbe,
  0xf6, 0xbe, 0xa8, 0xbe, 0xd8, 0x7e, 0xce, 0xbe, 0x1e, 0x7c, 0x78, 0x3e,
  0xad, 0x13, 0x7d, 0x3f, 0x68, 0x77, 0x54, 0x3e, 0x82, 0xf5, 0xad, 0xbe,
  0x90, 0x7b, 0xfc, 0xbc, 0x96, 0xda, 0x2a, 0x3e, 0x64, 0x39, 0x79, 0xbd,
  0x74, 0x91, 0x87, 0x3d, 0x4d, 0x4a, 0x33, 0x3d, 0xf9, 0x07, 0xae, 0xbe,
  0x9c, 0x99, 0xcf, 0xbd, 0x6d, 0x30, 0x1e, 0xbe, 0x9b, 0xb7, 0x41, 0xbe,
  0x11, 0xe0, 0x66, 0x3e, 0x9a, 0xa8, 0x7b, 0xbe, 0xc8, 0xd0, 0xa1, 0x3e,
  0xd4, 0xe9, 0xb2, 0xbd, 0x45, 0x0e, 0x99, 0x3e, 0x2b, 0x6d, 0x56, 0xbe,
  0x3f, 0x76, 0x3e, 0xbe, 0x47, 0x5a, 0x63, 0xbe, 0x37, 0xec, 0x50, 0xbe,
  0x51, 0x16, 0x83, 0xbe, 0xac, 0xd6, 0x6b, 0xbd, 0x11, 0xf2, 0xdc, 0x3c,
  0x4b, 0xe0, 0x58, 0xbe, 0x5f, 0x39, 0x8a, 0xbc, 0x20, 0x8c, 0xa3, 0xbe,
  0x28, 0x3b, 0xc1, 0xbd, 0x13, 0xf8, 0xc9, 0x3d, 0xd1, 0x26, 0x99, 0xbe,
  0x71, 0x21, 0x3a, 0x3e, 0xeb, 0x93, 0x83, 0x3e, 0xa2, 0x69, 0xb8, 0xbe,
  0xc1, 0xa3, 0x05, 0x3c, 0x3f, 0x17, 0x47, 0xbe, 0xc9, 0x92, 0x8e, 0xbe,
  0xfa, 0xcf, 0x91, 0x3e, 0xfd, 0x5e, 0x7d, 0xbe, 0x0a, 0x6b, 0x24, 0x3f,
  0x0c, 0x9a, 0xa6, 0xbe, 0xc7, 0x6e, 0x2e, 0x3e, 0x32, 0x96, 0x76, 0x3e,
  0x15, 0x45, 0x8a, 0xbf, 0x8c, 0x65, 0xa1, 0x3e, 0x0d, 0x02, 0x7f, 0xbd,
  0xf1, 0xa7, 0x01, 0x3f, 0x67, 0x6f, 0x2d, 0x3e, 0x43, 0x1d, 0xdb, 0xbe,
  0x8b, 0x05, 0xb9, 0xbe, 0x44, 0x23, 0xc4, 0x3e, 0xca, 0xdd, 0x8c, 0xbe,
  0x56, 0x19, 0x03, 0xbf, 0x44, 0x66, 0x8c, 0x3e, 0xcd, 0xe0, 0x8a, 0xbe,
  0x1f, 0xa4, 0xdd, 0xbd, 0xd3, 0x36, 0x43, 0x3f, 0x30, 0x8d, 0xbe, 0x3d,
  0xf6, 0x15, 0xd0, 0x3f, 0xab, 0xa0, 0xab, 0x3f, 0xe2, 0xd7, 0x53, 0x3e,
  0x21, 0xdf, 0xfb, 0x3e, 0xdc, 0x10, 0x0c, 0x3f, 0x6f, 0x7b, 0x34, 0xbe,
  0x4d, 0x25, 0x80, 0x3e, 0x6e, 0x52, 0xa4, 0x3e, 0xa2, 0xa3, 0xe4, 0xbe,
  0xe2, 0x94, 0xe4, 0x3e, 0xd8, 0xda, 0x14, 0xbe, 0x87, 0x88, 0x3c, 0xbe,
  0x66, 0xb8, 0x9b, 0x3e, 0xfd, 0x76, 0xdb, 0xbe, 0x32, 0x37, 0x08, 0x3e,
  0x82, 0x80, 0xb6, 0xbe, 0x69, 0x7d, 0xfd, 0x3e, 0x32, 0x00, 0x56, 0xbe,
  0xb7, 0x84, 0xd0, 0xbe, 0xc8, 0xc6, 0x2f, 0x3f, 0x5d, 0xe4, 0x31, 0x3e,
  0x26, 0x92, 0xee, 0xbc, 0xbb, 0x91, 0xa4, 0x3e, 0x2a, 0x48, 0x85, 0x3e,
  0x86, 0x57, 0xf5, 0xbe, 0x63, 0xbd, 0x0d, 0x3f, 0xd5, 0x50, 0x60, 0x3e,
  0xa0, 0x84, 0xdb, 0x3e, 0x9d, 0xbb, 0xf7, 0xbd, 0xef, 0xbf, 0x70, 0xbe,
  0x0d, 0x83, 0x5b, 0x3f, 0x28, 0x74, 0x8c, 0xbe, 0xa4, 0x28, 0x1e, 0xbe,
  0xa6, 0x1f, 0xb4, 0x3f, 0x93, 0x4f, 0xaa, 0xbe, 0x81, 0x47, 0xeb, 0xbd,
  0x7c, 0xf0, 0xf8, 0xbe, 0x3d, 0x66, 0xac, 0xbe, 0x5c, 0x62, 0xb7, 0x3d,
  0x3b, 0x13, 0x21, 0x3e, 0x51, 0x2e, 0x2d, 0x3e, 0x70, 0xa5, 0x8c, 0x3e,
  0x78, 0xc1, 0x72, 0xbe, 0x99, 0xcf, 0x95, 0x3e, 0x03, 0xe2, 0xd9, 0xbd,
  0xa8, 0x97, 0x0e, 0x3f, 0x14, 0xd2, 0x23, 0x3e, 0x49, 0xa6, 0x59, 0x3e,
  0xa1, 0x91, 0x0d, 0xbd, 0x74, 0xd5, 0xd1, 0xb9, 0x68, 0xfe, 0xfb, 0xbe,
  0xb0, 0x33, 0xbb, 0x3e, 0xc6, 0x68, 0xf3, 0xbc, 0xdc, 0xcf, 0x25, 0xbd,
  0xc8, 0x7a, 0x65, 0xbe, 0x94, 0x22, 0xf6, 0x3a, 0x66, 0x3a, 0x88, 0xbe,
  0x41, 0x23, 0x00, 0xbf, 0x6e, 0xed, 0x8a, 0x3e, 0x53, 0xca, 0x86, 0x3e,
  0x32, 0xdf, 0x7a, 0xbd, 0xc7, 0xcc, 0x5f, 0x3e, 0xfa, 0x12, 0x7e, 0x3e,
  0x64, 0xef, 0xd4, 0xbd, 0x64, 0xb1, 0x33, 0x3e, 0xa9, 0xa7, 0x6f, 0x3f,
  0x38, 0x2f, 0x91, 0xbd, 0xbe, 0xc3, 0xd3, 0xbe, 0x77, 0xae, 0xf2, 0x3e,
  0x7b, 0x2a, 0xb0, 0x3c, 0x82, 0xc2, 0xb3, 0xbe, 0xcf, 0xe4, 0x1f, 0x3e,
  0xa1, 0x73, 0xf1, 0x3e, 0x21, 0x9d, 0x72, 0xbe, 0x18, 0x38, 0xa6, 0x3d,
  0x7b, 0x0c, 0x27, 0x3f, 0x76, 0x58, 0xa3, 0xbe, 0xef, 0x20, 0x81, 0x3f,
  0x28, 0x46, 0x04, 0xbe, 0xa9, 0x07, 0x49, 0x3f, 0x08, 0xc9, 0x57, 0xbe,
  0x8c, 0x71, 0x2c, 0xbf, 0x82, 0x05, 0x02, 0xbf, 0x11, 0xa7, 0x97, 0x3e,
  0xf6, 0x5d, 0xfb, 0x3e, 0x98, 0x1d, 0x4f, 0xbe, 0x0b, 0x0a, 0x97, 0x3d,
  0x05, 0x5d, 0xe7, 0x3e, 0x17, 0x0e, 0x03, 0xbe, 0xeb, 0x45, 0x1d, 0xbe,
  0x0f, 0x4c, 0xdc, 0xbe, 0x97, 0x4b, 0x66, 0xbd, 0xda, 0x5d, 0xa8, 0xbd,
  0x23, 0xdd, 0x82, 0xbe, 0x16, 0x08, 0xd6, 0x3e, 0x83, 0x6c, 0x38, 0x3e,
  0x38, 0x54, 0xbe, 0x3f, 0xac, 0x12, 0x97, 0x3f, 0xe0, 0xa1, 0x50, 0xbe,
  0x46, 0xf4, 0x5c, 0xbe, 0xb7, 0x61, 0x42, 0x3f, 0xc1, 0xd5, 0xba, 0x3c,
  0x98, 0xff, 0xdb, 0xbd, 0x40, 0xc1, 0x09, 0x3f, 0xf7, 0xcc, 0x16, 0xbf,
  0x56, 0x07, 0xd1, 0x3e, 0xe0, 0x25, 0x71, 0xbd, 0x4d, 0xe4, 0x12, 0xbe,
  0xda, 0xda, 0xcd, 0x3e, 0xb9, 0x7d, 0x50, 0xbf, 0x49, 0x9e, 0x3a, 0x3e,
  0xbd, 0x2e, 0x64, 0xbc, 0xd5, 0x54, 0x80, 0xbf, 0x4a, 0x48, 0x81, 0xbf,
  0x8d, 0xfe, 0x0d, 0x3f, 0x6a, 0xd9, 0xbb, 0xbe, 0xbe, 0xad, 0x8a, 0xbe,
  0xa9, 0xa1, 0xa3, 0x3e, 0x06, 0xd9, 0x1c, 0xbe, 0xf6, 0x6f, 0x7d, 0x3e,
  0xce, 0x90, 0xa1, 0x3e, 0x8c, 0x30, 0xa6, 0x3e, 0x94, 0x37, 0xaa, 0xbd,
  0x25, 0xc3, 0x07, 0x3f, 0xb2, 0xad, 0xd5, 0xbd, 0x2a, 0x76, 0x5a, 0xbe,
  0x93, 0x85, 0x1e, 0x3e, 0x10, 0x5b, 0x23, 0x3f, 0x9f, 0xac, 0x1d, 0x3f,
  0x77, 0x9f, 0xcd, 0x3f, 0x7e, 0xd2, 0xa1, 0xbe, 0x42, 0xb0, 0x75, 0x3f,
  0x4e, 0x74, 0x55, 0xbf, 0xfa, 0x6d, 0x0e, 0x3f, 0x49, 0x65, 0x1d, 0xbe,
  0x97, 0x52, 0x2d, 0xbf, 0xbf, 0xb7, 0x78, 0x3e, 0x62, 0xa1, 0x5d, 0x3e,
  0x18, 0x56, 0x06, 0xbe, 0xf6, 0x4b, 0xaa, 0x3e, 0xe9, 0x98, 0x26, 0x3e,
  0xe6, 0xff, 0xc8, 0x3e, 0x3c, 0xe2, 0xbc, 0x3e, 0x0b, 0x92, 0x23, 0xbe,
  0x07, 0x23, 0xe0, 0x3d, 0xbc, 0x96, 0xca, 0x3d, 0x5f, 0x5f, 0x25, 0x3f,
  0x03, 0xf8, 0xf4, 0xbe, 0x82, 0x58, 0xa1, 0xbe, 0xe4, 0x4d, 0xc0, 0x3e,
  0xf8, 0x85, 0xf7, 0x3d, 0x53, 0xf6, 0x47, 0x3d, 0x60, 0x17, 0xe1, 0x3e,
  0xbc, 0x32, 0x25, 0xbe, 0xdc, 0x4d, 0xac, 0xbe, 0xe8, 0xb1, 0x04, 0x3d,
  0x8a, 0x3b, 0x0e, 0xbe, 0x01, 0x88, 0x35, 0x3e, 0xe5, 0x09, 0xf1, 0xbe,
  0x76, 0x36, 0xd1, 0x3d, 0xf9, 0x2e, 0xb6, 0xbc, 0x4f, 0x1e, 0xf1, 0xbe,
  0xaa, 0x8a, 0x39, 0x3e, 0x4f, 0xe7, 0xac, 0x3e, 0x37, 0x21, 0x0b, 0x3e,
  0xb5, 0x94, 0xce, 0x3e, 0xbf, 0xbe, 0xac, 0xbe, 0x8c, 0x22, 0xd2, 0x3e,
  0x54, 0x92, 0x9e, 0xbe, 0x22, 0xe8, 0x8d, 0xbe, 0x4e, 0xa5, 0x41, 0x3e,
  0xeb, 0x4c, 0x0c, 0xbe, 0x72, 0x39, 0x06, 0xbe, 0xa7, 0xfa, 0x38, 0xbe,
  0xca, 0x59, 0x8a, 0x3e, 0xf7, 0x5a, 0x2e, 0xbd, 0x12, 0x36, 0x99, 0xbe,
  0x25, 0xe6, 0x60, 0xbe, 0x9a, 0xcc, 0xac, 0x3e, 0x5f, 0xb8, 0xe3, 0xbd,
  0xcf, 0xad, 0x72, 0x3e, 0xb8, 0xfe, 0x9d, 0xbe, 0xbf, 0x15, 0x2b, 0xbe,
  0x6d, 0xb0, 0xf7, 0x3d, 0xe2, 0x03, 0xb1, 0xbe, 0x53, 0xc6, 0xde, 0x3d,
  0x28, 0x1d, 0x01, 0xbe, 0xdf, 0x2d, 0x71, 0x3e, 0xbd, 0xbb, 0x3e, 0x3e,
  0xe4, 0x32, 0x43, 0x3e, 0x8e, 0xf0, 0x2a, 0xbe, 0xa7, 0x7d, 0xb5, 0xbe,
  0x12, 0x9a, 0xa9, 0x3e, 0xba, 0x54, 0xb2, 0xbe, 0xa0, 0x09, 0x32, 0x3c,
  0xe1, 0x39, 0x30, 0x3e, 0xfa, 0x33, 0xac, 0xbd, 0x4e, 0x8e, 0xa8, 0xbd,
  0xc0, 0xbe, 0xd8, 0xbb, 0xc6, 0x05, 0x97, 0xbe, 0x1f, 0x8e, 0x34, 0xbf,
  0x0e, 0x41, 0x0b, 0x3f, 0x83, 0x72, 0x56, 0xbe, 0xcf, 0x66, 0x35, 0xbf,
  0x57, 0x94, 0xd5, 0x3e, 0x32, 0x23, 0x0d, 0xbf, 0x2f, 0xb4, 0xe2, 0x3e,
  0x78, 0x16, 0x83, 0xbf, 0xfd, 0x4c, 0x4a, 0x3e, 0xf5, 0x91, 0x1b, 0x3f,
  0x16, 0x36, 0xc3, 0xbc, 0xaa, 0x9c, 0x73, 0xbe, 0xe1, 0xdb, 0xff, 0x3d,
  0xd1, 0x86, 0x1c, 0xbd, 0x00, 0x59, 0x91, 0x3e, 0x1b, 0xdc, 0x70, 0xbe,
  0x66, 0x4c, 0x7f, 0x3e, 0x67, 0xff, 0xf7, 0x3e, 0xa0, 0x87, 0xf0, 0x3e,
  0x46, 0x6f, 0xc9, 0x3e, 0x17, 0xf6, 0xc1, 0x3d, 0x32, 0x42, 0x4e, 0xbe,
  0x5b, 0x20, 0x37, 0xbe, 0xe5, 0xf3, 0x43, 0x3e, 0xd7, 0xd8, 0x4b, 0xbf,
  0x54, 0x69, 0x87, 0xbf, 0x51, 0xeb, 0x99, 0xbe, 0xf7, 0xaa, 0x25, 0x3d,
  0x2d, 0xaa, 0x4e, 0xbf, 0x7d, 0x22, 0xf8, 0x3e, 0x70, 0xf0, 0x0f, 0x3e,
  0xdd, 0xae, 0x8b, 0xbe, 0xfb, 0xbf, 0xc1, 0x3e, 0x4a, 0x06, 0x20, 0x3e,
  0x84, 0xa3, 0xf6, 0x3d, 0x8b, 0xc2, 0xfe, 0x3e, 0x0a, 0x4b, 0xb7, 0xbe,
  0x00, 0x5f, 0x6a, 0x3f, 0x68, 0x9c, 0x8d, 0xbd, 0x8b, 0x14, 0x88, 0x3e,
  0xa6, 0x7d, 0x38, 0x3f, 0xad, 0x7b, 0x30, 0x3f, 0xc9, 0x22, 0x4d, 0xbe,
  0x3a, 0xbb, 0x55, 0x3e, 0xf9, 0x07, 0x41, 0xbc, 0x2d, 0x5f, 0xb3, 0xbe,
  0x50, 0x94, 0xa7, 0xbe, 0xa5, 0x21, 0x0f, 0xbe, 0xfd, 0x97, 0x46, 0x3e,
  0x6d, 0xa1, 0x1b, 0xbf, 0x70, 0xae, 0xd0, 0xbd, 0xe2, 0x71, 0xc8, 0x3c,
  0xce, 0x04, 0x6b, 0xbe, 0xf2, 0x3d, 0x8f, 0xbd, 0x68, 0x23, 0x24, 0x3e,
  0xb2, 0x6a, 0x03, 0xbe, 0x29, 0xfa, 0x51, 0x3f, 0xb5, 0x8c, 0x19, 0x3f,
  0x14, 0x5b, 0x71, 0xbe, 0x25, 0xcc, 0x4d, 0x3e, 0xb8, 0x6b, 0xd3, 0x3e,
  0xf8, 0xae, 0x00, 0x3e, 0xc0, 0x01, 0x7d, 0xbd, 0xc7, 0x18, 0x5e, 0x3f,
  0x35, 0xd3, 0x8e, 0x3e, 0x07, 0x06, 0x3e, 0x3e, 0xb0, 0xab, 0x47, 0xbd,
  0xad, 0x48, 0xad, 0x3e, 0x9a, 0xf7, 0xbc, 0x3d, 0xae, 0xaa, 0x6c, 0x3e,
  0x87, 0x32, 0xdd, 0x3e, 0x38, 0xb4, 0x38, 0x3e, 0xbd, 0x4b, 0xc2, 0xbe,
  0xc9, 0x0c, 0x1f, 0xbe, 0xa5, 0x79, 0x3d, 0x3f, 0xbb, 0xfa, 0x00, 0xbf,
  0x61, 0x7b, 0x19, 0xbd, 0x75, 0x6f, 0xb2, 0x3e, 0xf8, 0x56, 0x81, 0x3e,
  0x34, 0x75, 0x8e, 0x3e, 0x8c, 0x8a, 0xa5, 0x3e, 0xe4, 0x1b, 0xd4, 0xbe,
  0xb3, 0xdd, 0xe4, 0xbe, 0x9b, 0x46, 0x4f, 0x3e, 0xab, 0xab, 0xa5, 0x3d,
  0xdf, 0x39, 0x91, 0xbc, 0xb5, 0x76, 0xc0, 0xbe, 0x59, 0x55, 0xde, 0x3d,
  0x5e, 0xd2, 0x15, 0xbd, 0x3d, 0x53, 0x73, 0xbf, 0x26, 0xb4, 0x76, 0x3e,
  0x87, 0x94, 0xa2, 0x3e, 0x75, 0xe9, 0x02, 0xbd, 0x46, 0xd6, 0x1d, 0x3e,
  0x69, 0x77, 0x07, 0xbe, 0x10, 0x18, 0x9c, 0xbe, 0xb2, 0x3b, 0xbd, 0x3e,
  0xea, 0x46, 0x51, 0x3e, 0xd9, 0x19, 0x8a, 0xbe, 0x53, 0xd0, 0x48, 0x3d,
  0x8f, 0x3a, 0x11, 0x3f, 0x5b, 0x5a, 0xd5, 0xbd, 0xe1, 0x09, 0x20, 0x3f,
  0x79, 0x50, 0x3b, 0x3f, 0x85, 0xc2, 0x00, 0xbf, 0xcb, 0xbb, 0xb4, 0xbe,
  0x92, 0xf9, 0x49, 0x3e, 0x58, 0xdb, 0xad, 0xbe, 0xc6, 0x7d, 0xa1, 0xbe,
  0x2c, 0x8a, 0xa0, 0x3e, 0x29, 0xae, 0xc5, 0x3e, 0x64, 0x16, 0x36, 0x3e,
  0xb9, 0x66, 0x12, 0x3f, 0xa6, 0x00, 0xbc, 0xbd, 0xf2, 0xcf, 0x49, 0x3e,
  0xf7, 0x5a, 0xad, 0x3e, 0x95, 0xd2, 0x42, 0x3e, 0xe5, 0xe3, 0x4e, 0x3e,
  0xa6, 0xb1, 0x16, 0xbf, 0x18, 0x29, 0x03, 0xbe, 0xd7, 0x48, 0x18, 0x3e,
  0x1d, 0xd5, 0x44, 0xbe, 0x1e, 0x56, 0x4c, 0x3e, 0x9f, 0x55, 0xbc, 0x3e,
  0xb1, 0x2f, 0xa1, 0xbd, 0xde, 0x59, 0xbe, 0x3d, 0xf0, 0x77, 0x59, 0xbd,
  0xf6, 0x70, 0x17, 0xbf, 0x35, 0xe0, 0xb9, 0xbe, 0x1c, 0x43, 0xa9, 0x3e,
  0xed, 0x67, 0x94, 0x3e, 0x13, 0x10, 0xce, 0xbe, 0x43, 0x81, 0xb3, 0x3e,
  0x6d, 0x2e, 0x31, 0xbf, 0xa7, 0x72, 0x03, 0xbd, 0x41, 0x45, 0x67, 0xbf,
  0x25, 0x84, 0xfd, 0xbc, 0xe5, 0xd2, 0x7b, 0x3d, 0x66, 0x88, 0x26, 0xbe,
  0x2b, 0x2e, 0xb8, 0x3e, 0x3b, 0xf2, 0x0e, 0x3f, 0x09, 0x81, 0xe2, 0xbe,
  0xe3, 0xfb, 0x76, 0xbe, 0xa1, 0x52, 0xe0, 0x3e, 0x27, 0x8b, 0xfb, 0xbe,
  0xd5, 0x37, 0x6e, 0x3e, 0x0b, 0xdb, 0xb1, 0x3e, 0x0c, 0x01, 0xbd, 0x3e,
  0xa3, 0xfe, 0x9a, 0xbd, 0x86, 0x0f, 0x0a, 0x3e, 0x0a, 0x15, 0xcc, 0x3e,
  0x12, 0x01, 0xcb, 0x3e, 0xcd, 0x91, 0xb8, 0xbd, 0xde, 0x78, 0xa2, 0x3e,
  0x23, 0x55, 0x9e, 0x3e, 0x6d, 0xe6, 0x79, 0xbb, 0xde, 0xad, 0x4c, 0xbf,
  0x7a, 0x28, 0x7e, 0x3e, 0x38, 0x08, 0xd7, 0x3d, 0xa9, 0xef, 0xe4, 0x3e,
  0x7e, 0xac, 0x96, 0xbe, 0x01, 0xa9, 0x4f, 0x3c, 0xac, 0xe5, 0x9d, 0x3d,
  0x5e, 0x87, 0xf5, 0xbe, 0xcb, 0xdd, 0x70, 0x3e, 0x2a, 0x1f, 0x9f, 0xbf,
  0xe0, 0xcb, 0xae, 0xbe, 0x31, 0xc4, 0x60, 0xbf, 0x3e, 0x55, 0x02, 0x3f,
  0xc3, 0x76, 0xfe, 0x3e, 0x96, 0x61, 0x8c, 0xbf, 0xa3, 0x09, 0xe5, 0x3e,
  0x9f, 0xf5, 0x0b, 0x3e, 0x7f, 0x49, 0x16, 0x3e, 0xff, 0x1a, 0xac, 0x3d,
  0x0e, 0xfb, 0x38, 0x3f, 0xba, 0x05, 0x1b, 0xbb, 0x53, 0x29, 0x10, 0x3e,
  0x7d, 0xf5, 0xd0, 0x3e, 0x05, 0xc8, 0x25, 0x3f, 0xcc, 0x85, 0x88, 0x3e,
  0x54, 0xb0, 0x89, 0xbe, 0xa2, 0x48, 0xf8, 0xbd, 0x63, 0x27, 0x0d, 0x3f,
  0x1b, 0x0a, 0x54, 0xbf, 0x3a, 0x58, 0xde, 0xbe, 0x08, 0xe8, 0x11, 0x3d,
  0xcc, 0x5b, 0x3a, 0xbf, 0xca, 0x89, 0x48, 0xbf, 0xd1, 0x61, 0x53, 0xbe,
  0x00, 0xd4, 0xc9, 0xb9, 0x54, 0xf2, 0x5e, 0x3e, 0xe1, 0xdb, 0xbe, 0xbe,
  0x37, 0x69, 0xba, 0xbe, 0x0e, 0x57, 0x75, 0xbe, 0x8f, 0xa7, 0xa6, 0xbe,
  0x9c, 0xc2, 0x9a, 0x3e, 0x0c, 0x8b, 0x07, 0xbe, 0xfa, 0x6c, 0x1d, 0xbe,
  0x87, 0x2b, 0xd0, 0x3d, 0x12, 0x68, 0xd4, 0xbd, 0xe9, 0x56, 0xa8, 0xbe,
  0x98, 0xfa, 0x1d, 0xbd, 0x73, 0x62, 0xaf, 0xbe, 0xb5, 0x18, 0x72, 0x3c,
  0xd6, 0x24, 0x0a, 0xbe, 0x17, 0x36, 0x80, 0xbd, 0x48, 0x78, 0x8d, 0x3e,
  0xc7, 0x85, 0x7d, 0x3e, 0xad, 0x61, 0xe3, 0xbc, 0x9e, 0xc6, 0xc6, 0x3d,
  0x69, 0x4e, 0x99, 0xbe, 0x7d, 0x27, 0x61, 0xbe, 0xf8, 0x75, 0x8c, 0x3d,
  0x8e, 0xd1, 0x45, 0x3e, 0x7c, 0x3c, 0xb1, 0x3d, 0x20, 0xd1, 0x8e, 0x3e,
  0xc1, 0x76, 0x05, 0x3e, 0x00, 0xd0, 0x16, 0xba, 0x06, 0x1b, 0xff, 0xbd,
  0x05, 0x07, 0x70, 0x3d, 0x19, 0x3f, 0xe5, 0x3d, 0x7a, 0x10, 0x2d, 0x3e,
  0x0a, 0x18, 0xca, 0x3d, 0x1e, 0xfc, 0xff, 0xff, 0x04, 0x00, 0x00, 0x00,
  0x40, 0x03, 0x00, 0x00, 0xaf, 0xd8, 0xaf, 0x3e, 0x2e, 0x3e, 0xb0, 0xbd,
  0x1b, 0xfa, 0x4f, 0x3f, 0x2e, 0xc4, 0xd1, 0xbb, 0x2b, 0x60, 0xd2, 0xbe,
  0x1a, 0x69, 0xfc, 0x3e, 0xf7, 0x75, 0x85, 0x3d, 0xa3, 0x6f, 0x9d, 0x3e,
  0x78, 0xbc, 0x9f, 0xbe, 0xd3, 0x10, 0xe8, 0xbc, 0xd7, 0x07, 0xe9, 0xbb,
  0xbc, 0x6d, 0xc0, 0x3e, 0xe7, 0xe9, 0x11, 0x3e, 0x78, 0x8f, 0xea, 0x3e,
  0x1e, 0x49, 0xa8, 0x3e, 0xa8, 0xbf, 0x17, 0x3c, 0xea, 0x0a, 0xc2, 0xbb,
  0xa1, 0xb0, 0x77, 0x3e, 0xb9, 0x73, 0x55, 0x3f, 0xa5, 0xf9, 0x18, 0x3f,
  0x98, 0xe9, 0x82, 0x3e, 0xa3, 0x5a, 0xdf, 0x3e, 0xbb, 0xd0, 0xf3, 0x3e,
  0x63, 0x2c, 0x1b, 0xbf, 0x8a, 0xdd, 0x59, 0x3e, 0x81, 0xd9, 0x82, 0xbf,
  0xc6, 0x9f, 0xa8, 0x3e, 0x4f, 0x76, 0x7e, 0xbf, 0x41, 0x60, 0x21, 0xbe,
  0x1b, 0x28, 0xa1, 0xbc, 0x68, 0x06, 0x52, 0xbf, 0x56, 0x56, 0xc3, 0xbe,
  0x60, 0x60, 0x39, 0xbf, 0x5e, 0x8e, 0x4e, 0x3d, 0x66, 0xf7, 0x0b, 0xbe,
  0xbb, 0x6c, 0xf4, 0x3d, 0x75, 0x04, 0xd4, 0x3c, 0x61, 0x52, 0x0e, 0x3f,
  0x2e, 0xcf, 0x32, 0x3f, 0x5d, 0xea, 0xba, 0xbe, 0x56, 0x5e, 0x7a, 0x3e,
  0x40, 0x49, 0xc4, 0xbe, 0x95, 0x37, 0x27, 0xbf, 0x60, 0x76, 0x13, 0xbc,
  0xc8, 0x5d, 0x2c, 0xbe, 0xbf, 0x52, 0x2e, 0xbe, 0x55, 0x7d, 0xac, 0x3e,
  0xf7, 0x92, 0xe8, 0xbe, 0x2b, 0x9e, 0xb8, 0xbf, 0x2d, 0x67, 0x34, 0x3d,
  0xcd, 0x3d, 0xe0, 0xbf, 0xff, 0x10, 0x17, 0x3e, 0xed, 0xee, 0xb2, 0xbd,
  0xc3, 0x2e, 0x19, 0x3d, 0x05, 0xac, 0xba, 0x3d, 0xfd, 0x35, 0xae, 0xbe,
  0xb7, 0x2b, 0xe5, 0x3e, 0xcb, 0xaa, 0xb5, 0x3e, 0x36, 0x64, 0x18, 0xbe,
  0xbc, 0xc5, 0x8f, 0x3e, 0xf9, 0x8c, 0x58, 0x3e, 0xbf, 0x89, 0x1d, 0xbe,
  0x29, 0x8b, 0x26, 0xbe, 0x3f, 0x9b, 0x52, 0x3e, 0x49, 0x7f, 0x9a, 0xbf,
  0xfc, 0x3b, 0xeb, 0xbe, 0xb1, 0x67, 0x17, 0xbf, 0xf8, 0xa7, 0x31, 0x3e,
  0xfe, 0x76, 0x01, 0xbf, 0x57, 0x42, 0x07, 0xbf, 0x87, 0xec, 0xd1, 0x3e,
  0x9a, 0xac, 0x1a, 0xbe, 0x8f, 0x6d, 0xc6, 0x3e, 0x12, 0xc3, 0x1e, 0x3f,
  0xfe, 0xf3, 0x2e, 0xbf, 0x58, 0x93, 0xb3, 0x3e, 0xcc, 0x44, 0xf0, 0xbc,
  0x45, 0x5c, 0x8e, 0x3e, 0xd0, 0x8d, 0x84, 0xbe, 0x5a, 0x5a, 0xfc, 0x3d,
  0xc6, 0xcc, 0xf2, 0xbe, 0x0a, 0x68, 0x17, 0x3c, 0x1f, 0x8f, 0xb8, 0xbf,
  0x3a, 0xfd, 0x30, 0xbe, 0xe0, 0x8c, 0x8d, 0xbf, 0x46, 0x92, 0x04, 0xc0,
  0xba, 0x39, 0x22, 0x3f, 0x45, 0x93, 0xdd, 0xbe, 0x82, 0x39, 0xb7, 0x3e,
  0x74, 0x7b, 0x3c, 0x3f, 0x4c, 0xb2, 0x17, 0xc0, 0xeb, 0x10, 0x35, 0xbe,
  0x75, 0xed, 0x3e, 0x3e, 0x5d, 0x80, 0xa2, 0xbd, 0xd7, 0xed, 0x26, 0x3f,
  0x58, 0x15, 0xfa, 0xbc, 0x61, 0x93, 0x51, 0x3c, 0x2e, 0xc2, 0xe1, 0xbe,
  0x16, 0xb5, 0x0e, 0xbf, 0x71, 0x17, 0x52, 0x3e, 0x3a, 0x85, 0x90, 0x3d,
  0xe6, 0xe8, 0x3f, 0xbf, 0xdd, 0x5a, 0xaf, 0xbe, 0x26, 0x4d, 0x75, 0x3e,
  0xd8, 0xb5, 0x8f, 0xbe, 0xe3, 0xde, 0xb5, 0x3e, 0x06, 0x27, 0x1f, 0x3f,
  0x15, 0x43, 0x80, 0x3d, 0x68, 0xf1, 0x75, 0xbe, 0x0d, 0x3d, 0x82, 0xbe,
  0x9d, 0xcf, 0x1d, 0x3d, 0xab, 0xfd, 0xc6, 0xbe, 0x92, 0xc8, 0x16, 0xbf,
  0x4e, 0xb7, 0xcb, 0x3d, 0x31, 0xf8, 0xe7, 0xbf, 0x9a, 0xc7, 0x8f, 0x3e,
  0x74, 0xc9, 0x54, 0xbe, 0xf5, 0x75, 0x0f, 0xbf, 0x30, 0x26, 0x9d, 0xbe,
  0xb8, 0x4e, 0xce, 0x3e, 0xcf, 0x5a, 0x2c, 0xbd, 0x53, 0x40, 0xf7, 0x3d,
  0x5b, 0xb4, 0x7d, 0xbe, 0xf1, 0xcb, 0x4c, 0xbd, 0x56, 0xf2, 0x98, 0x3e,
  0x21, 0x7f, 0x01, 0x3f, 0xc7, 0x90, 0x8a, 0xbe, 0x10, 0xdd, 0xbe, 0xbe,
  0xe6, 0xae, 0x56, 0x3f, 0xd8, 0x96, 0x41, 0x3e, 0xd9, 0xaf, 0x66, 0xbf,
  0x7c, 0x86, 0x84, 0xbe, 0x35, 0x12, 0x75, 0x3e, 0xed, 0x12, 0xb3, 0x3e,
  0x93, 0x75, 0xda, 0xbe, 0x3c, 0xb1, 0xd0, 0xbe, 0xe2, 0x11, 0xb9, 0x3e,
  0x47, 0x11, 0x04, 0xbe, 0xc4, 0x12, 0x08, 0x3f, 0xda, 0x8d, 0xca, 0xbe,
  0xd4, 0xac, 0x40, 0xbf, 0xaf, 0xcf, 0xbc, 0x3e, 0x57, 0x69, 0xea, 0x3e,
  0x4f, 0x87, 0x83, 0x3e, 0x0e, 0xb3, 0x7b, 0x3f, 0xcc, 0xfd, 0x98, 0xbe,
  0x87, 0xf9, 0x18, 0xbf, 0x3b, 0x98, 0x02, 0x3f, 0x9c, 0x45, 0x23, 0xbe,
  0xce, 0x8b, 0x2f, 0x3e, 0x3a, 0x50, 0x8c, 0xbf, 0x1c, 0x38, 0x27, 0x3e,
  0x47, 0x15, 0x59, 0x3e, 0x81, 0x3d, 0xe3, 0xbe, 0x24, 0xb4, 0xd1, 0x3e,
  0xf7, 0xbb, 0x4b, 0x3d, 0xdc, 0x1f, 0xcd, 0xbe, 0x57, 0x27, 0x8f, 0x3e,
  0xf9, 0x7d, 0xeb, 0x3d, 0x48, 0xca, 0xed, 0xbd, 0x15, 0xf2, 0x8f, 0xbe,
  0x38, 0x07, 0x68, 0x3d, 0xeb, 0xbe, 0xfc, 0x3e, 0x1d, 0x47, 0x4a, 0xbf,
  0x3e, 0x70, 0xab, 0x3e, 0x94, 0xa5, 0x17, 0x3f, 0x4c, 0x3a, 0xb9, 0xbf,
  0x8e, 0x7e, 0x8f, 0xbe, 0x0b, 0x0d, 0xa4, 0x3e, 0x4a, 0x08, 0xbb, 0xbf,
  0x4a, 0xef, 0x3d, 0x3f, 0x52, 0xeb, 0x1b, 0xbd, 0x1c, 0x73, 0x8e, 0xbe,
  0x90, 0xb3, 0xb9, 0xbf, 0xb3, 0xf5, 0x22, 0xbf, 0xdd, 0x7c, 0x76, 0xbe,
  0xce, 0x02, 0x10, 0xc0, 0x08, 0xa7, 0x37, 0xbc, 0xc9, 0xbd, 0x0f, 0xbf,
  0x47, 0x75, 0xd6, 0xbf, 0x19, 0xa7, 0x2b, 0x3f, 0x1e, 0x9f, 0xa4, 0x3d,
  0xbc, 0x36, 0x92, 0xbf, 0xbf, 0x49, 0x17, 0x3e, 0xde, 0x05, 0xe1, 0xbd,
  0x25, 0xdf, 0x8c, 0xbf, 0xa9, 0xff, 0xc3, 0x3e, 0xbe, 0x3c, 0x76, 0x3e,
  0x79, 0x94, 0x0d, 0x3f, 0x85, 0xed, 0xc9, 0xbf, 0x8f, 0xc3, 0x04, 0xbf,
  0x22, 0xc5, 0xcb, 0xbe, 0x90, 0x7c, 0x09, 0xc0, 0x0d, 0x43, 0xbb, 0xbe,
  0x6d, 0xc8, 0xe2, 0x3d, 0xf1, 0x40, 0xe9, 0xbf, 0x87, 0xbc, 0x31, 0xbe,
  0xd6, 0xf1, 0x05, 0x3e, 0xa7, 0x7d, 0x46, 0x3f, 0x17, 0xa8, 0x97, 0x3e,
  0xa8, 0x6d, 0xc2, 0xbe, 0xc7, 0xd7, 0xd4, 0xbe, 0x4a, 0x57, 0x53, 0x3d,
  0xf7, 0x99, 0xea, 0x3e, 0xc4, 0xf7, 0x63, 0x3e, 0x46, 0x39, 0x93, 0xbf,
  0x05, 0x2c, 0xad, 0xbf, 0xcd, 0x07, 0xa3, 0xbe, 0xa4, 0xf8, 0xff, 0xff,
  0xa8, 0xf8, 0xff, 0xff, 0x0f, 0x00, 0x00, 0x00, 0x4d, 0x4c, 0x49, 0x52,
  0x20, 0x43, 0x6f, 0x6e, 0x76, 0x65, 0x72, 0x74, 0x65, 0x64, 0x2e, 0x00,
  0x01, 0x00, 0x00, 0x00, 0x14, 0x00, 0x00, 0x00, 0x00, 0x00, 0x0e, 0x00,
  0x18, 0x00, 0x14, 0x00, 0x10, 0x00, 0x0c, 0x00, 0x08, 0x00, 0x04, 0x00,
  0x0e, 0x00, 0x00, 0x00, 0x14, 0x00, 0x00, 0x00, 0x1c, 0x00, 0x00, 0x00,
  0x30, 0x01, 0x00, 0x00, 0x34, 0x01, 0x00, 0x00, 0x38, 0x01, 0x00, 0x00,
  0x04, 0x00, 0x00, 0x00, 0x6d, 0x61, 0x69, 0x6e, 0x00, 0x00, 0x00, 0x00,
  0x04, 0x00, 0x00, 0x00, 0xd4, 0x00, 0x00, 0x00, 0x84, 0x00, 0x00, 0x00,
  0x50, 0x00, 0x00, 0x00, 0x14, 0x00, 0x00, 0x00, 0x00, 0x00, 0x0e, 0x00,
  0x1a, 0x00, 0x14, 0x00, 0x10, 0x00, 0x0c, 0x00, 0x0b, 0x00, 0x04, 0x00,
  0x0e, 0x00, 0x00, 0x00, 0x1c, 0x00, 0x00, 0x00, 0x00, 0x00, 0x00, 0x09,
  0x1c, 0x00, 0x00, 0x00, 0x20, 0x00, 0x00, 0x00, 0x01, 0x00, 0x00, 0x00,
  0x00, 0x00, 0x06, 0x00, 0x08, 0x00, 0x04, 0x00, 0x06, 0x00, 0x00, 0x00,
  0x00, 0x00, 0x80, 0x3f, 0x01, 0x00, 0x00, 0x00, 0x0a, 0x00, 0x00, 0x00,
  0x01, 0x00, 0x00, 0x00, 0x09, 0x00, 0x00, 0x00, 0x92, 0xff, 0xff, 0xff,
  0x10, 0x00, 0x00, 0x00, 0x00, 0x00, 0x00, 0x08, 0x0c, 0x00, 0x00, 0x00,
  0x10, 0x00, 0x00, 0x00, 0x6c, 0xf9, 0xff, 0xff, 0x01, 0x00, 0x00, 0x00,
  0x09, 0x00, 0x00, 0x00, 0x03, 0x00, 0x00, 0x00, 0x08, 0x00, 0x00, 0x00,
  0x01, 0x00, 0x00, 0x00, 0x03, 0x00, 0x00, 0x00, 0xc2, 0xff, 0xff, 0xff,
  0x18, 0x00, 0x00, 0x00, 0x00, 0x00, 0x00, 0x08, 0x18, 0x00, 0x00, 0x00,
  0x1c, 0x00, 0x00, 0x00, 0x00, 0x00, 0x06, 0x00, 0x08, 0x00, 0x07, 0x00,
  0x06, 0x00, 0x00, 0x00, 0x00, 0x00, 0x00, 0x01, 0x01, 0x00, 0x00, 0x00,
  0x08, 0x00, 0x00, 0x00, 0x03, 0x00, 0x00, 0x00, 0x07, 0x00, 0x00, 0x00,
  0x02, 0x00, 0x00, 0x00, 0x04, 0x00, 0x00, 0x00, 0x00, 0x00, 0x0e, 0x00,
  0x14, 0x00, 0x00, 0x00, 0x10, 0x00, 0x0c, 0x00, 0x0b, 0x00, 0x04, 0x00,
  0x0e, 0x00, 0x00, 0x00, 0x1c, 0x00, 0x00, 0x00, 0x00, 0x00, 0x00, 0x08,
  0x1c, 0x00, 0x00, 0x00, 0x20, 0x00, 0x00, 0x00, 0x0c, 0x00, 0x08, 0x00,
  0x07, 0x00, 0x00, 0x00, 0x00, 0x00, 0x06, 0x00, 0x0c, 0x00, 0x00, 0x00,
  0x00, 0x00, 0x01, 0x01, 0x01, 0x00, 0x00, 0x00, 0x07, 0x00, 0x00, 0x00,
  0x03, 0x00, 0x00, 0x00, 0x00, 0x00, 0x00, 0x00, 0x06, 0x00, 0x00, 0x00,
  0x05, 0x00, 0x00, 0x00, 0x01, 0x00, 0x00, 0x00, 0x0a, 0x00, 0x00, 0x00,
  0x01, 0x00, 0x00, 0x00, 0x00, 0x00, 0x00, 0x00, 0x0b, 0x00, 0x00, 0x00,
  0xb0, 0x05, 0x00, 0x00, 0x58, 0x05, 0x00, 0x00, 0x00, 0x05, 0x00, 0x00,
  0xc4, 0x04, 0x00, 0x00, 0x88, 0x04, 0x00, 0x00, 0x2c, 0x04, 0x00, 0x00,
  0x3c, 0x02, 0x00, 0x00, 0x84, 0x01, 0x00, 0x00, 0xe4, 0x00, 0x00, 0x00,
  0x60, 0x00, 0x00, 0x00, 0x04, 0x00, 0x00, 0x00, 0x92, 0xfa, 0xff, 0xff,
  0x00, 0x00, 0x00, 0x01, 0x14, 0x00, 0x00, 0x00, 0x1c, 0x00, 0x00, 0x00,
  0x1c, 0x00, 0x00, 0x00, 0x0b, 0x00, 0x00, 0x00, 0x34, 0x00, 0x00, 0x00,
  0x02, 0x00, 0x00, 0x00, 0xff, 0xff, 0xff, 0xff, 0x0d, 0x00, 0x00, 0x00,
  0x7c, 0xfa, 0xff, 0xff, 0x1b, 0x00, 0x00, 0x00, 0x53, 0x74, 0x61, 0x74,
  0x65, 0x66, 0x75, 0x6c, 0x50, 0x61, 0x72, 0x74, 0x69, 0x74, 0x69, 0x6f,
  0x6e, 0x65, 0x64, 0x43, 0x61, 0x6c, 0x6c, 0x5f, 0x31, 0x3a, 0x30, 0x00,
  0x02, 0x00, 0x00, 0x00, 0x01, 0x00, 0x00, 0x00, 0x0d, 0x00, 0x00, 0x00,
  0xea, 0xfa, 0xff, 0xff, 0x00, 0x00, 0x00, 0x01, 0x14, 0x00, 0x00, 0x00,
  0x1c, 0x00, 0x00, 0x00, 0x1c, 0x00, 0x00, 0x00, 0x0a, 0x00, 0x00, 0x00,
  0x5c, 0x00, 0x00, 0x00, 0x02, 0x00, 0x00, 0x00, 0xff, 0xff, 0xff, 0xff,
  0x0d, 0x00, 0x00, 0x00, 0xd4, 0xfa, 0xff, 0xff, 0x40, 0x00, 0x00, 0x00,
  0x73, 0x65, 0x71, 0x75, 0x65, 0x6e, 0x74, 0x69, 0x61, 0x6c, 0x5f, 0x31,
  0x5f, 0x31, 0x2f, 0x64, 0x65, 0x6e, 0x73, 0x65, 0x5f, 0x35, 0x5f, 0x31,
  0x2f, 0x4d, 0x61, 0x74, 0x4d, 0x75, 0x6c, 0x3b, 0x73, 0x65, 0x71, 0x75,
  0x65, 0x6e, 0x74, 0x69, 0x61, 0x6c, 0x5f, 0x31, 0x5f, 0x31, 0x2f, 0x64,
  0x65, 0x6e, 0x73, 0x65, 0x5f, 0x35, 0x5f, 0x31, 0x2f, 0x42, 0x69, 0x61,
  0x73, 0x41, 0x64, 0x64, 0x00, 0x00, 0x00, 0x00, 0x02, 0x00, 0x00, 0x00,
  0x01, 0x00, 0x00, 0x00, 0x0d, 0x00, 0x00, 0x00, 0x6a, 0xfb, 0xff, 0xff,
  0x00, 0x00, 0x00, 0x01, 0x14, 0x00, 0x00, 0x00, 0x1c, 0x00, 0x00, 0x00,
  0x1c, 0x00, 0x00, 0x00, 0x09, 0x00, 0x00, 0x00, 0x78, 0x00, 0x00, 0x00,
  0x02, 0x00, 0x00, 0x00, 0xff, 0xff, 0xff, 0xff, 0x10, 0x00, 0x00, 0x00,
  0x54, 0xfb, 0xff, 0xff, 0x5e, 0x00, 0x00, 0x00, 0x73, 0x65, 0x71, 0x75,
  0x65, 0x6e, 0x74, 0x69, 0x61, 0x6c, 0x5f, 0x31, 0x5f, 0x31, 0x2f, 0x64,
  0x65, 0x6e, 0x73, 0x65, 0x5f, 0x34, 0x5f, 0x31, 0x2f, 0x4d, 0x61, 0x74,
  0x4d, 0x75, 0x6c, 0x3b, 0x73, 0x65, 0x71, 0x75, 0x65, 0x6e, 0x74, 0x69,
  0x61, 0x6c, 0x5f, 0x31, 0x5f, 0x31, 0x2f, 0x64, 0x65, 0x6e, 0x73, 0x65,
  0x5f, 0x34, 0x5f, 0x31, 0x2f, 0x52, 0x65, 0x6c, 0x75, 0x3b, 0x73, 0x65,
  0x71, 0x75, 0x65, 0x6e, 0x74, 0x69, 0x61, 0x6c, 0x5f, 0x31, 0x5f, 0x31,
  0x2f, 0x64, 0x65, 0x6e, 0x73, 0x65, 0x5f, 0x34, 0x5f, 0x31, 0x2f, 0x42,
  0x69, 0x61, 0x73, 0x41, 0x64, 0x64, 0x00, 0x00, 0x02, 0x00, 0x00, 0x00,
  0x01, 0x00, 0x00, 0x00, 0x10, 0x00, 0x00, 0x00, 0x06, 0xfc, 0xff, 0xff,
  0x00, 0x00, 0x00, 0x01, 0x14, 0x00, 0x00, 0x00, 0x1c, 0x00, 0x00, 0x00,
  0x1c, 0x00, 0x00, 0x00, 0x08, 0x00, 0x00, 0x00, 0x78, 0x00, 0x00, 0x00,
  0x02, 0x00, 0x00, 0x00, 0xff, 0xff, 0xff, 0xff, 0x20, 0x00, 0x00, 0x00,
  0xf0, 0xfb, 0xff, 0xff, 0x5e, 0x00, 0x00, 0x00, 0x73, 0x65, 0x71, 0x75,
  0x65, 0x6e, 0x74, 0x69, 0x61, 0x6c, 0x5f, 0x31, 0x5f, 0x31, 0x2f, 0x64,
  0x65, 0x6e, 0x73, 0x65, 0x5f, 0x33, 0x5f, 0x31, 0x2f, 0x4d, 0x61, 0x74,
  0x4d, 0x75, 0x6c, 0x3b, 0x73, 0x65, 0x71, 0x75, 0x65, 0x6e, 0x74, 0x69,
  0x61, 0x6c, 0x5f, 0x31, 0x5f, 0x31, 0x2f, 0x64, 0x65, 0x6e, 0x73, 0x65,
  0x5f, 0x33, 0x5f, 0x31, 0x2f, 0x52, 0x65, 0x6c, 0x75, 0x3b, 0x73, 0x65,
  0x71, 0x75, 0x65, 0x6e, 0x74, 0x69, 0x61, 0x6c, 0x5f, 0x31, 0x5f, 0x31,
  0x2f, 0x64, 0x65, 0x6e, 0x73, 0x65, 0x5f, 0x33, 0x5f, 0x31, 0x2f, 0x42,
  0x69, 0x61, 0x73, 0x41, 0x64, 0x64, 0x00, 0x00, 0x02, 0x00, 0x00, 0x00,
  0x01, 0x00, 0x00, 0x00, 0x20, 0x00, 0x00, 0x00, 0x00, 0x00, 0x16, 0x00,
  0x1c, 0x00, 0x18, 0x00, 0x17, 0x00, 0x10, 0x00, 0x0c, 0x00, 0x08, 0x00,
  0x00, 0x00, 0x00, 0x00, 0x00, 0x00, 0x07, 0x00, 0x16, 0x00, 0x00, 0x00,
  0x00, 0x00, 0x00, 0x01, 0x20, 0x00, 0x00, 0x00, 0xb0, 0x01, 0x00, 0x00,
  0x07, 0x00, 0x00, 0x00, 0x00, 0x00, 0x00, 0x09, 0xc8, 0x01, 0x00, 0x00,
  0x0c, 0x00, 0x0c, 0x00, 0x00, 0x00, 0x00, 0x00, 0x08, 0x00, 0x04, 0x00,
  0x0c, 0x00, 0x00, 0x00, 0x08, 0x00, 0x00, 0x00, 0x08, 0x01, 0x00, 0x00,
  0x20, 0x00, 0x00, 0x00, 0x00, 0x00, 0x00, 0x00, 0x00, 0x00, 0x00, 0x00,
  0x00, 0x00, 0x00, 0x00, 0x00, 0x00, 0x00, 0x00, 0x00, 0x00, 0x00, 0x00,
  0x00, 0x00, 0x00, 0x00, 0x00, 0x00, 0x00, 0x00, 0x00, 0x00, 0x00, 0x00,
  0x00, 0x00, 0x00, 0x00, 0x00, 0x00, 0x00, 0x00, 0x00, 0x00, 0x00, 0x00,
  0x00, 0x00, 0x00, 0x00, 0x00, 0x00, 0x00, 0x00, 0x00, 0x00, 0x00, 0x00,
  0x00, 0x00, 0x00, 0x00, 0x00, 0x00, 0x00, 0x00, 0x00, 0x00, 0x00, 0x00,
  0x00, 0x00, 0x00, 0x00, 0x00, 0x00, 0x00, 0x00, 0x00, 0x00, 0x00, 0x00,
  0x00, 0x00, 0x00, 0x00, 0x00, 0x00, 0x00, 0x00, 0x00, 0x00, 0x00, 0x00,
  0x00, 0x00, 0x00, 0x00, 0x00, 0x00, 0x00, 0x00, 0x00, 0x00, 0x00, 0x00,
  0x00, 0x00, 0x00, 0x00, 0x00, 0x00, 0x00, 0x00, 0x00, 0x00, 0x00, 0x00,
  0x00, 0x00, 0x00, 0x00, 0x00, 0x00, 0x00, 0x00, 0x00, 0x00, 0x00, 0x00,
  0x00, 0x00, 0x00, 0x00, 0x00, 0x00, 0x00, 0x00, 0x00, 0x00, 0x00, 0x00,
  0x00, 0x00, 0x00, 0x00, 0x00, 0x00, 0x00, 0x00, 0x00, 0x00, 0x00, 0x00,
  0x00, 0x00, 0x00, 0x00, 0x00, 0x00, 0x00, 0x00, 0x00, 0x00, 0x00, 0x00,
  0x00, 0x00, 0x00, 0x00, 0x00, 0x00, 0x00, 0x00, 0x00, 0x00, 0x00, 0x00,
  0x00, 0x00, 0x00, 0x00, 0x00, 0x00, 0x00, 0x00, 0x00, 0x00, 0x00, 0x00,
  0x00, 0x00, 0x00, 0x00, 0x00, 0x00, 0x00, 0x00, 0x00, 0x00, 0x00, 0x00,
  0x00, 0x00, 0x00, 0x00, 0x00, 0x00, 0x00, 0x00, 0x00, 0x00, 0x00, 0x00,
  0x00, 0x00, 0x00, 0x00, 0x00, 0x00, 0x00, 0x00, 0x00, 0x00, 0x00, 0x00,
  0x00, 0x00, 0x00, 0x00, 0x00, 0x00, 0x00, 0x00, 0x00, 0x00, 0x00, 0x00,
  0x00, 0x00, 0x00, 0x00, 0x00, 0x00, 0x00, 0x00, 0x00, 0x00, 0x00, 0x00,
  0x00, 0x00, 0x00, 0x00, 0x00, 0x00, 0x00, 0x00, 0x20, 0x00, 0x00, 0x00,
  0xa1, 0x2a, 0xce, 0x3b, 0x2b, 0x1a, 0x81, 0x3b, 0x6f, 0xaf, 0xf5, 0x3a,
  0xf6, 0x53, 0xed, 0x3b, 0x47, 0x14, 0xae, 0x3b, 0xf7, 0xc7, 0xf4, 0x3b,
  0x5d, 0x5b, 0xcb, 0x3b, 0x46, 0xd2, 0xd3, 0x3b, 0xf5, 0x21, 0xb4, 0x3b,
  0x6b, 0x15, 0x29, 0x3c, 0x31, 0x32, 0xa0, 0x3b, 0xb2, 0x3a, 0xbb, 0x3b,
  0x24, 0xd3, 0x86, 0x3b, 0x35, 0x06, 0xb9, 0x3b, 0xba, 0x2f, 0x3a, 0x3b,
  0x8b, 0xef, 0x55, 0x3b, 0x6b, 0x23, 0x92, 0x3b, 0xb9, 0x0b, 0xa1, 0x3b,
  0xab, 0xa8, 0x8c, 0x3b, 0xb6, 0xa6, 0x80, 0x3b, 0xbc, 0x62, 0x45, 0x3b,
  0xba, 0xbd, 0x19, 0x3b, 0x32, 0x38, 0xbb, 0x3b, 0x4a, 0x53, 0x64, 0x3b,
  0x89, 0xa6, 0xdc, 0x3b, 0xf0, 0xde, 0xef, 0x3b, 0xd1, 0x62, 0x09, 0x3b,
  0x20, 0xc5, 0xae, 0x3b, 0xcd, 0xf8, 0xda, 0x3b, 0x8b, 0x6f, 0xb0, 0x3b,
  0x4d, 0x45, 0x09, 0x3b, 0x19, 0x35, 0xa6, 0x3b, 0x1f, 0x00, 0x00, 0x00,
  0x73, 0x65, 0x71, 0x75, 0x65, 0x6e, 0x74, 0x69, 0x61, 0x6c, 0x5f, 0x31,
  0x5f, 0x31, 0x2f, 0x64, 0x65, 0x6e, 0x73, 0x65, 0x5f, 0x33, 0x5f, 0x31,
  0x2f, 0x4d, 0x61, 0x74, 0x4d, 0x75, 0x6c, 0x00, 0x02, 0x00, 0x00, 0x00,
  0x20, 0x00, 0x00, 0x00, 0x32, 0x00, 0x00, 0x00, 0xfa, 0xfe, 0xff, 0xff,
  0x00, 0x00, 0x00, 0x01, 0x10, 0x00, 0x00, 0x00, 0x10, 0x00, 0x00, 0x00,
  0x06, 0x00, 0x00, 0x00, 0x3c, 0x00, 0x00, 0x00, 0x80, 0xfe, 0xff, 0xff,
  0x2f, 0x00, 0x00, 0x00, 0x73, 0x65, 0x71, 0x75, 0x65, 0x6e, 0x74, 0x69,
  0x61, 0x6c, 0x5f, 0x31, 0x5f, 0x31, 0x2f, 0x64, 0x65, 0x6e, 0x73, 0x65,
  0x5f, 0x33, 0x5f, 0x31, 0x2f, 0x42, 0x69, 0x61, 0x73, 0x41, 0x64, 0x64,
  0x2f, 0x52, 0x65, 0x61, 0x64, 0x56, 0x61, 0x72, 0x69, 0x61, 0x62, 0x6c,
  0x65, 0x4f, 0x70, 0x00, 0x01, 0x00, 0x00, 0x00, 0x20, 0x00, 0x00, 0x00,
  0x52, 0xff, 0xff, 0xff, 0x00, 0x00, 0x00, 0x01, 0x10, 0x00, 0x00, 0x00,
  0x10, 0x00, 0x00, 0x00, 0x05, 0x00, 0x00, 0x00, 0x1c, 0x00, 0x00, 0x00,
  0xd8, 0xfe, 0xff, 0xff, 0x0f, 0x00, 0x00, 0x00, 0x61, 0x72, 0x69, 0x74,
  0x68, 0x2e, 0x63, 0x6f, 0x6e, 0x73, 0x74, 0x61, 0x6e, 0x74, 0x33, 0x00,
  0x01, 0x00, 0x00, 0x00, 0x10, 0x00, 0x00, 0x00, 0x8a, 0xff, 0xff, 0xff,
  0x00, 0x00, 0x00, 0x01, 0x10, 0x00, 0x00, 0x00, 0x10, 0x00, 0x00, 0x00,
  0x04, 0x00, 0x00, 0x00, 0x1c, 0x00, 0x00, 0x00, 0x10, 0xff, 0xff, 0xff,
  0x0f, 0x00, 0x00, 0x00, 0x61, 0x72, 0x69, 0x74, 0x68, 0x2e, 0x63, 0x6f,
  0x6e, 0x73, 0x74, 0x61, 0x6e, 0x74, 0x32, 0x00, 0x01, 0x00, 0x00, 0x00,
  0x0d, 0x00, 0x00, 0x00, 0xc2, 0xff, 0xff, 0xff, 0x00, 0x00, 0x00, 0x01,
  0x10, 0x00, 0x00, 0x00, 0x10, 0x00, 0x00, 0x00, 0x03, 0x00, 0x00, 0x00,
  0x1c, 0x00, 0x00, 0x00, 0x48, 0xff, 0xff, 0xff, 0x0f, 0x00, 0x00, 0x00,
  0x61, 0x72, 0x69, 0x74, 0x68, 0x2e, 0x63, 0x6f, 0x6e, 0x73, 0x74, 0x61,
  0x6e, 0x74, 0x31, 0x00, 0x02, 0x00, 0x00, 0x00, 0x10, 0x00, 0x00, 0x00,
  0x20, 0x00, 0x00, 0x00, 0x00, 0x00, 0x16, 0x00, 0x18, 0x00, 0x14, 0x00,
  0x00, 0x00, 0x10, 0x00, 0x0c, 0x00, 0x08, 0x00, 0x00, 0x00, 0x00, 0x00,
  0x00, 0x00, 0x07, 0x00, 0x16, 0x00, 0x00, 0x00, 0x00, 0x00, 0x00, 0x01,
  0x10, 0x00, 0x00, 0x00, 0x10, 0x00, 0x00, 0x00, 0x02, 0x00, 0x00, 0x00,
  0x1c, 0x00, 0x00, 0x00, 0x9c, 0xff, 0xff, 0xff, 0x0e, 0x00, 0x00, 0x00,
  0x61, 0x72, 0x69, 0x74, 0x68, 0x2e, 0x63, 0x6f, 0x6e, 0x73, 0x74, 0x61,
  0x6e, 0x74, 0x00, 0x00, 0x02, 0x00, 0x00, 0x00, 0x0d, 0x00, 0x00, 0x00,
  0x10, 0x00, 0x00, 0x00, 0x00, 0x00, 0x16, 0x00, 0x1c, 0x00, 0x18, 0x00,
  0x00, 0x00, 0x14, 0x00, 0x10, 0x00, 0x0c, 0x00, 0x00, 0x00, 0x00, 0x00,
  0x08, 0x00, 0x07, 0x00, 0x16, 0x00, 0x00, 0x00, 0x00, 0x00, 0x00, 0x01,
  0x14, 0x00, 0x00, 0x00, 0x20, 0x00, 0x00, 0x00, 0x20, 0x00, 0x00, 0x00,
  0x01, 0x00, 0x00, 0x00, 0x40, 0x00, 0x00, 0x00, 0x02, 0x00, 0x00, 0x00,
  0xff, 0xff, 0xff, 0xff, 0x32, 0x00, 0x00, 0x00, 0x04, 0x00, 0x04, 0x00,
  0x04, 0x00, 0x00, 0x00, 0x20, 0x00, 0x00, 0x00, 0x73, 0x65, 0x72, 0x76,
  0x69, 0x6e, 0x67, 0x5f, 0x64, 0x65, 0x66, 0x61, 0x75, 0x6c, 0x74, 0x5f,
  0x6b, 0x65, 0x72, 0x61, 0x73, 0x5f, 0x74, 0x65, 0x6e, 0x73, 0x6f, 0x72,
  0x5f, 0x34, 0x3a, 0x30, 0x00, 0x00, 0x00, 0x00, 0x02, 0x00, 0x00, 0x00,
  0x01, 0x00, 0x00, 0x00, 0x32, 0x00, 0x00, 0x00, 0x02, 0x00, 0x00, 0x00,
  0x2c, 0x00, 0x00, 0x00, 0x10, 0x00, 0x00, 0x00, 0x0c, 0x00, 0x0c, 0x00,
  0x0b, 0x00, 0x00, 0x00, 0x00, 0x00, 0x04, 0x00, 0x0c, 0x00, 0x00, 0x00,
  0x19, 0x00, 0x00, 0x00, 0x00, 0x00, 0x00, 0x19, 0x0c, 0x00, 0x10, 0x00,
  0x0f, 0x00, 0x00, 0x00, 0x08, 0x00, 0x04, 0x00, 0x0c, 0x00, 0x00, 0x00,
  0x09, 0x00, 0x00, 0x00, 0x0c, 0x00, 0x00, 0x00, 0x00, 0x00, 0x00, 0x09
};
unsigned int emg_model_tflite_len = 7296;
