unsigned char emg_model_tflite[] = {
  0x1c, 0x00, 0x00, 0x00, 0x54, 0x46, 0x4c, 0x33, 0x14, 0x00, 0x20, 0x00,
  0x1c, 0x00, 0x18, 0x00, 0x14, 0x00, 0x10, 0x00, 0x0c, 0x00, 0x00, 0x00,
  0x08, 0x00, 0x04, 0x00, 0x14, 0x00, 0x00, 0x00, 0x1c, 0x00, 0x00, 0x00,
  0x8c, 0x00, 0x00, 0x00, 0xe4, 0x00, 0x00, 0x00, 0xfc, 0x25, 0x00, 0x00,
  0x0c, 0x26, 0x00, 0x00, 0xd0, 0x34, 0x00, 0x00, 0x03, 0x00, 0x00, 0x00,
  0x01, 0x00, 0x00, 0x00, 0x04, 0x00, 0x00, 0x00, 0x82, 0xd7, 0xff, 0xff,
  0x0c, 0x00, 0x00, 0x00, 0x1c, 0x00, 0x00, 0x00, 0x3c, 0x00, 0x00, 0x00,
  0x0f, 0x00, 0x00, 0x00, 0x73, 0x65, 0x72, 0x76, 0x69, 0x6e, 0x67, 0x5f,
  0x64, 0x65, 0x66, 0x61, 0x75, 0x6c, 0x74, 0x00, 0x01, 0x00, 0x00, 0x00,
  0x04, 0x00, 0x00, 0x00, 0x90, 0xff, 0xff, 0xff, 0x1a, 0x00, 0x00, 0x00,
  0x04, 0x00, 0x00, 0x00, 0x08, 0x00, 0x00, 0x00, 0x6f, 0x75, 0x74, 0x70,
  0x75, 0x74, 0x5f, 0x30, 0x00, 0x00, 0x00, 0x00, 0x01, 0x00, 0x00, 0x00,
  0x04, 0x00, 0x00, 0x00, 0xca, 0xd9, 0xff, 0xff, 0x04, 0x00, 0x00, 0x00,
  0x0c, 0x00, 0x00, 0x00, 0x6b, 0x65, 0x72, 0x61, 0x73, 0x5f, 0x74, 0x65,
  0x6e, 0x73, 0x6f, 0x72, 0x00, 0x00, 0x00, 0x00, 0x02, 0x00, 0x00, 0x00,
  0x34, 0x00, 0x00, 0x00, 0x04, 0x00, 0x00, 0x00, 0xdc, 0xff, 0xff, 0xff,
  0x1d, 0x00, 0x00, 0x00, 0x04, 0x00, 0x00, 0x00, 0x13, 0x00, 0x00, 0x00,
  0x43, 0x4f, 0x4e, 0x56, 0x45, 0x52, 0x53, 0x49, 0x4f, 0x4e, 0x5f, 0x4d,
  0x45, 0x54, 0x41, 0x44, 0x41, 0x54, 0x41, 0x00, 0x08, 0x00, 0x0c, 0x00,
  0x08, 0x00, 0x04, 0x00, 0x08, 0x00, 0x00, 0x00, 0x1c, 0x00, 0x00, 0x00,
  0x04, 0x00, 0x00, 0x00, 0x13, 0x00, 0x00, 0x00, 0x6d, 0x69, 0x6e, 0x5f,
  0x72, 0x75, 0x6e, 0x74, 0x69, 0x6d, 0x65, 0x5f, 0x76, 0x65, 0x72, 0x73,
  0x69, 0x6f, 0x6e, 0x00, 0x1e, 0x00, 0x00, 0x00, 0x14, 0x25, 0x00, 0x00,
  0x0c, 0x25, 0x00, 0x00, 0x7c, 0x24, 0x00, 0x00, 0x2c, 0x24, 0x00, 0x00,
  0x10, 0x24, 0x00, 0x00, 0xf4, 0x23, 0x00, 0x00, 0xd8, 0x23, 0x00, 0x00,
  0xc8, 0x0b, 0x00, 0x00, 0xf8, 0x0a, 0x00, 0x00, 0xa8, 0x09, 0x00, 0x00,
  0x98, 0x01, 0x00, 0x00, 0x48, 0x01, 0x00, 0x00, 0x24, 0x01, 0x00, 0x00,
  0x10, 0x01, 0x00, 0x00, 0xfc, 0x00, 0x00, 0x00, 0xf4, 0x00, 0x00, 0x00,
  0xec, 0x00, 0x00, 0x00, 0xe4, 0x00, 0x00, 0x00, 0xdc, 0x00, 0x00, 0x00,
  0xd4, 0x00, 0x00, 0x00, 0xcc, 0x00, 0x00, 0x00, 0xc4, 0x00, 0x00, 0x00,
  0xbc, 0x00, 0x00, 0x00, 0xb4, 0x00, 0x00, 0x00, 0xac, 0x00, 0x00, 0x00,
  0xa4, 0x00, 0x00, 0x00, 0x9c, 0x00, 0x00, 0x00, 0x94, 0x00, 0x00, 0x00,
  0x74, 0x00, 0x00, 0x00, 0x04, 0x00, 0x00, 0x00, 0xbe, 0xda, 0xff, 0xff,
  0x04, 0x00, 0x00, 0x00, 0x60, 0x00, 0x00, 0x00, 0x10, 0x00, 0x00, 0x00,
  0x00, 0x00, 0x00, 0x00, 0x08, 0x00, 0x0e, 0x00, 0x08, 0x00, 0x04, 0x00,
  0x08, 0x00, 0x00, 0x00, 0x10, 0x00, 0x00, 0x00, 0x24, 0x00, 0x00, 0x00,
  0x00, 0x00, 0x06, 0x00, 0x08, 0x00, 0x04, 0x00, 0x06, 0x00, 0x00, 0x00,
  0x04, 0x00, 0x00, 0x00, 0x00, 0x00, 0x00, 0x00, 0x0c, 0x00, 0x18, 0x00,
  0x14, 0x00, 0x10, 0x00, 0x0c, 0x00, 0x04, 0x00, 0x0c, 0x00, 0x00, 0x00,
  0x43, 0xb9, 0x38, 0xc5, 0x8c, 0xee, 0x0e, 0xd3, 0x02, 0x00, 0x00, 0x00,
  0x02, 0x00, 0x00, 0x00, 0x04, 0x00, 0x00, 0x00, 0x06, 0x00, 0x00, 0x00,
  0x32, 0x2e, 0x31, 0x39, 0x2e, 0x30, 0x00, 0x00, 0x2a, 0xdb, 0xff, 0xff,
  0x04, 0x00, 0x00, 0x00, 0x10, 0x00, 0x00, 0x00, 0x31, 0x2e, 0x31, 0x30,
  0x2e, 0x30, 0x00, 0x00, 0x00, 0x00, 0x00, 0x00, 0x00, 0x00, 0x00, 0x00,
  0x48, 0xcd, 0xff, 0xff, 0x4c, 0xcd, 0xff, 0xff, 0x50, 0xcd, 0xff, 0xff,
  0x54, 0xcd, 0xff, 0xff, 0x58, 0xcd, 0xff, 0xff, 0x5c, 0xcd, 0xff, 0xff,
  0x60, 0xcd, 0xff, 0xff, 0x64, 0xcd, 0xff, 0xff, 0x68, 0xcd, 0xff, 0xff,
  0x6c, 0xcd, 0xff, 0xff, 0x70, 0xcd, 0xff, 0xff, 0x74, 0xcd, 0xff, 0xff,
  0x78, 0xcd, 0xff, 0xff, 0x7a, 0xdb, 0xff, 0xff, 0x04, 0x00, 0x00, 0x00,
  0x04, 0x00, 0x00, 0x00, 0xfd, 0xff, 0xff, 0xff, 0x8a, 0xdb, 0xff, 0xff,
  0x04, 0x00, 0x00, 0x00, 0x04, 0x00, 0x00, 0x00, 0x01, 0x00, 0x00, 0x00,
  0x9a, 0xdb, 0xff, 0xff, 0x04, 0x00, 0x00, 0x00, 0x14, 0x00, 0x00, 0x00,
  0x70, 0x25, 0xc0, 0x3d, 0x06, 0xf2, 0x85, 0xbd, 0x8d, 0x6f, 0x04, 0xbe,
  0x68, 0xcf, 0x92, 0xbd, 0xe1, 0x8c, 0x60, 0xbd, 0xba, 0xdb, 0xff, 0xff,
  0x04, 0x00, 0x00, 0x00, 0x40, 0x00, 0x00, 0x00, 0x70, 0x5d, 0xea, 0xbc,
  0x00, 0x00, 0x00, 0x00, 0xca, 0x45, 0xb4, 0xbc, 0x40, 0x8c, 0x95, 0x3d,
  0x05, 0xc4, 0xdb, 0xbb, 0xcc, 0x1e, 0x71, 0xbc, 0xad, 0xa5, 0x9a, 0x3d,
  0x6a, 0x8e, 0xb6, 0x3d, 0x6c, 0xb3, 0xbf, 0x3d, 0xfc, 0x1b, 0x86, 0xbc,
  0x00, 0x00, 0x00, 0x00, 0xae, 0x15, 0xca, 0x3d, 0x00, 0x00, 0x00, 0x00,
  0xb4, 0x6f, 0xe2, 0xbc, 0xe9, 0xc8, 0xc4, 0xbb, 0x88, 0x28, 0xb6, 0xbb,
  0x06, 0xdc, 0xff, 0xff, 0x04, 0x00, 0x00, 0x00, 0x00, 0x08, 0x00, 0x00,
  0x9b, 0x6a, 0x9e, 0xbb, 0xf4, 0x16, 0x8b, 0x3d, 0x28, 0xb9, 0x18, 0xbe,
  0xa8, 0x9a, 0x69, 0xbe, 0xe1, 0xaa, 0x75, 0x3d, 0xdc, 0x03, 0x53, 0x3e,
  0x07, 0x08, 0xa3, 0xbe, 0xcf, 0x02, 0x72, 0xbd, 0x7b, 0xa2, 0x69, 0xbe,
  0xd6, 0xa2, 0x74, 0xbe, 0x50, 0x1b, 0xcf, 0xbe, 0x64, 0x71, 0x6b, 0xbd,
  0x20, 0x14, 0x22, 0xbe, 0x92, 0xd8, 0xe0, 0x3e, 0x7c, 0x49, 0x48, 0x3e,
  0x49, 0x5b, 0x21, 0x3c, 0x68, 0x01, 0x46, 0xbc, 0xee, 0xd3, 0x84, 0xbe,
  0x8b, 0xf8, 0xe7, 0x3e, 0x8c, 0x52, 0x57, 0x3e, 0x58, 0xa4, 0x92, 0x3e,
  0x97, 0x99, 0x14, 0x3e, 0x86, 0x4c, 0x17, 0x3d, 0x7d, 0x42, 0x54, 0xbd,
  0x64, 0xe4, 0x0d, 0xbd, 0xd6, 0x9e, 0x90, 0x3e, 0x98, 0xed, 0xb9, 0x3e,
  0xfb, 0x83, 0x01, 0x3f, 0x62, 0x2d, 0x8d, 0x3e, 0x88, 0xd1, 0xaa, 0x3e,
  0x80, 0x50, 0x93, 0x3e, 0xc7, 0x05, 0x1a, 0x3e, 0xb0, 0x78, 0xfe, 0x3d,
  0xbc, 0x12, 0x9b, 0xbd, 0xa0, 0x60, 0x4b, 0xbd, 0x88, 0xa5, 0x41, 0xbe,
  0xb3, 0xa3, 0x6f, 0xbe, 0xf3, 0xda, 0x96, 0x3e, 0xef, 0x5e, 0x80, 0x3e,
  0xc6, 0x40, 0x30, 0x3e, 0xe9, 0xab, 0x21, 0xbe, 0x7e, 0x12, 0x63, 0x3e,
  0x3b, 0x0d, 0x4f, 0xbe, 0x1a, 0xc5, 0x90, 0xbe, 0x1c, 0xf3, 0xe9, 0x3d,
  0x66, 0xf5, 0x7b, 0xbe, 0xa2, 0x31, 0x74, 0xbe, 0x33, 0xfb, 0x95, 0x3e,
  0x6f, 0x2a, 0x85, 0xbe, 0x9a, 0x7d, 0x84, 0xbe, 0xe7, 0x56, 0xb4, 0xbe,
  0x9a, 0x10, 0x3d, 0x3e, 0xa0, 0x36, 0x93, 0x3d, 0xae, 0xa6, 0x57, 0x3e,
  0x40, 0xad, 0xd1, 0x3b, 0x06, 0x49, 0x97, 0xbe, 0x24, 0x22, 0xb4, 0xbd,
  0x40, 0x23, 0x61, 0xbc, 0x78, 0x3b, 0xaa, 0x3d, 0x7b, 0x78, 0x92, 0xbe,
  0x3a, 0xe1, 0x97, 0xbe, 0x9a, 0xf1, 0x7b, 0x3e, 0xc5, 0x9b, 0x96, 0xbe,
  0x56, 0x93, 0x5f, 0x3e, 0xfc, 0xb4, 0x85, 0x3e, 0xc3, 0xcb, 0x9d, 0x3e,
  0x85, 0xe1, 0xc3, 0xbc, 0xd1, 0x7c, 0xa3, 0x3e, 0x2f, 0x29, 0x82, 0xbe,
  0x7c, 0x6e, 0x21, 0xbe, 0x0c, 0x0b, 0xdf, 0xbd, 0x8c, 0xd7, 0x94, 0xbe,
  0x1c, 0x39, 0x6f, 0xbe, 0x78, 0xd3, 0x6b, 0x3e, 0xce, 0x30, 0x98, 0x3b,
  0x1a, 0x0c, 0x23, 0xbe, 0x65, 0xa7, 0xa9, 0xbe, 0x23, 0xe3, 0xd7, 0xbd,
  0x51, 0x95, 0x1e, 0x3e, 0x2e, 0xcf, 0x8a, 0xbc, 0xb1, 0xd8, 0x94, 0xbd,
  0x11, 0xb1, 0x95, 0xbe, 0x14, 0x42, 0xab, 0xbd, 0x53, 0x1d, 0x93, 0x3e,
  0xc3, 0xc6, 0x09, 0x3e, 0x90, 0x2a, 0x97, 0xbe, 0x3e, 0x55, 0x3c, 0x3e,
  0xf8, 0xa0, 0x8e, 0xbe, 0xb3, 0xbe, 0x9a, 0x3d, 0x7f, 0x93, 0xb2, 0xbe,
  0x3a, 0xf8, 0x65, 0xbe, 0x70, 0x32, 0xac, 0xbc, 0x95, 0x59, 0x1b, 0x3e,
  0xba, 0xe9, 0x8f, 0xbd, 0xc9, 0xb6, 0xef, 0x3d, 0xa3, 0xb2, 0xb6, 0xbd,
  0xd0, 0xad, 0x50, 0xbe, 0x0b, 0xc9, 0x97, 0x3e, 0x34, 0xea, 0xf2, 0xbd,
  0xb0, 0x7c, 0x46, 0xbe, 0x72, 0xbf, 0x98, 0x3e, 0xe2, 0xae, 0x04, 0xbd,
  0xb6, 0x8b, 0x64, 0x3e, 0x32, 0xbe, 0x00, 0x3e, 0xd0, 0xe7, 0x39, 0x3e,
  0xb0, 0xdf, 0xb7, 0xbd, 0x5d, 0x31, 0xd3, 0x3e, 0x82, 0x02, 0x79, 0xbe,
  0xe0, 0x3e, 0x0d, 0x3d, 0x10, 0xd4, 0xc3, 0x3e, 0x44, 0x58, 0x9c, 0x3e,
  0x0f, 0x41, 0x05, 0xbe, 0x6e, 0x1e, 0x51, 0x3e, 0x4e, 0x14, 0x98, 0xbe,
  0x45, 0x4c, 0xff, 0x3e, 0x3c, 0xd7, 0x31, 0x3e, 0x32, 0x6b, 0xa7, 0xbe,
  0xe0, 0x90, 0x56, 0xbe, 0x32, 0x94, 0xb7, 0x3e, 0xd5, 0x74, 0x0e, 0xbe,
  0x9c, 0xe1, 0x13, 0xbe, 0x14, 0x0c, 0x35, 0x3e, 0x5f, 0xd0, 0xb6, 0x3d,
  0x90, 0x86, 0x76, 0x3f, 0x30, 0x8c, 0x82, 0xbe, 0x23, 0x28, 0x44, 0x3e,
  0x51, 0xb3, 0x51, 0xbe, 0x4c, 0xdb, 0x9a, 0x3e, 0x2c, 0xea, 0x44, 0xbd,
  0x6b, 0x4c, 0x50, 0xbe, 0xe0, 0x60, 0xa3, 0x3e, 0x3f, 0xa9, 0xed, 0xbb,
  0xee, 0x94, 0xda, 0x3c, 0x49, 0xc3, 0xc2, 0x3d, 0x79, 0xfc, 0x97, 0x3e,
  0xb7, 0x24, 0x5a, 0x3e, 0x11, 0xa6, 0x58, 0xbe, 0x37, 0x0e, 0xf5, 0x3d,
  0x91, 0x8e, 0x9b, 0x3e, 0xb5, 0x90, 0x58, 0x3e, 0xf7, 0x5f, 0x8c, 0xbe,
  0xec, 0x57, 0x92, 0x3e, 0x4b, 0x63, 0x16, 0x3e, 0x57, 0x73, 0x4c, 0x3e,
  0xdc, 0x8e, 0x57, 0xbe, 0xa3, 0x2e, 0x6a, 0xbe, 0x3c, 0x24, 0x49, 0xbe,
  0x80, 0x66, 0xc0, 0xbe, 0xaf, 0x11, 0x04, 0x3e, 0x8b, 0x0a, 0x7b, 0xbe,
  0x07, 0xe2, 0x99, 0x3e, 0x74, 0xd0, 0x4e, 0xbe, 0xb3, 0x2a, 0x73, 0xbe,
  0x2d, 0x15, 0x38, 0x3d, 0x39, 0x5f, 0x26, 0x3d, 0x5d, 0xba, 0x92, 0x3e,
  0x26, 0xbf, 0x4a, 0x3e, 0x21, 0xb5, 0xaf, 0x3c, 0x7d, 0xce, 0x9a, 0xbe,
  0x1c, 0x2d, 0x25, 0xbd, 0x43, 0x7b, 0x8a, 0x3d, 0x9a, 0x7a, 0x8a, 0xbc,
  0xf8, 0xa8, 0x81, 0xbe, 0x4f, 0xc7, 0x7a, 0xbb, 0x80, 0x02, 0x6f, 0xbe,
  0x50, 0x0a, 0xf3, 0xbc, 0xc9, 0x83, 0x2d, 0xbe, 0xf4, 0x54, 0xb3, 0x3d,
  0xd3, 0xf4, 0x12, 0xbe, 0xf5, 0x49, 0xbc, 0x3d, 0x10, 0x40, 0x59, 0xbe,
  0x61, 0xa3, 0x27, 0xbe, 0x80, 0xce, 0x96, 0x3d, 0x20, 0xac, 0xb6, 0x3c,
  0x89, 0xa0, 0xa7, 0x3e, 0x38, 0x29, 0x95, 0x3d, 0x4a, 0x26, 0xa3, 0xbe,
  0x73, 0x45, 0xb8, 0x3c, 0x7a, 0xa9, 0x58, 0xbe, 0xdc, 0xc2, 0x8a, 0xbe,
  0x48, 0x00, 0x5f, 0xbe, 0xf0, 0x99, 0x00, 0x3e, 0x39, 0xbd, 0xd3, 0xbd,
  0xb8, 0x8b, 0x8d, 0xbe, 0x70, 0xb8, 0x03, 0x3e, 0xd2, 0xe8, 0x33, 0xbd,
  0xdb, 0x5b, 0x35, 0xbe, 0xd4, 0x6b, 0xa2, 0x3d, 0x86, 0x33, 0xe9, 0xbd,
  0x0b, 0x00, 0xa8, 0x3e, 0x6c, 0x83, 0x80, 0x3e, 0xe7, 0x94, 0x60, 0x3e,
  0xe9, 0xbe, 0x0a, 0xbe, 0x4b, 0x1e, 0x27, 0xbe, 0x90, 0xa7, 0x8d, 0xbe,
  0x43, 0x54, 0xf4, 0xbc, 0xe8, 0x32, 0xc7, 0x3e, 0xc2, 0x8f, 0x84, 0xbe,
  0x50, 0x68, 0xa0, 0xbc, 0xb5, 0x67, 0x9d, 0xbe, 0xb1, 0x75, 0xba, 0x3e,
  0x7c, 0x47, 0x71, 0xbe, 0x85, 0xbc, 0x93, 0x3e, 0x7a, 0x78, 0x84, 0x3e,
  0xd6, 0x8a, 0x6d, 0x3e, 0x8e, 0x4b, 0x80, 0xbd, 0x53, 0x3e, 0x64, 0x3e,
  0x8d, 0xf6, 0xa5, 0x3d, 0x84, 0xbc, 0xb9, 0x3d, 0xd5, 0xe1, 0xb1, 0x3d,
  0x30, 0xe1, 0x34, 0x3f, 0x09, 0x39, 0x80, 0xbd, 0x45, 0xd2, 0x34, 0xbe,
  0xa1, 0x49, 0x8b, 0xbe, 0x61, 0x14, 0x86, 0x3c, 0x59, 0xf6, 0x63, 0x3e,
  0x00, 0xb3, 0x8b, 0x3d, 0xea, 0xc8, 0x51, 0x3e, 0xf1, 0x48, 0x11, 0xbe,
  0xc0, 0xac, 0xbc, 0x3e, 0xda, 0x42, 0x09, 0x3e, 0xd7, 0x3e, 0xe7, 0x3d,
  0x9d, 0x8d, 0x6e, 0x3e, 0x36, 0x32, 0x95, 0x3e, 0x73, 0xb7, 0x8c, 0x3e,
  0x90, 0x92, 0x58, 0x3e, 0x26, 0x15, 0x9f, 0xbe, 0x83, 0x07, 0xe0, 0x3e,
  0xce, 0x66, 0x07, 0x3e, 0xff, 0x3a, 0xb8, 0x3d, 0xd7, 0x15, 0x51, 0xbe,
  0xd2, 0xbe, 0x86, 0xbc, 0x52, 0x59, 0x9b, 0xbd, 0x96, 0xe0, 0x80, 0xbe,
  0x14, 0x8f, 0x92, 0xbd, 0xd1, 0xf2, 0xec, 0x3d, 0xb9, 0x67, 0x8c, 0x3e,
  0xef, 0x06, 0xf1, 0x3e, 0xa6, 0x50, 0x9b, 0x3d, 0x58, 0x56, 0xfa, 0x3d,
  0xed, 0xe3, 0x2c, 0xbd, 0x2f, 0xb7, 0x3c, 0xbe, 0x22, 0x42, 0xcc, 0x3e,
  0xfa, 0xa0, 0xa1, 0xbd, 0xc8, 0x9a, 0x72, 0x3e, 0x70, 0xf9, 0x53, 0x3e,
  0x70, 0x01, 0xa3, 0x3e, 0xf5, 0x3a, 0xb2, 0x3e, 0xb3, 0x74, 0x91, 0xbe,
  0xbd, 0xe3, 0xa0, 0x3e, 0x1d, 0xb7, 0x86, 0xbc, 0x82, 0x86, 0xd4, 0x3e,
  0xd5, 0x07, 0x96, 0xbd, 0x65, 0x06, 0xc5, 0x3d, 0xcc, 0xb1, 0x3d, 0x3e,
  0x9e, 0xf8, 0xa6, 0x3e, 0xa1, 0x92, 0x83, 0xbd, 0x90, 0x3f, 0xd8, 0x3e,
  0x9d, 0x61, 0x40, 0xbe, 0x69, 0x37, 0xd9, 0x3d, 0x89, 0x24, 0x49, 0xbe,
  0x76, 0xd1, 0x0e, 0xbe, 0x60, 0xe9, 0xd4, 0xbc, 0x18, 0x13, 0x8c, 0xbe,
  0xe2, 0x8a, 0xb8, 0xbd, 0x47, 0x49, 0x04, 0xbe, 0xee, 0x9f, 0x9f, 0x3e,
  0x10, 0xec, 0xac, 0xbd, 0x2a, 0x48, 0xe2, 0x3e, 0x03, 0x61, 0x1e, 0x3e,
  0xa2, 0xe7, 0xd4, 0x3e, 0x32, 0xa6, 0x95, 0xbe, 0xf5, 0x77, 0xe0, 0xbd,
  0x4d, 0x18, 0x8a, 0x3e, 0xfa, 0x77, 0x39, 0x3f, 0x70, 0x94, 0xc0, 0x3e,
  0x4f, 0x28, 0xad, 0x3d, 0x95, 0x79, 0x7e, 0xbe, 0x5d, 0x0d, 0x82, 0x3d,
  0x45, 0x78, 0xbd, 0x3e, 0x1b, 0xb0, 0x69, 0xbe, 0x4e, 0x30, 0xd5, 0x3e,
  0x1f, 0x12, 0x62, 0x3d, 0x4b, 0x99, 0x01, 0x3f, 0x77, 0x01, 0xc8, 0xbc,
  0x6c, 0xb4, 0x4f, 0x3d, 0x40, 0xb4, 0xb4, 0x3e, 0x66, 0xa2, 0xb7, 0x3e,
  0x6b, 0xb7, 0x82, 0x3e, 0x11, 0x3b, 0xa5, 0xbe, 0x26, 0x82, 0x7e, 0xbe,
  0x18, 0xa6, 0x90, 0xbe, 0xf2, 0xb2, 0x4a, 0xbc, 0xe2, 0xda, 0xd4, 0xbd,
  0x84, 0x3a, 0x0b, 0x3e, 0x67, 0x37, 0x19, 0x3e, 0x25, 0xec, 0x8a, 0xbe,
  0xb4, 0x10, 0xee, 0xbd, 0x03, 0x7e, 0x55, 0xbe, 0x39, 0xd2, 0x7d, 0x3d,
  0xf2, 0x45, 0xf2, 0xbd, 0x88, 0xc0, 0x17, 0x3e, 0x8d, 0x0b, 0x14, 0x3e,
  0xfd, 0x92, 0x9e, 0x3e, 0x54, 0x56, 0x14, 0x3e, 0xa5, 0xf2, 0x57, 0xbe,
  0xed, 0x22, 0xc7, 0xbd, 0xb3, 0x6d, 0x3a, 0x3e, 0xd0, 0xdc, 0xbb, 0x3c,
  0xf4, 0xd7, 0xe6, 0xbb, 0xd8, 0xfe, 0x50, 0x3e, 0xcf, 0x2f, 0x78, 0x3e,
  0x47, 0x6d, 0x90, 0xbe, 0xef, 0xed, 0x99, 0xbd, 0x76, 0x34, 0x40, 0xbe,
  0x12, 0x29, 0xac, 0xbe, 0x51, 0x0b, 0xa8, 0xbd, 0xcd, 0x96, 0xcc, 0xbc,
  0xed, 0x75, 0x69, 0x3e, 0xad, 0x96, 0xfa, 0x3d, 0x18, 0x5a, 0xb0, 0xbe,
  0x20, 0x45, 0x8e, 0xbe, 0x58, 0xeb, 0xd5, 0xbd, 0xfa, 0xc0, 0x1c, 0x3e,
  0xce, 0xc2, 0x47, 0x3e, 0xf8, 0xd2, 0x8d, 0xbd, 0x26, 0x4c, 0x59, 0x3e,
  0x24, 0xa4, 0xb3, 0x3d, 0x9a, 0xd9, 0x65, 0xbe, 0xfb, 0xaa, 0x90, 0x3e,
  0x06, 0xae, 0x28, 0x3e, 0x3a, 0xf8, 0xfb, 0xbd, 0xe0, 0x4f, 0x51, 0xbc,
  0x3d, 0xf5, 0x93, 0x3e, 0x70, 0xcd, 0x84, 0xbe, 0x0e, 0x97, 0x78, 0x3e,
  0x14, 0xc1, 0xfe, 0xbd, 0x7c, 0x98, 0x58, 0xbe, 0x80, 0x57, 0xd7, 0x3d,
  0x94, 0xec, 0x73, 0xbe, 0xbf, 0x01, 0x97, 0x3e, 0xf8, 0x71, 0x80, 0x3d,
  0x72, 0xca, 0x82, 0xbe, 0x78, 0xe5, 0xe5, 0x3d, 0x46, 0xf3, 0x5f, 0x3e,
  0x60, 0x17, 0xf5, 0xbc, 0xd9, 0x5f, 0x00, 0xbe, 0x20, 0x46, 0xc5, 0xbc,
  0xb8, 0xe2, 0xfc, 0xbd, 0xac, 0x60, 0xdb, 0xbd, 0x14, 0xc7, 0x3c, 0xbe,
  0xe2, 0x31, 0x48, 0xbe, 0x4e, 0xc8, 0x0e, 0x3d, 0xcc, 0x6a, 0x33, 0xbe,
  0xec, 0xb9, 0x31, 0x3e, 0xea, 0xba, 0x89, 0x3b, 0xb8, 0x67, 0x75, 0x3d,
  0xd1, 0xa5, 0xd9, 0xbd, 0xf5, 0x6b, 0xb4, 0x3e, 0x22, 0xce, 0xaf, 0x3d,
  0xf8, 0x08, 0xc4, 0xbc, 0x47, 0xea, 0xd2, 0x3d, 0x3b, 0x8d, 0xbc, 0x3e,
  0xf2, 0xfa, 0xfd, 0xbd, 0xb9, 0xb9, 0x4f, 0x3e, 0xaa, 0x8d, 0x0a, 0xbe,
  0x71, 0x39, 0x92, 0x3e, 0x0b, 0xc7, 0x3a, 0x3e, 0x9f, 0xc2, 0x95, 0xbe,
  0xee, 0xe0, 0x71, 0xbd, 0xb1, 0xaf, 0xca, 0x3e, 0xcf, 0x08, 0xb3, 0x3e,
  0xa6, 0x3e, 0xd1, 0x3d, 0x6b, 0xfd, 0x84, 0xbe, 0x8a, 0xb9, 0x69, 0xbe,
  0x8f, 0xda, 0xcd, 0x3e, 0x37, 0xb0, 0xa0, 0x3e, 0x5a, 0x07, 0xe4, 0x3c,
  0x72, 0x73, 0x15, 0x3e, 0xbd, 0xda, 0x56, 0x3f, 0xeb, 0xe4, 0xd5, 0x3d,
  0x9a, 0x6a, 0xb9, 0x3e, 0x59, 0x24, 0x1f, 0x3d, 0x56, 0xd3, 0xbd, 0xbd,
  0xa8, 0xda, 0xbf, 0x3d, 0x19, 0x57, 0x91, 0x3e, 0x6d, 0xba, 0x91, 0x3e,
  0x80, 0xf9, 0x4c, 0xbd, 0x01, 0xb9, 0x40, 0xbe, 0xc8, 0xb1, 0xa6, 0xbe,
  0x1d, 0xf0, 0xb0, 0x3e, 0xe4, 0xa9, 0x81, 0xbd, 0x62, 0x2c, 0x22, 0xbe,
  0x24, 0x69, 0x9b, 0x3d, 0xc0, 0x41, 0x6e, 0xbe, 0x20, 0xc9, 0x03, 0x3d,
  0x6e, 0x3c, 0x36, 0x3e, 0x68, 0x6d, 0x49, 0xbe, 0x6b, 0x91, 0x8e, 0x3e,
  0xc2, 0xe7, 0x27, 0x3e, 0xf7, 0xf0, 0xa7, 0xbe, 0xc0, 0x95, 0x61, 0x3d,
  0x70, 0xf3, 0xc1, 0x3c, 0x28, 0x0e, 0x07, 0x3d, 0x8f, 0x3f, 0xb1, 0x3e,
  0x74, 0xbb, 0x92, 0xbd, 0x9e, 0xc8, 0x9e, 0xbe, 0xdf, 0xff, 0x66, 0xbe,
  0xc1, 0x37, 0x80, 0x3e, 0x80, 0xd4, 0x93, 0xbe, 0xc8, 0xe0, 0x86, 0x3d,
  0x80, 0x48, 0x32, 0x3c, 0x75, 0x6b, 0x87, 0xbe, 0xa5, 0x42, 0x3d, 0xbe,
  0x82, 0x87, 0x92, 0xbe, 0xe3, 0x5f, 0x12, 0xbe, 0xbe, 0x18, 0x47, 0xbe,
  0xd0, 0x10, 0xa2, 0xbe, 0x16, 0xde, 0xd2, 0x3d, 0x4a, 0x3e, 0x6a, 0x3e,
  0xd6, 0xc8, 0x5c, 0x3f, 0xa3, 0xbe, 0xa9, 0xbe, 0x97, 0xa8, 0xb1, 0x3e,
  0x9b, 0xb5, 0x2a, 0x3d, 0xab, 0xb8, 0x8d, 0x3d, 0xde, 0xc2, 0x55, 0x3e,
  0x92, 0xb4, 0x08, 0xbd, 0x05, 0x12, 0xcc, 0xbd, 0x4b, 0x0b, 0x8a, 0xbe,
  0xf5, 0x99, 0x89, 0x3f, 0x9f, 0xb1, 0x94, 0x3e, 0x93, 0xce, 0x94, 0x3e,
  0x20, 0x5c, 0x24, 0xbe, 0x7c, 0xef, 0x7a, 0xbe, 0x6a, 0xe6, 0x82, 0x3f,
  0x21, 0xac, 0x87, 0x3e, 0x5a, 0x88, 0x54, 0x3e, 0xf7, 0x59, 0x64, 0xbd,
  0xac, 0x8b, 0xb5, 0xbd, 0x0d, 0x34, 0x94, 0x3e, 0xe4, 0x1e, 0x93, 0xbd,
  0x78, 0x0b, 0x1e, 0xbe, 0xcd, 0x90, 0xf0, 0x3e, 0x7a, 0x46, 0x7f, 0x3f,
  0x78, 0x9d, 0x7b, 0xbe, 0xa8, 0x46, 0xce, 0x3e, 0x0a, 0x49, 0xed, 0x3d,
  0x4d, 0x9c, 0x89, 0xbe, 0x1c, 0x90, 0xb3, 0xbe, 0x8e, 0x85, 0x61, 0xbe,
  0xfb, 0x4e, 0x24, 0xbe, 0x34, 0xae, 0xcf, 0x3d, 0xf6, 0x3c, 0x31, 0x3c,
  0x5e, 0xb4, 0xf4, 0x3d, 0x02, 0xb7, 0x18, 0x3e, 0x2c, 0x77, 0x80, 0x3e,
  0x9c, 0x01, 0x1e, 0xbe, 0x5f, 0xb7, 0x03, 0xbe, 0x4c, 0x63, 0x2b, 0xbe,
  0x0b, 0x23, 0x2a, 0xbe, 0x38, 0x91, 0xff, 0x39, 0x25, 0x4f, 0x06, 0x3e,
  0xa2, 0x42, 0x21, 0xbe, 0x5c, 0x92, 0x20, 0x3c, 0x60, 0x0e, 0x4f, 0xbd,
  0x9c, 0x4b, 0x0c, 0xbd, 0x74, 0xa7, 0x93, 0x3d, 0x71, 0x44, 0x4a, 0xbe,
  0x41, 0xc0, 0xe3, 0xbd, 0x49, 0xf4, 0x62, 0x3e, 0xc1, 0x25, 0x7c, 0xbd,
  0xbb, 0xfb, 0x74, 0x3e, 0x62, 0x6e, 0xf3, 0xbd, 0xe3, 0x39, 0x43, 0x3e,
  0xdc, 0xcf, 0x6b, 0x3c, 0xf1, 0x15, 0x04, 0x3e, 0xb1, 0xcb, 0x5c, 0x3e,
  0x35, 0x9b, 0x66, 0xbe, 0xa0, 0x6e, 0x67, 0xbe, 0xc3, 0x5b, 0xfc, 0x3b,
  0xb8, 0xa2, 0xac, 0x3e, 0x85, 0x40, 0x28, 0x3a, 0x4a, 0xc7, 0x79, 0xbe,
  0x61, 0x40, 0xa8, 0xbe, 0xab, 0x66, 0x04, 0x3d, 0x4d, 0xcf, 0x77, 0xbe,
  0x8a, 0xfb, 0x16, 0x3e, 0x9a, 0xa9, 0x99, 0x3e, 0x9e, 0x6d, 0xa1, 0x3e,
  0x10, 0xb5, 0x5d, 0xbe, 0xe1, 0xba, 0xb3, 0xbe, 0x56, 0xdc, 0x56, 0xbe,
  0x31, 0xed, 0x4c, 0x3c, 0xc4, 0x3e, 0xb0, 0xbe, 0xdd, 0x55, 0xaa, 0x3e,
  0xfe, 0xbe, 0xb3, 0x3e, 0xe8, 0x4d, 0x1d, 0xbd, 0xd0, 0x00, 0xf8, 0x3d,
  0xc6, 0xa2, 0x37, 0x3e, 0x43, 0x5d, 0x42, 0x3e, 0x4d, 0x17, 0xa6, 0x3e,
  0xa7, 0xc2, 0x95, 0x3e, 0x56, 0xff, 0x67, 0x3e, 0x3d, 0xb1, 0xa7, 0xbe,
  0xc6, 0xf8, 0x56, 0xbe, 0xfe, 0xc8, 0x55, 0xbe, 0x75, 0xba, 0x8d, 0xbe,
  0x00, 0xd9, 0x8c, 0xbe, 0x20, 0xce, 0xc3, 0xbc, 0xf9, 0x30, 0x3d, 0x3e,
  0x76, 0xc1, 0x88, 0x3e, 0x47, 0x62, 0x88, 0x3e, 0x12, 0xe4, 0xff, 0xff,
  0x04, 0x00, 0x00, 0x00, 0x40, 0x01, 0x00, 0x00, 0x55, 0x71, 0xe9, 0x3d,
  0x0e, 0x49, 0xe7, 0xbe, 0x32, 0xd8, 0x91, 0xbe, 0x7f, 0x4d, 0x0b, 0x3f,
  0x09, 0x84, 0x0e, 0x3e, 0xf6, 0xca, 0x70, 0xbe, 0x50, 0x6d, 0xf2, 0x3e,
  0x5e, 0x45, 0xe1, 0x3e, 0x6f, 0xc3, 0x10, 0x3f, 0xeb, 0xd6, 0xfc, 0xbd,
  0x94, 0x68, 0xd6, 0xbd, 0x19, 0x07, 0x9c, 0x3e, 0xe1, 0x41, 0x00, 0x3f,
  0xd0, 0x9f, 0x82, 0x3e, 0xf5, 0xf1, 0xf2, 0xbe, 0xe7, 0xc5, 0xd5, 0xbe,
  0xc0, 0x99, 0x85, 0xbd, 0xfd, 0x71, 0x01, 0x3f, 0xa2, 0x4f, 0x7d, 0x3e,
  0x80, 0xbb, 0x02, 0xbf, 0x39, 0xc0, 0x55, 0x3d, 0x36, 0x7b, 0xaf, 0x3e,
  0xbf, 0xa2, 0xe6, 0x3e, 0x96, 0xc0, 0x79, 0x3e, 0xaf, 0xa3, 0x16, 0xbf,
  0x6a, 0x1b, 0xaa, 0x3e, 0x66, 0x97, 0xd2, 0x3e, 0x94, 0x1e, 0xa5, 0x3e,
  0x2e, 0xd6, 0x02, 0xbf, 0xaf, 0x6b, 0xdf, 0xbe, 0x1b, 0xce, 0xf3, 0xbe,
  0x80, 0x6a, 0xd6, 0xbe, 0x37, 0x00, 0x60, 0x3e, 0x58, 0x5e, 0xa4, 0x3e,
  0xb2, 0x40, 0xa0, 0x3e, 0x8a, 0x34, 0xaf, 0x3e, 0xd5, 0x71, 0xbc, 0x3e,
  0x4d, 0x7f, 0xa8, 0x3d, 0x4d, 0x8f, 0xae, 0x3e, 0xc8, 0x8d, 0x50, 0xbe,
  0xa2, 0x94, 0x92, 0xbe, 0xb1, 0x7c, 0x99, 0xbe, 0xc2, 0x6e, 0xb4, 0x3e,
  0xc0, 0x18, 0xbf, 0xbe, 0x78, 0x56, 0xcb, 0xbe, 0x51, 0x22, 0x71, 0x3d,
  0x6f, 0x19, 0xa2, 0x3b, 0x46, 0xb5, 0x78, 0x3e, 0x6d, 0x80, 0x62, 0xbd,
  0x54, 0x5a, 0xa2, 0x3e, 0xfc, 0x60, 0x20, 0xbe, 0xe7, 0xc9, 0xc5, 0xbe,
  0x2a, 0x67, 0xfb, 0x3e, 0x17, 0xe1, 0xbe, 0x3d, 0x3e, 0x26, 0x95, 0xbe,
  0xd0, 0xb4, 0x1f, 0xbf, 0x29, 0xc5, 0x6e, 0x3e, 0x15, 0xe0, 0xaf, 0x3e,
  0x64, 0x9b, 0xb4, 0xbe, 0x08, 0x51, 0x65, 0x3e, 0x58, 0x46, 0x2c, 0x3e,
  0x93, 0xbf, 0x73, 0x3e, 0xee, 0x0f, 0x2e, 0x3e, 0xbb, 0xaf, 0x81, 0x3e,
  0x63, 0x74, 0x2e, 0xbe, 0xc0, 0x42, 0xf1, 0x3d, 0xf4, 0xf4, 0x83, 0x3d,
  0x85, 0x7f, 0xd3, 0xbd, 0xe1, 0x48, 0x54, 0x3e, 0xa3, 0x10, 0x4e, 0xbe,
  0xdc, 0xd3, 0xea, 0x3e, 0xda, 0xdc, 0xcd, 0xbe, 0x34, 0xd0, 0x54, 0xbe,
  0xbe, 0x5d, 0xc7, 0x3e, 0x04, 0x60, 0xe0, 0x3e, 0x9e, 0x6e, 0x0c, 0xbf,
  0x88, 0x48, 0xd3, 0xbe, 0xf4, 0x16, 0xcc, 0xbe, 0x6e, 0x5a, 0x74, 0x3e,
  0xf9, 0xfc, 0xc0, 0x3e, 0x5e, 0xe5, 0xff, 0xff, 0x04, 0x00, 0x00, 0x00,
  0xc0, 0x00, 0x00, 0x00, 0xab, 0x34, 0x49, 0xbf, 0xd8, 0x5c, 0x7b, 0xbe,
  0x03, 0x71, 0x09, 0xbf, 0x21, 0x65, 0x07, 0xbf, 0x04, 0xf4, 0x39, 0xbf,
  0x24, 0x4c, 0xa7, 0xbe, 0xcf, 0x17, 0x52, 0xbf, 0x75, 0xfd, 0x93, 0xbe,
  0x5e, 0xd5, 0xf1, 0xbe, 0xd9, 0x19, 0x04, 0x3e, 0x2e, 0x01, 0x20, 0x3d,
  0x41, 0x95, 0x6a, 0xbc, 0x96, 0x83, 0x18, 0xbf, 0xdf, 0x33, 0x9a, 0xbe,
  0x34, 0xed, 0x03, 0xbf, 0xd2, 0xf6, 0xbf, 0x3c, 0x14, 0x8c, 0x9e, 0xbe,
  0x5f, 0x3a, 0x1c, 0xbe, 0xd5, 0x05, 0xfa, 0xbd, 0xbf, 0x59, 0x5a, 0xbe,
  0x79, 0xe1, 0x1e, 0x3e, 0x11, 0x04, 0x59, 0xbe, 0x59, 0xd9, 0x31, 0x3d,
  0x5c, 0x71, 0xbe, 0xbd, 0xa1, 0x0e, 0x92, 0x3f, 0x33, 0xe4, 0x86, 0x3f,
  0x64, 0x29, 0x41, 0x3f, 0x10, 0x91, 0xb0, 0xbe, 0x82, 0x90, 0xa4, 0xbe,
  0x31, 0x47, 0x15, 0xbf, 0xc1, 0xef, 0x6f, 0xbe, 0x1a, 0xeb, 0x23, 0xbf,
  0xfa, 0x14, 0xba, 0xbe, 0xee, 0x82, 0x1b, 0xbe, 0x0c, 0x29, 0x8b, 0xbe,
  0x76, 0x4f, 0xae, 0xbe, 0x60, 0xae, 0xe0, 0xbe, 0x23, 0x90, 0xcf, 0xbe,
  0xad, 0x9b, 0x13, 0xbf, 0x93, 0xdd, 0x23, 0xbf, 0xbf, 0x26, 0x6e, 0xbe,
  0xee, 0xf1, 0xcb, 0xbe, 0x68, 0x7b, 0xc8, 0xbe, 0x22, 0x3b, 0xf9, 0xbe,
  0x26, 0x17, 0x33, 0xbf, 0x75, 0x9c, 0x45, 0x3f, 0x33, 0x61, 0x94, 0x3f,
  0xd8, 0x75, 0x9f, 0x3f, 0x2a, 0xe6, 0xff, 0xff, 0x04, 0x00, 0x00, 0x00,
  0x00, 0x18, 0x00, 0x00, 0x28, 0x59, 0x39, 0x3e, 0x08, 0x09, 0xa8, 0x3d,
  0x48, 0xac, 0x33, 0xbe, 0x77, 0x3c, 0x07, 0x3e, 0x72, 0x52, 0xc5, 0xbd,
  0x14, 0xcf, 0xa3, 0x3c, 0x60, 0x29, 0xd9, 0xbd, 0x05, 0xf5, 0x94, 0xbd,
  0x7a, 0x1e, 0x68, 0xbd, 0x74, 0x35, 0x2c, 0xbc, 0xca, 0xe0, 0x48, 0xbc,
  0xaa, 0x3a, 0x39, 0xbe, 0xf4, 0x32, 0xcd, 0xbd, 0xa0, 0x06, 0xa2, 0x3d,
  0x5c, 0xef, 0x0d, 0xbd, 0x47, 0x49, 0x50, 0xbd, 0x52, 0x90, 0xe0, 0xbd,
  0x4a, 0xac, 0xfc, 0x3d, 0x12, 0x47, 0xf6, 0x3d, 0x19, 0x36, 0x93, 0xbb,
  0xf7, 0x6e, 0xe4, 0xbd, 0x3d, 0x4a, 0x3b, 0x3d, 0x49, 0x52, 0x32, 0xbe,
  0xb0, 0x6a, 0x16, 0xbe, 0x76, 0xe4, 0x02, 0xbe, 0x30, 0x28, 0x2d, 0xbe,
  0x52, 0x16, 0x0f, 0x3e, 0x5c, 0x09, 0x0a, 0x3d, 0x81, 0x85, 0xbd, 0xbd,
  0xe6, 0x43, 0xad, 0x3d, 0xc8, 0xb5, 0x1f, 0xbd, 0x08, 0xd8, 0xff, 0xbd,
  0xe7, 0x50, 0xf2, 0xbd, 0x69, 0x3a, 0xb0, 0xbd, 0x20, 0xe3, 0x4d, 0xbe,
  0x3c, 0x58, 0x7d, 0x3d, 0x29, 0xc3, 0x1b, 0xbd, 0xf5, 0x62, 0x4d, 0x3e,
  0x09, 0x90, 0x14, 0xbd, 0x0d, 0x30, 0xde, 0xbd, 0xf7, 0x29, 0xf1, 0x3d,
  0xe4, 0xa3, 0x23, 0xbc, 0xf7, 0x6a, 0x81, 0xbd, 0x46, 0xee, 0x21, 0xbe,
  0x1c, 0x61, 0x95, 0x3d, 0x9d, 0x9d, 0x93, 0xbc, 0x94, 0xe8, 0x3e, 0x3e,
  0x18, 0x2c, 0x6b, 0xbd, 0xbe, 0xe9, 0x14, 0x3d, 0x81, 0x9d, 0x00, 0x3e,
  0xf7, 0xe2, 0xfa, 0x3d, 0x93, 0xc6, 0x25, 0xbd, 0x47, 0x06, 0x1c, 0x3d,
  0x35, 0x75, 0x27, 0xbe, 0xf4, 0x33, 0xe8, 0xbd, 0xae, 0xa8, 0xb2, 0x3c,
  0x96, 0x4d, 0x59, 0x3f, 0xd2, 0x1f, 0x00, 0x3e, 0x76, 0x6e, 0x7b, 0x3e,
  0x50, 0x0c, 0x47, 0x3e, 0x15, 0x97, 0x97, 0x3e, 0x0a, 0x28, 0x85, 0x3e,
  0x1f, 0x73, 0x33, 0x3e, 0x74, 0x5c, 0x48, 0x3f, 0x1d, 0x4d, 0x3c, 0x3e,
  0xf5, 0xb2, 0x93, 0x3e, 0x15, 0x77, 0x96, 0x3d, 0xa0, 0x09, 0x2b, 0x3d,
  0x4c, 0xbb, 0x9f, 0xbd, 0xe7, 0x5a, 0x83, 0x3d, 0xfb, 0x5d, 0x92, 0x3d,
  0xaa, 0x14, 0x8d, 0x3d, 0x78, 0x85, 0x7f, 0x3f, 0x79, 0x29, 0x69, 0x3c,
  0x2e, 0x9e, 0xcc, 0xbd, 0xac, 0xfb, 0xfb, 0xbd, 0x21, 0x77, 0xc6, 0xbb,
  0xb5, 0x9e, 0x82, 0x3d, 0xea, 0xf1, 0x83, 0x3d, 0x0c, 0x8b, 0x31, 0x3f,
  0x32, 0xe5, 0x6d, 0x3e, 0xdb, 0x2d, 0x08, 0x3e, 0x3e, 0x69, 0x5a, 0x3e,
  0xdc, 0xf0, 0x88, 0xbc, 0xef, 0xee, 0x39, 0x3c, 0xf1, 0x9e, 0x06, 0xbe,
  0xfc, 0x7f, 0xe1, 0xbd, 0xab, 0x0b, 0x09, 0xbe, 0xe7, 0x1a, 0x6f, 0x3f,
  0xde, 0xb4, 0x95, 0x3e, 0x00, 0x1e, 0x84, 0x3e, 0x80, 0x04, 0x14, 0xbe,
  0x33, 0xd8, 0x6e, 0xbd, 0xba, 0x7e, 0x52, 0x3e, 0x5b, 0x54, 0x55, 0x3e,
  0x9a, 0x57, 0x39, 0x3f, 0xb1, 0x93, 0x04, 0x3d, 0x6b, 0xa3, 0x12, 0xbd,
  0x8c, 0x28, 0x7d, 0x3b, 0x71, 0x9f, 0x0b, 0x3e, 0x83, 0x17, 0x79, 0xbd,
  0x7c, 0x43, 0x97, 0xbd, 0xa9, 0x25, 0x88, 0xbd, 0x15, 0x56, 0x44, 0xbe,
  0x37, 0x50, 0xd5, 0x3c, 0x00, 0xd6, 0x18, 0x3e, 0x5e, 0x54, 0x80, 0xbc,
  0x18, 0x97, 0x0c, 0xbe, 0x19, 0x08, 0xb6, 0x3d, 0x95, 0xac, 0x02, 0x3e,
  0x0b, 0x1a, 0x64, 0xbd, 0xa3, 0xef, 0x00, 0xbe, 0xaf, 0x44, 0xab, 0xbd,
  0x32, 0x47, 0x57, 0xbe, 0xfd, 0xa5, 0x50, 0xbe, 0x26, 0xe2, 0xc6, 0x3d,
  0x35, 0x3a, 0x46, 0xbe, 0xb4, 0x2e, 0x08, 0x3e, 0xf0, 0xc0, 0x0d, 0x3e,
  0x32, 0xb0, 0x17, 0xbe, 0xe5, 0xc5, 0x67, 0xbe, 0x67, 0x0b, 0xad, 0x3d,
  0x03, 0x16, 0xd4, 0xbd, 0x60, 0x6b, 0x02, 0x3c, 0x60, 0x38, 0x46, 0x3c,
  0x82, 0xe4, 0x89, 0x3d, 0xac, 0x07, 0x26, 0x3d, 0xa6, 0x81, 0xc7, 0xbd,
  0xfd, 0x17, 0xeb, 0xbc, 0x99, 0x63, 0x4b, 0x39, 0x7c, 0xdc, 0xef, 0x3d,
  0x22, 0xe4, 0x51, 0xbd, 0x17, 0x7c, 0x03, 0x3e, 0x7d, 0x7e, 0x9f, 0x3c,
  0x46, 0x5f, 0x4e, 0x3a, 0x73, 0x84, 0x4a, 0xbd, 0x63, 0x8a, 0x7c, 0xbd,
  0xb8, 0xa4, 0x43, 0xbe, 0x8f, 0xc0, 0x6f, 0x3d, 0xaa, 0x43, 0x26, 0xbe,
  0xd2, 0xd5, 0xba, 0x3c, 0x44, 0x22, 0xda, 0xbd, 0x08, 0x78, 0x14, 0x3e,
  0x2d, 0xf5, 0xa4, 0xbd, 0x32, 0x08, 0xfb, 0x3b, 0xe5, 0xab, 0xb7, 0x3d,
  0xd9, 0x58, 0x53, 0x3d, 0x4e, 0xd1, 0xf2, 0xbc, 0x9f, 0x7c, 0xef, 0xbd,
  0x85, 0xea, 0x2f, 0x3d, 0x47, 0x17, 0x37, 0xbe, 0xbb, 0x9f, 0x6d, 0xbd,
  0x07, 0x5a, 0x29, 0x3f, 0x79, 0x02, 0xc3, 0x3c, 0xdd, 0x9a, 0x8a, 0x3e,
  0x56, 0xaa, 0x4b, 0x3e, 0xbe, 0xdd, 0xc3, 0xbd, 0x0b, 0x66, 0x45, 0x3e,
  0x45, 0xaf, 0xb9, 0xbd, 0x76, 0xbf, 0x26, 0x3f, 0x0e, 0x21, 0xa2, 0x3d,
  0xbe, 0x42, 0x39, 0xbd, 0xf0, 0x97, 0x66, 0x3e, 0xd6, 0x77, 0x5d, 0xbe,
  0x56, 0x25, 0xde, 0x3d, 0xba, 0xa1, 0x0d, 0xbe, 0x55, 0x0d, 0x3f, 0x3e,
  0x21, 0xe7, 0x04, 0xbe, 0x8d, 0x50, 0x4b, 0x3f, 0x8a, 0x08, 0x62, 0x3e,
  0xb8, 0x0b, 0x62, 0x3e, 0x6b, 0x30, 0xa8, 0xbd, 0x61, 0x73, 0x31, 0x3e,
  0xa7, 0x1f, 0x52, 0x3e, 0x88, 0x4a, 0x3e, 0x3e, 0x5c, 0xfd, 0x4c, 0x3f,
  0xfb, 0xef, 0x16, 0x3e, 0x84, 0xc3, 0x78, 0x3c, 0xc3, 0xe5, 0x39, 0x3d,
  0x77, 0xe7, 0xf3, 0x3d, 0xe9, 0x26, 0x61, 0x3e, 0x1d, 0x64, 0xf9, 0x3d,
  0x1f, 0x66, 0x83, 0x3d, 0x1e, 0x7f, 0x46, 0x3e, 0x1d, 0x22, 0x00, 0x3f,
  0xb9, 0x09, 0x2d, 0xbd, 0x8b, 0xf8, 0x87, 0x3e, 0x3a, 0x3b, 0x41, 0x3e,
  0xc0, 0xa7, 0xac, 0xbd, 0x90, 0x1b, 0x03, 0xbe, 0x7d, 0x08, 0x9a, 0x3b,
  0x20, 0xd2, 0x4e, 0x3f, 0xfc, 0xee, 0x20, 0xbd, 0x89, 0xc3, 0xa5, 0x3d,
  0x56, 0x57, 0xc9, 0x3c, 0xe1, 0x02, 0x3c, 0x3d, 0x0b, 0x92, 0x33, 0x3e,
  0x00, 0xd4, 0xc5, 0x3c, 0x3a, 0x1f, 0x28, 0x3e, 0x5e, 0x7f, 0xab, 0xbd,
  0x15, 0x1d, 0x5a, 0x3f, 0x73, 0x5e, 0xbb, 0x3b, 0xbf, 0x2a, 0x0d, 0xbe,
  0x80, 0xef, 0x73, 0x3d, 0x73, 0x43, 0xe3, 0xbd, 0x08, 0xfe, 0x07, 0x3d,
  0xc0, 0x1f, 0x51, 0xbd, 0x62, 0xb5, 0x8e, 0x3f, 0x6e, 0xc1, 0x41, 0x3e,
  0x2c, 0xdd, 0xa0, 0xbc, 0x14, 0x86, 0x61, 0xbd, 0x84, 0x3f, 0x4f, 0xbe,
  0x01, 0xf5, 0x4b, 0x3e, 0xc8, 0xbb, 0x3e, 0x3e, 0xc4, 0x6f, 0xe2, 0x3d,
  0x34, 0x78, 0x4e, 0xbd, 0xeb, 0xea, 0x70, 0x3f, 0x86, 0x6a, 0x39, 0x3e,
  0x83, 0xcf, 0xbb, 0xbd, 0x14, 0x3e, 0x9e, 0x3d, 0x15, 0x18, 0x92, 0x3d,
  0x1c, 0x01, 0x8a, 0xbd, 0xbf, 0x09, 0xdd, 0xbd, 0x2f, 0xd2, 0x8e, 0x3f,
  0x67, 0xab, 0xaa, 0xbd, 0x85, 0x88, 0xd0, 0x3d, 0x70, 0x44, 0x35, 0xbe,
  0xd5, 0x74, 0x1c, 0x3e, 0x13, 0x48, 0xd6, 0xbd, 0x2b, 0x1c, 0xc8, 0x3d,
  0x32, 0xa2, 0x14, 0x3d, 0xb2, 0x72, 0xb0, 0xbc, 0x5b, 0x1f, 0x8f, 0x3f,
  0xd4, 0x29, 0x15, 0xbe, 0xd9, 0x42, 0x1c, 0x3d, 0x44, 0x56, 0x01, 0x3d,
  0x4d, 0xbb, 0x2e, 0x3e, 0x8e, 0x75, 0xce, 0xbd, 0xc7, 0x9e, 0x9d, 0xbd,
  0x98, 0x7f, 0x93, 0x3f, 0x6f, 0x64, 0xb0, 0xbd, 0x42, 0x7d, 0x2c, 0xbd,
  0x68, 0xc4, 0x13, 0x3e, 0x29, 0x3b, 0x36, 0x3e, 0x6e, 0xdb, 0x37, 0xbc,
  0xbe, 0xc4, 0xd7, 0xbd, 0x6d, 0x95, 0xcb, 0xbc, 0xdf, 0xeb, 0xea, 0x3d,
  0x8e, 0xfe, 0xf6, 0x3d, 0x79, 0x7f, 0x5a, 0xbe, 0xd1, 0x1d, 0x6a, 0xbd,
  0xb7, 0x66, 0x43, 0xbe, 0x39, 0xce, 0xa9, 0xbd, 0xba, 0xd5, 0x3c, 0x3d,
  0x33, 0x42, 0x86, 0xbc, 0xe9, 0xbe, 0x6c, 0x3d, 0x3f, 0x43, 0x1b, 0x3e,
  0x7c, 0xb2, 0x33, 0x3d, 0x80, 0xa3, 0x38, 0x3e, 0x5c, 0x84, 0x0c, 0x3b,
  0x68, 0xd0, 0x05, 0x3e, 0x0a, 0x80, 0xa1, 0x3d, 0x81, 0x34, 0x47, 0xbd,
  0x9f, 0x7d, 0x47, 0x3e, 0x30, 0x80, 0x0e, 0xbe, 0xb7, 0xbb, 0xf8, 0x3d,
  0x32, 0xc6, 0xa5, 0x3d, 0x90, 0xf0, 0x43, 0xbe, 0x92, 0x56, 0x35, 0xbe,
  0xe3, 0x4e, 0x6d, 0xbd, 0x1d, 0x80, 0x33, 0x3e, 0x8d, 0xac, 0x5a, 0xbe,
  0x8b, 0xe9, 0x20, 0xbd, 0x05, 0x8a, 0x07, 0xbe, 0x6c, 0xee, 0x1a, 0xbe,
  0xe3, 0x3c, 0x56, 0xbd, 0x3c, 0x52, 0x38, 0xbe, 0x48, 0xe9, 0x33, 0xbe,
  0x70, 0xdf, 0xf9, 0x3c, 0x19, 0x4c, 0x7b, 0xbd, 0xbe, 0x42, 0xed, 0x3d,
  0x11, 0x24, 0x3f, 0x3d, 0x47, 0xa0, 0xaf, 0xbd, 0x84, 0xb5, 0x24, 0x3e,
  0x28, 0xc7, 0x15, 0x3e, 0x07, 0xf9, 0xbd, 0xbd, 0xf4, 0x68, 0x8c, 0xbc,
  0x21, 0x65, 0xd6, 0x3b, 0xa7, 0xcf, 0xd9, 0xbd, 0xd8, 0xd8, 0x09, 0xbe,
  0x80, 0x0a, 0x10, 0xbb, 0x00, 0x09, 0xef, 0xbd, 0xa8, 0x87, 0xa2, 0x3c,
  0x44, 0x04, 0xa4, 0x3d, 0xd8, 0xda, 0x93, 0x3c, 0xfa, 0x3c, 0x01, 0xbe,
  0xd8, 0x12, 0x58, 0xbd, 0x2a, 0xe9, 0xc7, 0xbd, 0x0e, 0x72, 0x31, 0x3e,
  0xa0, 0x33, 0x88, 0x3b, 0xbc, 0x27, 0x3c, 0x3e, 0x70, 0xf8, 0xbe, 0x3c,
  0xb9, 0x95, 0xc1, 0xbd, 0xea, 0x3c, 0xb3, 0xbd, 0xac, 0x7e, 0x94, 0x3d,
  0x02, 0x93, 0x25, 0xbe, 0xf4, 0xc6, 0x72, 0xbd, 0xea, 0x6e, 0x00, 0xbe,
  0x10, 0x42, 0x15, 0x3e, 0x2c, 0x54, 0x82, 0x3d, 0x28, 0xa6, 0x05, 0xbe,
  0x99, 0xf6, 0x23, 0xbe, 0xac, 0xb8, 0x3a, 0x3d, 0x64, 0x65, 0xca, 0x3d,
  0xa8, 0x3a, 0x2a, 0xbe, 0x60, 0x0b, 0x2f, 0x3c, 0x10, 0xb8, 0x89, 0x3d,
  0x2a, 0x13, 0x00, 0xbe, 0x92, 0xef, 0x0c, 0xbe, 0x20, 0x5b, 0x7b, 0x3d,
  0x4a, 0xd5, 0x23, 0x3e, 0xe0, 0x5d, 0x50, 0x3d, 0x08, 0x88, 0xa4, 0x3d,
  0xf0, 0x9c, 0xde, 0xbd, 0x10, 0x54, 0x34, 0xbd, 0x40, 0xf0, 0x2b, 0xbe,
  0x10, 0xd9, 0x79, 0x3c, 0xac, 0xd9, 0x29, 0x3e, 0xe9, 0x3c, 0x4c, 0xbe,
  0xd3, 0x16, 0x3b, 0xbe, 0xb6, 0xf1, 0x3a, 0x3e, 0x10, 0x91, 0x7b, 0x3d,
  0xa4, 0x18, 0xd5, 0xbd, 0xca, 0x99, 0x14, 0xbe, 0xc0, 0x58, 0x00, 0x3b,
  0x0c, 0x1d, 0xaa, 0xbd, 0x74, 0x84, 0xa8, 0x3d, 0x44, 0x4a, 0xc3, 0xbd,
  0xc1, 0x67, 0x09, 0x3e, 0xc2, 0xf9, 0xfa, 0x3d, 0x34, 0xce, 0x42, 0xbe,
  0xbc, 0x2a, 0x3e, 0x3d, 0x1d, 0xc2, 0x2b, 0xbe, 0xb9, 0xdb, 0x4f, 0xbe,
  0x2d, 0x41, 0x2c, 0xbe, 0x7a, 0x2a, 0x5b, 0xbe, 0x25, 0xed, 0x55, 0xbc,
  0x14, 0xbe, 0x72, 0xbd, 0x8a, 0x8e, 0x60, 0xbe, 0xe5, 0xd8, 0xbf, 0xbc,
  0xd7, 0x6c, 0x86, 0x3d, 0xf7, 0x11, 0x17, 0x3e, 0x1b, 0x13, 0x2c, 0xbd,
  0x1a, 0xa4, 0xf6, 0x3d, 0x56, 0xd8, 0x34, 0x3e, 0xce, 0xbc, 0xd1, 0xbd,
  0x30, 0xa6, 0xb3, 0x3d, 0x2b, 0x1d, 0xbe, 0xbd, 0x50, 0x9d, 0x6c, 0x3d,
  0xcc, 0x95, 0x19, 0x3e, 0x68, 0xb5, 0xa7, 0x3d, 0x20, 0xde, 0x1e, 0xbe,
  0x17, 0xa9, 0x51, 0x3d, 0x60, 0x97, 0x20, 0x3d, 0x34, 0x7e, 0xe3, 0xbd,
  0xe9, 0x6f, 0x15, 0xbd, 0xd0, 0x22, 0x28, 0x3e, 0x31, 0x78, 0x4c, 0xbe,
  0x6f, 0xf0, 0x5e, 0xbe, 0xec, 0xe9, 0x6d, 0xbe, 0xea, 0x56, 0xa6, 0x3d,
  0xc8, 0x17, 0x16, 0xbe, 0x81, 0x3b, 0xfd, 0xbb, 0xad, 0xb9, 0x35, 0x3e,
  0x13, 0xfc, 0x4a, 0x3e, 0x51, 0xb7, 0x45, 0xbd, 0x04, 0xfc, 0xbd, 0x3c,
  0x7e, 0xef, 0x06, 0x3e, 0x2e, 0x49, 0x69, 0x3a, 0x88, 0xe5, 0x73, 0x3d,
  0xa1, 0x5d, 0xdf, 0xbc, 0x69, 0x0c, 0x90, 0x3c, 0x74, 0x5e, 0xf9, 0xbd,
  0x26, 0x86, 0x60, 0x3d, 0xa7, 0xe7, 0xe8, 0xbd, 0xa5, 0xfb, 0xe4, 0x3c,
  0x35, 0xec, 0xed, 0xbd, 0xd4, 0x76, 0xfd, 0xbd, 0x27, 0x3b, 0x1d, 0x3d,
  0x40, 0x1d, 0x29, 0xbe, 0xd5, 0x23, 0x22, 0xbe, 0x5d, 0xb7, 0x14, 0x3e,
  0x8a, 0x0a, 0x04, 0x3e, 0x14, 0x65, 0x07, 0xbe, 0x8b, 0x01, 0x0e, 0x3e,
  0x68, 0xb9, 0xeb, 0x3d, 0x23, 0x40, 0x0c, 0x3d, 0x7e, 0xce, 0x29, 0x3e,
  0x6b, 0x24, 0x34, 0x3e, 0x11, 0x81, 0xd6, 0xbd, 0x59, 0x41, 0x28, 0xbe,
  0xc3, 0xc4, 0x8e, 0xbd, 0xd5, 0x74, 0xcb, 0x3d, 0xc7, 0x11, 0xbe, 0x3d,
  0x17, 0xd6, 0x03, 0x3e, 0xbb, 0x34, 0x1b, 0xbe, 0x09, 0x6f, 0x23, 0xbb,
  0xa3, 0x45, 0x4a, 0x3e, 0x30, 0x3c, 0xd0, 0xbd, 0x8c, 0x8e, 0xe3, 0x3d,
  0x19, 0x7f, 0x02, 0xbe, 0x90, 0x86, 0x53, 0x3d, 0x0e, 0x83, 0x26, 0x3e,
  0x6f, 0x57, 0xcb, 0xbc, 0x1c, 0x6a, 0xfb, 0x3c, 0xd5, 0x52, 0x28, 0x3e,
  0x5d, 0x53, 0x05, 0xbe, 0x5d, 0x20, 0xe6, 0x3d, 0xbf, 0x27, 0x96, 0xbd,
  0x1a, 0xcc, 0x17, 0xbe, 0xa7, 0x57, 0x38, 0x3e, 0x5b, 0x8f, 0xf9, 0x3c,
  0x42, 0xb3, 0x2e, 0xbe, 0xe0, 0x7a, 0xda, 0xbb, 0xb0, 0xaa, 0x9a, 0xbc,
  0x0f, 0x91, 0x89, 0xbd, 0x00, 0x4c, 0x4c, 0xbe, 0x68, 0x8e, 0xb7, 0xbc,
  0xa1, 0x7a, 0xc8, 0xbd, 0xe9, 0x89, 0xa9, 0xbd, 0x13, 0x21, 0x40, 0xbc,
  0x95, 0xa6, 0x41, 0xbe, 0xdb, 0xb9, 0x65, 0x3d, 0x59, 0x9f, 0x6c, 0x3d,
  0x09, 0xd5, 0x48, 0xbd, 0x4e, 0x03, 0xfd, 0xbd, 0xbf, 0x69, 0xbf, 0x3d,
  0xc1, 0xc9, 0x2a, 0xbe, 0x59, 0x61, 0x16, 0x3d, 0x53, 0x69, 0x09, 0x3e,
  0xc6, 0x1d, 0x62, 0x3c, 0x03, 0xde, 0x15, 0x3d, 0x73, 0xcb, 0x99, 0xbd,
  0x04, 0xec, 0x20, 0xbe, 0x8d, 0x60, 0xc7, 0xbd, 0x96, 0x7b, 0x36, 0xbd,
  0x18, 0x7c, 0x73, 0x3d, 0x13, 0x44, 0x15, 0x3e, 0x95, 0x27, 0x12, 0x3d,
  0x79, 0xa5, 0x22, 0x3e, 0xac, 0x6a, 0xc8, 0x3d, 0x39, 0x59, 0x39, 0xbe,
  0xe5, 0x70, 0xfd, 0xbd, 0xbd, 0xd5, 0x4e, 0xbe, 0x62, 0x43, 0xf3, 0xbd,
  0xa8, 0x39, 0x8a, 0xbc, 0x6e, 0x37, 0x4e, 0xbe, 0xa9, 0xe5, 0x54, 0x3d,
  0xea, 0xd6, 0xb9, 0xbd, 0x72, 0x82, 0x0a, 0xbe, 0xbe, 0x20, 0x28, 0x3c,
  0x0e, 0xaa, 0x79, 0xbd, 0xe4, 0x38, 0x26, 0x3e, 0x52, 0x69, 0xaa, 0x3c,
  0x75, 0xe9, 0x67, 0x3d, 0x79, 0x55, 0xea, 0xbd, 0x10, 0x15, 0x08, 0xbe,
  0x23, 0x61, 0xf7, 0x3d, 0xa8, 0x8e, 0xa0, 0xb9, 0x6d, 0x04, 0x5c, 0x3d,
  0x26, 0xd9, 0xc7, 0x3d, 0x69, 0x5b, 0x44, 0xbe, 0xf4, 0xa5, 0x93, 0x3d,
  0x0a, 0x48, 0xbc, 0xbc, 0x74, 0x5a, 0xe7, 0x3d, 0x48, 0xb9, 0xd4, 0x3d,
  0xa2, 0xfa, 0x58, 0xbd, 0xf2, 0x6e, 0x35, 0x3d, 0x74, 0xa9, 0x05, 0xbe,
  0x59, 0x0e, 0xb6, 0xbd, 0x7f, 0x27, 0x4e, 0x3e, 0x02, 0xad, 0x87, 0x3d,
  0x51, 0x39, 0xab, 0xbd, 0x92, 0x9b, 0x62, 0x3b, 0x1c, 0x00, 0x6d, 0xbd,
  0xb0, 0x54, 0x76, 0x3c, 0x2e, 0x76, 0x13, 0xbe, 0x06, 0xa4, 0xa8, 0x3d,
  0x03, 0x1d, 0x34, 0x3f, 0xc1, 0x92, 0xb5, 0x3d, 0x53, 0xcb, 0x95, 0x3e,
  0x50, 0xca, 0x93, 0x3d, 0xd9, 0xaa, 0x82, 0x3c, 0x85, 0x65, 0x5e, 0x3e,
  0xc6, 0xe9, 0x85, 0x3e, 0xa8, 0xe9, 0x3f, 0x3f, 0x79, 0xe7, 0x61, 0xbd,
  0x40, 0x4f, 0x45, 0x3e, 0x41, 0x3a, 0xb0, 0x3d, 0x4a, 0xa2, 0xab, 0x3c,
  0xfc, 0x99, 0x7d, 0x3e, 0x33, 0x1d, 0x55, 0x3d, 0x5b, 0xe4, 0x46, 0x3e,
  0x93, 0xd1, 0x08, 0x3d, 0xd4, 0xf5, 0x7e, 0x3f, 0x0b, 0xa9, 0x89, 0xbd,
  0x8c, 0x42, 0x98, 0x3e, 0xd6, 0x6a, 0x10, 0x3e, 0x1c, 0x41, 0x43, 0x3e,
  0xee, 0x2c, 0x61, 0x3e, 0xf6, 0x37, 0x57, 0x3e, 0xe5, 0x24, 0x16, 0x3f,
  0xff, 0xdd, 0x15, 0x3e, 0xcd, 0x10, 0x6a, 0x3e, 0xd0, 0xe1, 0x6a, 0xbd,
  0x7d, 0x68, 0x13, 0xbd, 0x64, 0x11, 0xe4, 0x39, 0x82, 0x9e, 0xd0, 0x3d,
  0x85, 0x4c, 0xd2, 0xbd, 0xc0, 0xd6, 0xba, 0x3d, 0x95, 0x5f, 0x63, 0x3f,
  0x28, 0x37, 0x17, 0x3e, 0xbd, 0xb4, 0x87, 0x3e, 0xec, 0x2b, 0x35, 0xbd,
  0x5b, 0x14, 0xa7, 0xbc, 0x95, 0x4b, 0x38, 0x3d, 0x33, 0xbb, 0x00, 0x3e,
  0x43, 0x28, 0x39, 0x3f, 0xf9, 0x8a, 0xdc, 0xbd, 0xd3, 0x4d, 0x22, 0xbe,
  0x83, 0x4b, 0xcc, 0xbd, 0x40, 0x20, 0xf5, 0xbd, 0x8c, 0xb4, 0xab, 0x3d,
  0x5a, 0xe4, 0x02, 0x3e, 0x2c, 0x8e, 0x3f, 0x3e, 0xfc, 0x9c, 0x4c, 0x3e,
  0xcb, 0xfa, 0xcb, 0x3d, 0xd7, 0x6d, 0x37, 0x3e, 0xaf, 0xf2, 0x3e, 0x3c,
  0x40, 0x8a, 0x63, 0x3d, 0xe4, 0x17, 0x02, 0x3e, 0x69, 0xf7, 0x0d, 0xbe,
  0x4f, 0x12, 0x4d, 0xbe, 0x3f, 0x10, 0xb8, 0x3d, 0xea, 0x31, 0xf0, 0x3d,
  0xbe, 0xb3, 0x4f, 0xbe, 0x71, 0xe0, 0xa3, 0xbd, 0xc8, 0x0f, 0xea, 0x3d,
  0x46, 0x7f, 0x03, 0xbd, 0x63, 0x5e, 0x2d, 0x3e, 0xf5, 0x94, 0x14, 0xbe,
  0x23, 0x65, 0xd0, 0xbd, 0x53, 0x46, 0x28, 0xbe, 0x0d, 0x9c, 0x5b, 0xbe,
  0xac, 0x45, 0xd9, 0x3d, 0x6c, 0xb4, 0xb5, 0x3d, 0x84, 0xc4, 0x2f, 0x3d,
  0xc2, 0x80, 0xc1, 0xbd, 0xe0, 0x5b, 0x0e, 0xbe, 0xb2, 0xb0, 0x16, 0xbe,
  0xd0, 0x0c, 0x79, 0xbd, 0xe0, 0x02, 0xea, 0x3d, 0x4a, 0x0b, 0x51, 0xbe,
  0xca, 0x87, 0x9d, 0x3d, 0x22, 0x52, 0x46, 0x3d, 0xf3, 0x96, 0xdf, 0x3d,
  0x2d, 0x1c, 0x41, 0xbe, 0x7f, 0xf4, 0xad, 0x3d, 0xc5, 0xdb, 0x5d, 0x3c,
  0x66, 0x0b, 0xfb, 0xbc, 0x65, 0x3d, 0xe0, 0x3d, 0x08, 0x1c, 0x4d, 0xbe,
  0x1d, 0x87, 0xe5, 0xbd, 0x7a, 0x90, 0x19, 0x3e, 0x4b, 0xc5, 0x33, 0xbe,
  0x2e, 0x46, 0x84, 0x3d, 0x10, 0x00, 0x5f, 0x3e, 0xa0, 0x31, 0x3e, 0x3e,
  0xce, 0x42, 0xa3, 0x3c, 0xb4, 0x1b, 0xec, 0xbd, 0x8e, 0xc7, 0xad, 0x3d,
  0x7c, 0xd2, 0xbe, 0x3c, 0x3b, 0xc7, 0x34, 0xbe, 0x4a, 0xb1, 0x35, 0x3e,
  0x5a, 0x98, 0x16, 0x3f, 0xd6, 0xee, 0x8b, 0x3e, 0x65, 0x91, 0x45, 0x3e,
  0x5f, 0x82, 0x00, 0xbe, 0x08, 0x5c, 0x79, 0x3e, 0x67, 0xf1, 0xe1, 0x3d,
  0xec, 0x87, 0x93, 0xbd, 0x98, 0x5a, 0xe7, 0x3e, 0x74, 0x4f, 0x0c, 0x3e,
  0x7d, 0x70, 0x55, 0x3e, 0x24, 0xc7, 0x83, 0x3e, 0x09, 0x60, 0x48, 0x3e,
  0x98, 0x80, 0x9e, 0x3e, 0xf9, 0x2a, 0x01, 0x3d, 0x83, 0x3d, 0x2e, 0xbd,
  0x7b, 0x93, 0xa9, 0xbd, 0x68, 0xe6, 0x2b, 0x3f, 0x46, 0xd1, 0xc3, 0x3c,
  0xf0, 0xac, 0x93, 0xbd, 0x80, 0xf0, 0x65, 0x3c, 0x64, 0x27, 0xa1, 0x3c,
  0x0a, 0x7f, 0xbc, 0x3d, 0x76, 0xbc, 0x85, 0xbd, 0xb7, 0x70, 0x14, 0x3f,
  0x6d, 0xe8, 0x4e, 0x3e, 0x7a, 0xfd, 0x3a, 0x3e, 0x21, 0x6e, 0x8f, 0x3e,
  0x2c, 0x05, 0xc5, 0x3d, 0x22, 0xe3, 0x9e, 0x3d, 0x78, 0xbc, 0xaf, 0xbd,
  0x15, 0x01, 0x10, 0xbb, 0xd9, 0x34, 0x4b, 0xbe, 0x09, 0xd7, 0x63, 0x3f,
  0x86, 0xe6, 0x19, 0x3e, 0xe7, 0x09, 0x2d, 0x3c, 0x9c, 0x85, 0xcd, 0x3d,
  0x12, 0xc7, 0x07, 0x3c, 0x18, 0x4e, 0x20, 0x3e, 0xb2, 0x12, 0x74, 0x3e,
  0x6a, 0x03, 0x34, 0x3f, 0x66, 0x57, 0x12, 0xb8, 0x2c, 0x7a, 0x68, 0x3d,
  0x4e, 0xa1, 0x50, 0xbe, 0x11, 0x81, 0x91, 0x3c, 0x4d, 0x58, 0x45, 0xbe,
  0x9a, 0x2b, 0x6d, 0x3d, 0x00, 0x07, 0xeb, 0xbc, 0x71, 0xff, 0x17, 0xbd,
  0x4b, 0xe5, 0xd1, 0x3f, 0x08, 0x1a, 0xdd, 0x3b, 0xc9, 0x8a, 0x13, 0xbc,
  0xf4, 0x3c, 0x05, 0x3e, 0xca, 0x6e, 0x35, 0xbe, 0xce, 0xdb, 0x36, 0xbd,
  0x08, 0xf4, 0x87, 0xbd, 0xd8, 0xc0, 0xc1, 0x3f, 0x8d, 0x06, 0x1f, 0x3d,
  0xc8, 0x96, 0x27, 0x3e, 0xa7, 0xb5, 0x11, 0xbe, 0xdc, 0xc0, 0x04, 0xbe,
  0xe0, 0x98, 0x47, 0xbd, 0xe8, 0xf3, 0x4c, 0x3e, 0x63, 0x21, 0xb8, 0xbd,
  0x46, 0x83, 0x13, 0xbe, 0x4e, 0x28, 0xc6, 0x3f, 0x30, 0x0e, 0xe4, 0xbd,
  0xd9, 0x46, 0xd1, 0x3c, 0x3d, 0xd2, 0x31, 0xbe, 0xf9, 0x11, 0xd3, 0x3d,
  0x58, 0x14, 0x96, 0xbc, 0x1f, 0xa7, 0x18, 0xbe, 0xf1, 0x0a, 0xbd, 0x3f,
  0xf2, 0x0d, 0x20, 0x3e, 0x67, 0xf6, 0x32, 0x3e, 0xe1, 0x6e, 0x45, 0xba,
  0x4a, 0xf2, 0x14, 0x3d, 0x2c, 0xf8, 0x0c, 0x3e, 0xfd, 0x93, 0x03, 0x3e,
  0x09, 0xeb, 0x8c, 0xbd, 0x4b, 0x37, 0xd0, 0xbd, 0xab, 0x60, 0xcf, 0x3f,
  0xbe, 0x6c, 0xee, 0xbd, 0xb7, 0x5d, 0x2e, 0x3e, 0x80, 0xcc, 0x27, 0xbc,
  0xab, 0x6e, 0x3a, 0xbd, 0xbe, 0xe5, 0xa3, 0x3b, 0x61, 0xb3, 0x39, 0x3d,
  0x4d, 0xcc, 0xd5, 0x3f, 0x3e, 0xba, 0x46, 0x3e, 0xf5, 0x7b, 0x75, 0x3e,
  0x94, 0x96, 0x25, 0xbd, 0x71, 0xa0, 0x24, 0xbe, 0xee, 0xc2, 0x87, 0x3e,
  0x32, 0xbe, 0xdf, 0x3d, 0xea, 0xa6, 0xee, 0xbd, 0xca, 0x75, 0x83, 0xbd,
  0x17, 0x3c, 0x60, 0x3f, 0x4d, 0x22, 0xda, 0x3d, 0x26, 0x9b, 0x09, 0x3d,
  0x5c, 0xa4, 0x1d, 0x3d, 0x53, 0x6a, 0x44, 0xbd, 0xe0, 0x1a, 0x74, 0x3e,
  0x7b, 0xba, 0xb9, 0x3d, 0x30, 0x3d, 0x59, 0x3f, 0xb5, 0xa9, 0xe4, 0xbc,
  0x4f, 0xe7, 0xfe, 0x3d, 0xeb, 0x7a, 0x38, 0x3e, 0x05, 0x39, 0xb1, 0xbd,
  0x04, 0x91, 0xcb, 0x3c, 0xf6, 0x66, 0x2a, 0x3e, 0x78, 0xfc, 0xd3, 0xbd,
  0xb8, 0xc2, 0x4b, 0x3e, 0xdb, 0x35, 0x34, 0x3f, 0xf0, 0xf8, 0xd4, 0x3d,
  0xa5, 0x5a, 0x01, 0xbc, 0xb0, 0x43, 0x9e, 0x3d, 0xba, 0xa1, 0x77, 0x3e,
  0x83, 0x43, 0xfd, 0x3d, 0x2b, 0x11, 0x5d, 0x3d, 0x8a, 0x44, 0x71, 0x3f,
  0x7e, 0x53, 0x8e, 0x3d, 0x97, 0x76, 0xd1, 0x3d, 0x70, 0xd2, 0x8d, 0x3d,
  0xcb, 0x4f, 0x3f, 0xbe, 0xca, 0x0b, 0x66, 0x3e, 0x86, 0x35, 0xb5, 0xbc,
  0x8f, 0xf8, 0x83, 0x3c, 0x34, 0x1c, 0x45, 0x3e, 0x41, 0x67, 0x7b, 0x3f,
  0x0f, 0x78, 0x36, 0x3e, 0xd1, 0x1c, 0xbd, 0x3d, 0x2c, 0xc9, 0x3d, 0xbd,
  0xc7, 0x70, 0x5c, 0x3e, 0x7b, 0x16, 0xa4, 0xbd, 0x76, 0x10, 0xa0, 0x3d,
  0x31, 0x1b, 0x28, 0x3f, 0x08, 0xef, 0xd5, 0x3c, 0x32, 0x2c, 0x0e, 0x3e,
  0x7a, 0x3b, 0x31, 0x3d, 0xb5, 0xb8, 0x0b, 0x3d, 0x5a, 0x4b, 0xbf, 0x3d,
  0xa5, 0x60, 0xa6, 0x3d, 0xce, 0x18, 0xd0, 0xbc, 0x65, 0xb2, 0x13, 0xbe,
  0xa5, 0x61, 0x09, 0x3e, 0xc4, 0x04, 0x97, 0xbd, 0x5b, 0x29, 0x08, 0xbe,
  0x8c, 0xd6, 0x2b, 0x3d, 0x05, 0x15, 0x29, 0xbe, 0xd1, 0xde, 0xc4, 0x3d,
  0xd2, 0x9f, 0x39, 0xbe, 0x72, 0xb6, 0x1d, 0xbe, 0x88, 0x3e, 0x27, 0xbe,
  0xae, 0xde, 0xf6, 0x3c, 0x19, 0xc9, 0x19, 0x3e, 0x7e, 0x97, 0x9d, 0xbd,
  0xeb, 0x98, 0x53, 0xbe, 0x2f, 0x1f, 0x26, 0xbe, 0x29, 0xed, 0xe5, 0xbc,
  0xfb, 0xcc, 0x1c, 0x3e, 0x32, 0xac, 0x71, 0xbb, 0x1a, 0x0f, 0x1f, 0xbe,
  0x37, 0x07, 0x2c, 0x3e, 0x12, 0x40, 0xad, 0xbd, 0x24, 0x58, 0x6c, 0x3d,
  0xfd, 0xd6, 0x38, 0x3e, 0x96, 0xcf, 0xee, 0x3d, 0x2c, 0x36, 0x12, 0x3e,
  0xee, 0x9a, 0xa1, 0x3d, 0x72, 0x35, 0x5b, 0x3c, 0xb8, 0x3c, 0x17, 0x3d,
  0x6a, 0x08, 0x2f, 0xbd, 0xe9, 0x3a, 0x15, 0x3e, 0xf0, 0x5e, 0x7e, 0x3d,
  0x79, 0xd0, 0x0d, 0xbd, 0x8f, 0x89, 0x0c, 0xbd, 0x04, 0xd0, 0x7d, 0xbd,
  0xe2, 0x5e, 0x2f, 0xbe, 0x81, 0x59, 0xe6, 0xbd, 0xf2, 0xbd, 0x14, 0x3e,
  0x79, 0xc7, 0xfb, 0xbd, 0x1d, 0xb7, 0x33, 0xbe, 0x7b, 0xaa, 0x0d, 0xbe,
  0x31, 0xc5, 0x75, 0xbd, 0x21, 0xfe, 0xd5, 0xbb, 0x1f, 0x73, 0x97, 0xbd,
  0x85, 0x66, 0x62, 0xbc, 0x91, 0x60, 0x92, 0x3d, 0x09, 0xa3, 0x00, 0xbe,
  0xb5, 0x0d, 0xad, 0x3d, 0x77, 0x0d, 0x00, 0x3e, 0xc0, 0xe2, 0x89, 0x3d,
  0xe8, 0x5c, 0x9f, 0xbc, 0x79, 0xb8, 0xed, 0x3c, 0xf2, 0xdc, 0x4d, 0xbd,
  0x64, 0x90, 0xeb, 0x3d, 0xf5, 0x17, 0x45, 0x3e, 0xc2, 0x09, 0x99, 0xbd,
  0x8a, 0x7c, 0xd9, 0x3d, 0xa5, 0xa1, 0x23, 0xbe, 0xac, 0x5f, 0x1b, 0x3e,
  0xe6, 0x65, 0x3a, 0xbe, 0xf3, 0xc6, 0x23, 0xbc, 0x1d, 0x15, 0xcc, 0x3b,
  0x6c, 0x6c, 0x6e, 0x3c, 0xfd, 0xff, 0xde, 0xbd, 0xe1, 0x63, 0x1c, 0xbe,
  0x91, 0xa2, 0x4e, 0xbd, 0x0b, 0xea, 0x17, 0x3e, 0x40, 0x3e, 0x38, 0x3e,
  0x27, 0x00, 0x85, 0xbd, 0x54, 0xd1, 0xf7, 0x3d, 0x51, 0x59, 0x72, 0x3d,
  0xfd, 0xad, 0x0f, 0x3e, 0xdd, 0x25, 0xb3, 0xbd, 0xaa, 0x36, 0x12, 0x3d,
  0x6b, 0xb8, 0x0f, 0x3e, 0x53, 0x21, 0xb8, 0x3d, 0xef, 0xf1, 0x4a, 0x3e,
  0x7c, 0xb7, 0x33, 0xbe, 0x35, 0x05, 0x13, 0xbe, 0x01, 0xb3, 0x68, 0xbd,
  0x7a, 0x25, 0xa0, 0xbd, 0x86, 0xa3, 0x74, 0x3d, 0x43, 0xd0, 0x56, 0x3c,
  0xca, 0x86, 0x36, 0xbe, 0x01, 0xb1, 0x09, 0xbe, 0xd8, 0xa6, 0xaa, 0xbc,
  0x5e, 0xc6, 0x8f, 0xbd, 0xdc, 0x75, 0xca, 0x3c, 0x7a, 0x17, 0x42, 0xbe,
  0xf2, 0x4b, 0xe6, 0xbd, 0xf4, 0x39, 0x4f, 0xbd, 0xa9, 0x89, 0x1a, 0x3e,
  0x41, 0xf2, 0xa7, 0xbd, 0x7e, 0xb6, 0x0a, 0x3e, 0x00, 0x7f, 0xb8, 0x3d,
  0x92, 0x7a, 0x1d, 0xbe, 0xab, 0x84, 0x26, 0xbe, 0xd4, 0x4a, 0x42, 0xbe,
  0x9d, 0xf8, 0xce, 0xbc, 0x41, 0x1a, 0x53, 0xbe, 0x79, 0x90, 0x2c, 0xbe,
  0x58, 0xa9, 0x01, 0x3e, 0xfe, 0x83, 0x2c, 0x3e, 0xbb, 0x61, 0x34, 0x3d,
  0x60, 0x2b, 0xcc, 0xbd, 0xef, 0x80, 0x49, 0x3d, 0x6b, 0x36, 0x73, 0xbd,
  0x0a, 0x28, 0x10, 0x3e, 0x9b, 0xe3, 0x03, 0x3e, 0xee, 0xfd, 0x2f, 0x3e,
  0x49, 0x6e, 0xc0, 0xbd, 0x2b, 0x18, 0xf1, 0xbd, 0xa9, 0x6e, 0xee, 0x3d,
  0x57, 0xc4, 0x00, 0x3d, 0x27, 0x4b, 0x3d, 0x3b, 0x2c, 0x64, 0xd4, 0xbd,
  0x5f, 0x9f, 0xba, 0xbc, 0x4c, 0xcb, 0x21, 0xbd, 0x66, 0x6b, 0x4e, 0xbe,
  0x96, 0x38, 0xe1, 0x3d, 0x2c, 0xe1, 0x2f, 0x3e, 0xbb, 0xee, 0x88, 0x3c,
  0xcc, 0xd3, 0x3a, 0x3d, 0xdb, 0xee, 0x4f, 0x3d, 0x86, 0x30, 0x2b, 0x3e,
  0x07, 0xb0, 0xe1, 0xbb, 0x4e, 0x2a, 0x2d, 0xbe, 0xf6, 0x6c, 0xed, 0xbd,
  0xe3, 0xab, 0x47, 0xbd, 0x59, 0xd1, 0xf7, 0xbb, 0x98, 0x3e, 0x97, 0x3d,
  0xa4, 0xf6, 0x21, 0xbe, 0xf1, 0xff, 0xc4, 0xbd, 0x68, 0xd1, 0x23, 0x3e,
  0x91, 0xf8, 0x4d, 0xbe, 0x64, 0xa5, 0x03, 0x3b, 0x45, 0x2f, 0x0c, 0x3e,
  0x62, 0xe5, 0x26, 0xbe, 0xcc, 0xcf, 0x29, 0x3e, 0xfa, 0x8f, 0xed, 0xbd,
  0x84, 0x50, 0x0d, 0x3c, 0x14, 0x6c, 0xf6, 0x3c, 0xec, 0x9f, 0x01, 0xbe,
  0xec, 0x80, 0xa9, 0x3d, 0xa8, 0x2c, 0xb7, 0x3b, 0x6c, 0x1d, 0x2b, 0x3e,
  0x73, 0xc6, 0xac, 0x3f, 0x8c, 0x62, 0x00, 0x3e, 0xf8, 0xce, 0x77, 0x3e,
  0xc8, 0x93, 0x13, 0xbe, 0x76, 0x49, 0x32, 0xbe, 0xd8, 0x46, 0x3b, 0xbd,
  0x38, 0x16, 0xaa, 0xbd, 0x17, 0xdd, 0x9c, 0x3f, 0x75, 0x07, 0xc4, 0x3d,
  0xb2, 0x07, 0x86, 0xbd, 0x81, 0x6a, 0x1f, 0x3e, 0xd8, 0x72, 0x18, 0x3e,
  0x33, 0xbb, 0x06, 0xbe, 0x11, 0xf4, 0x1c, 0x3e, 0xc3, 0xf2, 0x67, 0x3d,
  0x1c, 0x5e, 0x57, 0x3d, 0xb7, 0x64, 0x9e, 0x3f, 0x42, 0x58, 0xc4, 0xbd,
  0x53, 0x9b, 0xa4, 0x3d, 0xce, 0x4b, 0x05, 0x3e, 0xb5, 0xf7, 0x1a, 0xbc,
  0x81, 0xf2, 0x4b, 0xbd, 0x60, 0x4c, 0x0e, 0x3e, 0x1e, 0xeb, 0xbe, 0x3f,
  0x71, 0x81, 0x28, 0xbe, 0x72, 0x8b, 0x38, 0xbe, 0x24, 0x8f, 0x05, 0x3e,
  0xe5, 0x09, 0xfe, 0x3d, 0x68, 0xcd, 0x5d, 0x3e, 0x91, 0xc3, 0x41, 0x3e,
  0xa9, 0xad, 0x52, 0x3b, 0xa7, 0xb1, 0x07, 0x3e, 0x28, 0xea, 0xca, 0x3f,
  0xc3, 0x30, 0x18, 0x3e, 0xb6, 0x51, 0x80, 0x3e, 0xed, 0xd0, 0x39, 0xbe,
  0x63, 0x3c, 0x2f, 0x3d, 0x89, 0x56, 0x73, 0x3e, 0xed, 0xf9, 0xd7, 0xbd,
  0x01, 0x6d, 0xa1, 0x3f, 0x5c, 0xc8, 0x14, 0x3e, 0x6a, 0x8d, 0x70, 0x3d,
  0x69, 0x05, 0xf4, 0x3d, 0x76, 0x1f, 0x1d, 0xbe, 0xeb, 0x3a, 0xb6, 0x3b,
  0x2c, 0xe9, 0x96, 0xbd, 0x3a, 0xdd, 0x06, 0xbe, 0x07, 0xe7, 0xf3, 0xbd,
  0xdd, 0xfb, 0x29, 0x3f, 0xea, 0xaa, 0x18, 0x3c, 0x07, 0x0e, 0xd0, 0xbd,
  0xf5, 0x92, 0xf2, 0xbd, 0x9f, 0x2e, 0x13, 0xbd, 0xf7, 0xb5, 0x50, 0xbd,
  0x1a, 0xb6, 0x4a, 0x3e, 0xfc, 0xad, 0x32, 0x3f, 0x50, 0xf3, 0x90, 0xbd,
  0x39, 0xfe, 0xb1, 0xbd, 0x20, 0xd3, 0xc2, 0x3d, 0x28, 0x45, 0xa6, 0xbc,
  0x02, 0xdb, 0x6f, 0x3d, 0xe9, 0x92, 0xe7, 0xbd, 0x2c, 0x27, 0xaf, 0xbb,
  0x30, 0x62, 0xb3, 0x3d, 0x51, 0x0f, 0x37, 0x3f, 0xbc, 0x79, 0xb1, 0xbc,
  0xc0, 0x64, 0x91, 0xbd, 0x66, 0xe6, 0x02, 0xbe, 0x1a, 0xfa, 0xa1, 0xbd,
  0xa5, 0xcb, 0x85, 0x3c, 0x3e, 0x08, 0x9c, 0x3d, 0x87, 0x89, 0x44, 0x3f,
  0x47, 0x06, 0x94, 0xbc, 0xe1, 0x8c, 0x82, 0x3e, 0xeb, 0xd1, 0x85, 0x3c,
  0x43, 0x5b, 0x4b, 0xbe, 0x40, 0x0a, 0x49, 0x3e, 0x88, 0xb1, 0xa9, 0x3d,
  0xdd, 0x47, 0x8e, 0xbd, 0xaa, 0x6b, 0x12, 0x3e, 0x37, 0x06, 0x78, 0x3f,
  0xdc, 0x69, 0x3b, 0x3e, 0xa7, 0x15, 0x4b, 0x3e, 0x12, 0x72, 0x27, 0x3e,
  0x1d, 0xfc, 0x89, 0x3e, 0x1a, 0x44, 0xf2, 0x3d, 0x37, 0xcc, 0xc6, 0xbd,
  0x56, 0x1d, 0x61, 0x3f, 0xe6, 0x14, 0x10, 0x3e, 0x7f, 0x66, 0xa6, 0xbd,
  0x93, 0x95, 0xb5, 0xbc, 0x0e, 0x3a, 0x32, 0xbc, 0xed, 0x57, 0x4f, 0x3d,
  0x6d, 0x16, 0x3c, 0xbe, 0x91, 0x4e, 0xf5, 0xbd, 0x54, 0x09, 0x14, 0x3d,
  0x46, 0x39, 0x27, 0xbe, 0x36, 0x4c, 0x21, 0x3e, 0x3f, 0xd6, 0x18, 0xbe,
  0x4c, 0x91, 0xb9, 0x3d, 0x5c, 0x13, 0x23, 0xbe, 0x4c, 0x25, 0xf8, 0xbd,
  0xcc, 0x1a, 0xf4, 0x3d, 0xf4, 0x9d, 0xa1, 0xbb, 0xf0, 0x7e, 0x0a, 0xbd,
  0x2e, 0x1f, 0xd8, 0x3d, 0x8e, 0x1c, 0x7c, 0xbd, 0xef, 0xc0, 0x4c, 0xbd,
  0xe9, 0x79, 0x37, 0x3d, 0x28, 0x59, 0xaf, 0xbc, 0xdd, 0x54, 0x1d, 0x3e,
  0x4d, 0xcb, 0x9f, 0x3d, 0xa8, 0xe3, 0xb7, 0xbd, 0x4c, 0xf1, 0xe9, 0x3d,
  0x7b, 0x1c, 0x22, 0xbd, 0x58, 0x67, 0xec, 0x3c, 0xd7, 0x6b, 0x76, 0xbd,
  0xeb, 0x78, 0xb0, 0xbd, 0x21, 0xb4, 0x71, 0xbd, 0x27, 0x94, 0x39, 0xbe,
  0xcb, 0x8a, 0x62, 0xbd, 0xb4, 0xe9, 0x1c, 0xbe, 0x1f, 0xbe, 0x38, 0xbe,
  0x62, 0x9c, 0xc7, 0x3d, 0xdf, 0x59, 0xe7, 0x3d, 0x15, 0xce, 0xab, 0x3b,
  0x1b, 0x1d, 0xbc, 0xbd, 0x0a, 0xe6, 0x04, 0x3e, 0xde, 0x67, 0x3c, 0x3e,
  0xd7, 0x62, 0x7d, 0xbd, 0xc0, 0xeb, 0xac, 0x3d, 0xb8, 0x19, 0xbb, 0x3c,
  0x22, 0x43, 0xb5, 0x3d, 0x30, 0x90, 0x44, 0xbd, 0xcd, 0x30, 0x52, 0xbe,
  0x3c, 0x9d, 0x5a, 0xbc, 0x9e, 0x0f, 0x0a, 0xbe, 0x70, 0xfd, 0x38, 0xbe,
  0x8a, 0xf8, 0x8b, 0xbd, 0x3b, 0x99, 0x0e, 0xbe, 0x5e, 0x5d, 0x07, 0xbe,
  0xe6, 0x37, 0xbf, 0x3d, 0x8c, 0xde, 0x57, 0x3d, 0xb6, 0x7c, 0xcc, 0xbd,
  0x8f, 0x04, 0xa8, 0xbc, 0xc5, 0x67, 0x28, 0x3e, 0x9e, 0x51, 0x19, 0x3d,
  0x80, 0xea, 0x87, 0xbc, 0x6f, 0x23, 0x02, 0x3e, 0xc9, 0x80, 0x22, 0xbe,
  0xbe, 0x5e, 0x0b, 0x3e, 0x25, 0xaa, 0x49, 0x3d, 0x57, 0xf7, 0x04, 0xba,
  0xd3, 0x9f, 0xc3, 0x3d, 0x9f, 0x7b, 0x64, 0xbd, 0xd3, 0x6b, 0x86, 0xbd,
  0x60, 0x18, 0x0e, 0xbe, 0x46, 0x30, 0xc4, 0xbd, 0x01, 0x3e, 0x09, 0x3c,
  0xb3, 0xe2, 0x45, 0xbe, 0x18, 0x85, 0xce, 0x3d, 0x6e, 0x3b, 0x11, 0x3e,
  0x35, 0x16, 0x9b, 0x3d, 0x55, 0x14, 0x13, 0xbe, 0xd9, 0x13, 0xc1, 0xbd,
  0x5b, 0xa9, 0x20, 0x3e, 0x5a, 0x68, 0x28, 0x3e, 0x1e, 0xf9, 0xff, 0x3b,
  0x15, 0x0a, 0xc7, 0xbd, 0x6b, 0xc3, 0x57, 0xbc, 0xe1, 0xcf, 0x48, 0xbd,
  0xad, 0x0d, 0x2d, 0xbe, 0xb1, 0x11, 0xe2, 0xbd, 0x7e, 0xb1, 0x34, 0xbe,
  0xef, 0x68, 0xe3, 0x3b, 0x32, 0xd4, 0xa9, 0xbd, 0x4c, 0xc3, 0xe7, 0xbd,
  0x0f, 0x60, 0x1e, 0x3e, 0x81, 0xc6, 0x24, 0xbd, 0xe8, 0x4a, 0x69, 0x3d,
  0x64, 0x0b, 0xd0, 0x3d, 0xf2, 0x78, 0x1c, 0xbe, 0x1e, 0xaa, 0x65, 0xbe,
  0x95, 0xee, 0xa7, 0xbc, 0xf2, 0x27, 0xba, 0x3d, 0xad, 0xfa, 0x63, 0x3e,
  0x2e, 0x76, 0x99, 0x3d, 0xca, 0x6a, 0xe8, 0x3a, 0x2a, 0x8d, 0x27, 0x3e,
  0x20, 0x0c, 0xbd, 0x3d, 0xee, 0xa3, 0x15, 0x3e, 0xb3, 0xcb, 0xf4, 0x3c,
  0x33, 0x04, 0x86, 0x3f, 0x90, 0xb9, 0x80, 0x3e, 0x75, 0x44, 0x90, 0xbd,
  0x95, 0x43, 0xba, 0xbd, 0xdd, 0x43, 0x50, 0x3d, 0xea, 0x74, 0x39, 0x3e,
  0x68, 0xe0, 0x93, 0xbd, 0xb8, 0x2f, 0x72, 0x3f, 0x94, 0xaf, 0x4a, 0x3b,
  0xa4, 0x06, 0xc1, 0xbd, 0xe6, 0x85, 0x24, 0xbd, 0x7c, 0xe7, 0x0f, 0x3d,
  0x2e, 0xf7, 0x35, 0xbc, 0xd2, 0x37, 0x05, 0xbe, 0x50, 0x11, 0x90, 0xbc,
  0xd5, 0xdb, 0x1c, 0x3e, 0xcc, 0xfc, 0x82, 0x3f, 0x3d, 0x77, 0xe1, 0x3d,
  0x3a, 0x02, 0x80, 0xbd, 0xc0, 0x6f, 0x92, 0xbb, 0xd1, 0xe1, 0x9b, 0x3d,
  0x54, 0x91, 0x16, 0x3d, 0x17, 0x6c, 0xd2, 0x3d, 0x70, 0xe6, 0x55, 0x3f,
  0x20, 0x04, 0x84, 0x3e, 0x6d, 0xf9, 0xbf, 0xbd, 0x69, 0x41, 0x36, 0x3e,
  0x29, 0x4c, 0x83, 0x3c, 0x18, 0x4f, 0x66, 0x3d, 0xe3, 0x7f, 0xd2, 0xbd,
  0x75, 0x21, 0xd1, 0x3c, 0x43, 0xcf, 0xfe, 0xbc, 0x84, 0x41, 0x6c, 0x3f,
  0x78, 0x29, 0x01, 0x3d, 0x2d, 0x25, 0xb2, 0x3d, 0x90, 0x47, 0x78, 0xbd,
  0xdd, 0x7c, 0x8b, 0x3e, 0xf6, 0x98, 0x3c, 0x3e, 0xf5, 0xa8, 0x06, 0x3e,
  0x75, 0x05, 0x64, 0x3f, 0x01, 0x28, 0x3d, 0x3e, 0x26, 0x74, 0x18, 0x3e,
  0x04, 0x40, 0x00, 0x3d, 0x24, 0xd3, 0x73, 0x3d, 0x33, 0xa7, 0x84, 0x3e,
  0xd9, 0xb6, 0x9a, 0x3d, 0xf3, 0xe5, 0x05, 0xbe, 0x8e, 0x5e, 0x48, 0x3e,
  0x20, 0x61, 0x25, 0x3f, 0x03, 0x26, 0x17, 0x3e, 0x5a, 0x68, 0x9c, 0xbd,
  0x98, 0xf7, 0x0c, 0xbe, 0x22, 0x4d, 0xf7, 0x3b, 0xe0, 0xe6, 0x82, 0x3e,
  0x12, 0x08, 0xd5, 0xbc, 0xd3, 0xdf, 0xfc, 0x3e, 0xc8, 0x9b, 0x89, 0xbd,
  0x30, 0xf1, 0x7c, 0x3d, 0xfb, 0x2a, 0xb5, 0xbd, 0x6f, 0x00, 0xb0, 0x3d,
  0xbf, 0x98, 0x40, 0xbd, 0xe5, 0x8e, 0x0e, 0x3d, 0x06, 0x6e, 0xf5, 0xbd,
  0x66, 0x16, 0x8b, 0x3c, 0xea, 0x4d, 0x49, 0x3f, 0xb9, 0x4a, 0x9b, 0x3e,
  0x1e, 0x43, 0x1f, 0x3e, 0xc0, 0x65, 0xea, 0xbc, 0x62, 0x64, 0x71, 0x3e,
  0x14, 0x9c, 0xd3, 0x3d, 0x10, 0x1e, 0x04, 0x3d, 0x70, 0xa6, 0x1b, 0x3f,
  0xa7, 0xf1, 0x6d, 0x3e, 0x6c, 0x29, 0xa8, 0x3d, 0xff, 0x30, 0x22, 0xbd,
  0xea, 0x12, 0x49, 0xba, 0x5a, 0x8d, 0x87, 0x3b, 0x54, 0x83, 0x0c, 0x3e,
  0xfa, 0x8a, 0x11, 0xbe, 0x0a, 0x49, 0x3a, 0xbe, 0xa3, 0x42, 0x40, 0x3f,
  0xa4, 0x1c, 0x25, 0x3e, 0xe4, 0xd2, 0x38, 0x3e, 0x28, 0x56, 0x2e, 0xbd,
  0xd4, 0xe7, 0x9e, 0x3e, 0x13, 0xde, 0x38, 0x3e, 0xb8, 0x4e, 0xdc, 0x3d,
  0x13, 0xcd, 0x67, 0x3f, 0x43, 0xd9, 0xad, 0xbd, 0x5d, 0x2a, 0xb2, 0xbd,
  0xac, 0x6b, 0xaa, 0xbc, 0xdc, 0x7d, 0x12, 0x3e, 0x96, 0x8c, 0xd2, 0x3c,
  0x7c, 0xfe, 0xae, 0xbd, 0x9f, 0x74, 0x3d, 0xbe, 0x98, 0xb5, 0xc2, 0x3d,
  0x46, 0xc4, 0x22, 0x3e, 0x0f, 0x6c, 0x9a, 0x3d, 0x44, 0x76, 0x1e, 0xbe,
  0xe8, 0xf5, 0xb2, 0xbd, 0xce, 0xb8, 0x36, 0x3e, 0x23, 0xe5, 0xe7, 0x3d,
  0x63, 0xe6, 0x99, 0x3d, 0x63, 0x47, 0x34, 0xbe, 0x02, 0x6e, 0xc6, 0xbc,
  0x61, 0x30, 0x2e, 0xbd, 0x2d, 0xc5, 0x61, 0xbd, 0xbe, 0xc5, 0xc4, 0xbd,
  0xf3, 0xc4, 0xd9, 0xbd, 0x00, 0x98, 0x2b, 0x3e, 0xd7, 0xd8, 0x21, 0xbe,
  0xd1, 0x6b, 0x30, 0x3e, 0xbb, 0x15, 0xf8, 0xbd, 0xb3, 0xac, 0x35, 0xbd,
  0xe4, 0x1a, 0x74, 0xbd, 0x96, 0x46, 0x2f, 0x3e, 0x82, 0x4b, 0x53, 0x3d,
  0x76, 0xae, 0xdf, 0xba, 0x24, 0xa2, 0x03, 0x3e, 0x6d, 0xf6, 0xbb, 0xbd,
  0x01, 0x79, 0x2d, 0x3d, 0x7e, 0xb6, 0x08, 0x3e, 0x40, 0x9c, 0x4d, 0xbe,
  0xd3, 0x10, 0x2f, 0xbe, 0x09, 0x56, 0xd8, 0xbd, 0x51, 0x3f, 0x1e, 0xbe,
  0x72, 0x27, 0xa4, 0x3d, 0xce, 0x4c, 0x01, 0xbe, 0x1e, 0x3c, 0x87, 0xbd,
  0x03, 0xca, 0xac, 0x3c, 0x8d, 0x3d, 0x1c, 0xbd, 0x98, 0xe1, 0x40, 0x3d,
  0x61, 0xe6, 0x1a, 0x3e, 0xf5, 0x7d, 0x96, 0xbc, 0x40, 0x57, 0x51, 0xbe,
  0xcb, 0x68, 0x96, 0xbd, 0x4e, 0xe0, 0x09, 0x3e, 0xd5, 0x99, 0xe5, 0x3c,
  0xdb, 0x22, 0x87, 0xbc, 0x6b, 0xc9, 0x47, 0x3d, 0x22, 0xf3, 0x89, 0x3e,
  0x78, 0x65, 0x07, 0xbe, 0x6f, 0xfd, 0x0f, 0x3e, 0x1b, 0x4a, 0x03, 0x3e,
  0xd7, 0xf6, 0x59, 0x3f, 0xe3, 0x4b, 0x4d, 0x3e, 0xde, 0x54, 0xfe, 0x3c,
  0x4e, 0x45, 0x47, 0x3e, 0x7d, 0x51, 0x5e, 0x3e, 0x8b, 0x9b, 0x92, 0x3e,
  0x26, 0xe4, 0x7b, 0x3e, 0x99, 0x6a, 0x38, 0x3f, 0x2b, 0x8b, 0x69, 0x3e,
  0x4b, 0xd1, 0x7b, 0x3e, 0x90, 0x39, 0x87, 0x3c, 0x7f, 0x01, 0x1c, 0xbc,
  0xc5, 0xda, 0xaf, 0x3d, 0x70, 0x37, 0x86, 0x3d, 0x32, 0xc0, 0xec, 0xbd,
  0xdc, 0x2a, 0xfa, 0xbd, 0x0e, 0xfe, 0x76, 0x3f, 0x85, 0xa6, 0x85, 0xbc,
  0xa5, 0xf4, 0x53, 0x3e, 0x80, 0xbc, 0xea, 0xba, 0x53, 0x12, 0x91, 0x3e,
  0x7d, 0xbf, 0x24, 0x3e, 0x41, 0xff, 0x91, 0x3e, 0xbc, 0x4a, 0x6e, 0x3f,
  0x95, 0x34, 0x95, 0x3d, 0x14, 0x91, 0x84, 0x3e, 0xe9, 0x4b, 0xca, 0x3b,
  0x42, 0x0e, 0x62, 0xbe, 0xfa, 0x5b, 0x9a, 0x3e, 0xb9, 0x23, 0x17, 0x3e,
  0x78, 0x09, 0xf9, 0x3d, 0x81, 0x72, 0x8d, 0xbc, 0x40, 0xb8, 0x2e, 0x3f,
  0x26, 0xf3, 0xc6, 0x3d, 0x3c, 0x79, 0x6f, 0x3e, 0x70, 0xb1, 0x7e, 0x3d,
  0xfc, 0xbe, 0x49, 0x3e, 0xb5, 0x98, 0xea, 0xbc, 0x04, 0x5f, 0x46, 0x3e,
  0x1d, 0x12, 0x44, 0x3f, 0xad, 0xa7, 0x7b, 0x3d, 0x40, 0x55, 0x9d, 0x3d,
  0xb2, 0xfb, 0x86, 0xbd, 0xc3, 0xf5, 0x32, 0x3d, 0x84, 0x05, 0xb7, 0xbd,
  0x7e, 0x9d, 0x19, 0xbe, 0x9a, 0x90, 0x7f, 0x3d, 0x65, 0xae, 0x09, 0x3e,
  0x50, 0x65, 0x3f, 0x3f, 0x0f, 0x55, 0xee, 0x3c, 0x9f, 0x4f, 0x09, 0xbe,
  0x40, 0xca, 0x85, 0xbd, 0xf3, 0xf3, 0x07, 0xbe, 0x6a, 0x79, 0xa9, 0xbd,
  0xbc, 0xd1, 0x14, 0xbe, 0x5d, 0x40, 0x2f, 0x3f, 0x6a, 0x57, 0xf7, 0xbd,
  0x76, 0x26, 0x36, 0x3e, 0xcc, 0x6f, 0xa2, 0xbc, 0xee, 0xe7, 0x44, 0x3e,
  0xa9, 0x79, 0x43, 0xbc, 0xa9, 0x92, 0xf1, 0x3d, 0x84, 0x33, 0x92, 0x3c,
  0x93, 0xd0, 0x22, 0xbe, 0x79, 0xec, 0x5c, 0x3f, 0xfc, 0x08, 0x78, 0x3e,
  0x8e, 0x4d, 0x32, 0x3e, 0xf8, 0x37, 0x9f, 0xbd, 0x45, 0x4f, 0x7c, 0x3d,
  0x36, 0xef, 0x08, 0xbe, 0xa0, 0x1e, 0xc7, 0xbd, 0x4f, 0xfb, 0x51, 0x3f,
  0xeb, 0xd0, 0x3c, 0x3e, 0x82, 0x8d, 0x00, 0xbe, 0x36, 0x38, 0x50, 0xbd,
  0x42, 0xa8, 0x4f, 0xbe, 0xfd, 0x5b, 0xef, 0xbd, 0x91, 0x10, 0xaa, 0x3d,
  0xe7, 0xf3, 0xd9, 0x3d, 0xd4, 0x37, 0x46, 0xbd, 0x1a, 0x2e, 0x53, 0x3f,
  0xdf, 0xc3, 0xdf, 0xbd, 0x3b, 0xb2, 0x6c, 0x3e, 0xa4, 0xd4, 0x2b, 0xbe,
  0xd8, 0x10, 0xe8, 0xbd, 0x6c, 0x17, 0xf7, 0x3d, 0x04, 0x24, 0x75, 0x3d,
  0xc6, 0x93, 0x6c, 0x3f, 0xe4, 0xa0, 0xec, 0xbd, 0x35, 0xc1, 0x46, 0x3d,
  0xa0, 0xcf, 0xbd, 0x3d, 0x13, 0x96, 0x87, 0x3d, 0x62, 0x28, 0x25, 0x3d,
  0x53, 0x8c, 0x31, 0xbe, 0xf4, 0xc7, 0xdd, 0x3d, 0xa8, 0x7b, 0xb6, 0x3d,
  0x41, 0x68, 0x6b, 0x3f, 0xb5, 0x6e, 0xc1, 0x3d, 0x0a, 0x28, 0x98, 0x3c,
  0xb2, 0x52, 0x17, 0xbe, 0xbf, 0xfe, 0x35, 0x3d, 0xf5, 0xa3, 0x37, 0xbe,
  0x3e, 0x13, 0x6f, 0xba, 0xc5, 0x86, 0x85, 0x3f, 0xa4, 0x99, 0x08, 0x3e,
  0xb1, 0x9e, 0xb4, 0xbd, 0xe8, 0x22, 0x9d, 0xbc, 0xd6, 0xfb, 0xed, 0x3b,
  0x84, 0xc5, 0x2b, 0xbd, 0x60, 0xf6, 0x79, 0x3d, 0x8b, 0x64, 0x32, 0xbe,
  0x04, 0x6a, 0x89, 0xbd, 0x28, 0x57, 0x57, 0x3f, 0x67, 0xa4, 0x08, 0x3e,
  0x40, 0xe9, 0x25, 0xbe, 0xb1, 0x70, 0xe8, 0xbd, 0xbc, 0x92, 0xbe, 0x3d,
  0x00, 0x56, 0x0b, 0xbe, 0xa1, 0x98, 0x8e, 0xbd, 0x62, 0xd6, 0x75, 0x3f,
  0xfe, 0x58, 0x90, 0xbd, 0xd4, 0x6d, 0x36, 0xbe, 0xe1, 0xd2, 0xda, 0x3d,
  0x60, 0xb1, 0x8c, 0xbc, 0x7f, 0x32, 0x1a, 0x3c, 0xe0, 0xce, 0xdc, 0xbc,
  0xdb, 0xe7, 0x28, 0x3e, 0x51, 0xf8, 0x40, 0xbe, 0xd9, 0x25, 0x86, 0x3f,
  0xae, 0x56, 0x15, 0x3e, 0xda, 0x86, 0xd9, 0xbd, 0x60, 0x0d, 0x92, 0x3b,
  0x46, 0x90, 0xd5, 0x3b, 0xb9, 0xd3, 0x91, 0xbd, 0x88, 0x2e, 0x85, 0xbd,
  0xb4, 0x85, 0x8b, 0x3f, 0xe6, 0xb9, 0xfd, 0x3c, 0xe3, 0xec, 0x16, 0xbe,
  0x2a, 0x13, 0x93, 0xbc, 0xb3, 0x4a, 0xa5, 0xbd, 0xbd, 0xa7, 0x25, 0xbd,
  0xf7, 0xb0, 0xaf, 0x3d, 0x65, 0x17, 0x15, 0x3c, 0xd1, 0x3b, 0x13, 0x3d,
  0xb4, 0x32, 0x57, 0xbd, 0x91, 0xb7, 0x0f, 0x3c, 0x66, 0xfe, 0x2f, 0xbe,
  0x36, 0x8b, 0x17, 0xbe, 0x9e, 0x7a, 0xfe, 0x3c, 0xdd, 0x1c, 0xef, 0x3d,
  0xcf, 0xce, 0xd1, 0xbd, 0x66, 0x3c, 0x8c, 0xbd, 0xb1, 0xfa, 0x61, 0x3d,
  0x94, 0x4d, 0x9c, 0x3d, 0x04, 0xd4, 0x82, 0xbd, 0x53, 0xdb, 0xd0, 0xbd,
  0x9d, 0x0b, 0x5b, 0xbd, 0x6a, 0x64, 0x0a, 0x3e, 0xe5, 0x7c, 0xa3, 0xbd,
  0xb6, 0xb1, 0x4a, 0x3e, 0x34, 0x61, 0x60, 0x3c, 0x0d, 0xbe, 0x03, 0x3d,
  0xfb, 0x30, 0x48, 0xbe, 0x98, 0xff, 0x52, 0x3d, 0xb0, 0xe6, 0x59, 0xbb,
  0x68, 0x06, 0x43, 0x3e, 0xa3, 0xf4, 0x9e, 0xbd, 0xe1, 0xc4, 0x37, 0x3d,
  0x5f, 0x24, 0x36, 0x3d, 0xe9, 0x55, 0x69, 0xbd, 0x74, 0xe6, 0x82, 0xbd,
  0xea, 0xea, 0x63, 0x3c, 0xe6, 0xcc, 0x3f, 0xbe, 0x8f, 0xdc, 0xf1, 0xbd,
  0xfe, 0x34, 0x33, 0x3d, 0xb6, 0xc0, 0xd8, 0x3c, 0x45, 0x3b, 0xf9, 0xbd,
  0x11, 0x9c, 0x9b, 0x3d, 0xc8, 0xfb, 0x2a, 0x3e, 0x78, 0x45, 0xce, 0x3d,
  0x70, 0x51, 0x5a, 0xbe, 0x83, 0x24, 0x89, 0x3d, 0x3d, 0x69, 0x2e, 0xbb,
  0x85, 0x50, 0xbf, 0x3d, 0x74, 0xa1, 0xd3, 0xbd, 0x40, 0xce, 0xe2, 0x3d,
  0x83, 0x03, 0x08, 0xbe, 0xbe, 0xaa, 0x19, 0x3e, 0x09, 0x6a, 0x07, 0xbe,
  0xd8, 0x96, 0x3c, 0xbe, 0xa4, 0x96, 0x96, 0xbd, 0x1e, 0xb7, 0xc3, 0xbd,
  0x23, 0x4e, 0x92, 0x3f, 0xaa, 0x71, 0x7f, 0xbd, 0x98, 0xaa, 0x13, 0x3c,
  0x8c, 0x9c, 0x0f, 0xbe, 0x3b, 0x04, 0xce, 0x3c, 0x42, 0xc6, 0x50, 0xbd,
  0xfe, 0x9a, 0xf2, 0x3b, 0x95, 0xc2, 0x8d, 0x3f, 0x46, 0x11, 0x32, 0x3e,
  0x20, 0xb5, 0x05, 0x3d, 0xb8, 0x2c, 0x6c, 0x3e, 0xfa, 0xa5, 0xfc, 0x3d,
  0x93, 0xe8, 0xa8, 0x3d, 0x6d, 0xa0, 0xe2, 0xbd, 0xd0, 0x80, 0x2a, 0x3e,
  0x2c, 0x46, 0x1e, 0x3e, 0xf1, 0xef, 0x85, 0x3f, 0xec, 0x4a, 0xf5, 0xbd,
  0x54, 0xca, 0x06, 0x3e, 0x57, 0x7e, 0xd7, 0xbd, 0x7f, 0x11, 0xf7, 0xbc,
  0xdc, 0x07, 0x17, 0x3d, 0x0d, 0x7a, 0x8d, 0xbd, 0xa7, 0xd3, 0x8a, 0x3f,
  0x23, 0x8d, 0xd8, 0xbd, 0xc3, 0x04, 0x9f, 0xbd, 0x2f, 0x86, 0x68, 0x3e,
  0xc3, 0xe4, 0x00, 0xbe, 0x56, 0x22, 0x2a, 0x3e, 0x13, 0x4a, 0x0f, 0xbd,
  0x8d, 0x5a, 0xce, 0xbd, 0x08, 0x41, 0x80, 0x3d, 0xd5, 0x6b, 0x5b, 0x3f,
  0xcc, 0xbc, 0x9d, 0xbd, 0x5c, 0x29, 0x06, 0xbe, 0xd7, 0xba, 0xfa, 0xbd,
  0x1a, 0x26, 0xe2, 0xbd, 0x4b, 0xff, 0xfc, 0x3d, 0x59, 0x59, 0xa8, 0x3c,
  0xdd, 0x1f, 0x5e, 0x3f, 0x4e, 0x38, 0x2d, 0x3e, 0xf5, 0x6b, 0x64, 0x3d,
  0x6e, 0xed, 0x88, 0xbd, 0x9f, 0x31, 0x1a, 0x3e, 0xe5, 0xb6, 0x57, 0x3e,
  0x82, 0x69, 0x0b, 0xbe, 0xd7, 0xe8, 0x27, 0x3e, 0xf7, 0xa1, 0x24, 0x3e,
  0x9a, 0x49, 0x25, 0x3f, 0x0b, 0xf4, 0x02, 0x3e, 0x61, 0xb8, 0xfb, 0xbc,
  0x54, 0x1a, 0x9e, 0x3d, 0x1e, 0x19, 0xde, 0x3c, 0x4f, 0xd9, 0xfc, 0x3d,
  0xf5, 0x61, 0x6e, 0x3e, 0x7d, 0xc9, 0x36, 0x3f, 0xa3, 0xfa, 0x73, 0xbd,
  0x09, 0x3f, 0x8f, 0xbd, 0x41, 0x85, 0x87, 0xbd, 0x1b, 0x3e, 0x6c, 0xbe,
  0xbc, 0xc0, 0x51, 0xbd, 0x21, 0x0e, 0x11, 0xbe, 0x5a, 0x09, 0x0a, 0x3e,
  0x34, 0xa9, 0x86, 0xbd, 0x9d, 0xee, 0x1d, 0x3f, 0x6e, 0x82, 0x36, 0x3d,
  0x89, 0x18, 0xd0, 0xbd, 0x2f, 0xe0, 0xa2, 0xbd, 0x55, 0x3a, 0x69, 0x3e,
  0x7d, 0x7e, 0xd4, 0x3d, 0x40, 0x7b, 0x39, 0x3e, 0x4f, 0x2e, 0x60, 0x3f,
  0x07, 0x87, 0xa6, 0x3d, 0x97, 0xec, 0x16, 0x3d, 0x79, 0x32, 0x80, 0x3e,
  0x26, 0x5d, 0x1f, 0x3e, 0x7d, 0x6b, 0x16, 0x3d, 0xb9, 0x77, 0xa5, 0xbb,
  0x6f, 0x8e, 0x33, 0x3e, 0x58, 0xfd, 0x39, 0x3d, 0x17, 0x2d, 0x30, 0x3f,
  0x9e, 0x99, 0xd0, 0xbd, 0x34, 0xe6, 0xb1, 0x3c, 0x2b, 0xaa, 0xc7, 0xbd,
  0x33, 0x7e, 0x45, 0x3e, 0xe1, 0xa8, 0x7f, 0xbd, 0xca, 0x70, 0x82, 0x3e,
  0xbf, 0xec, 0x6c, 0x3f, 0xfc, 0xbd, 0x40, 0x3d, 0xfb, 0x3b, 0x36, 0xbd,
  0xe3, 0x00, 0xdb, 0x3d, 0x5c, 0xdd, 0xaa, 0xbd, 0x8f, 0x64, 0x97, 0x3e,
  0x82, 0xa4, 0xb1, 0xbd, 0xfd, 0x3b, 0x22, 0x3c, 0x91, 0xa8, 0x2c, 0xbe,
  0x45, 0xa7, 0x80, 0x3f, 0xe7, 0xda, 0x48, 0x3e, 0x13, 0xaf, 0x0c, 0x3d,
  0x8e, 0xf8, 0x18, 0xbe, 0xeb, 0x97, 0x16, 0x3e, 0xcc, 0xed, 0x99, 0x3d,
  0x8b, 0x90, 0x98, 0x3e, 0xbc, 0x11, 0x67, 0x3f, 0x8c, 0x99, 0x53, 0x3e,
  0xd9, 0x46, 0x18, 0xbd, 0xe8, 0xee, 0x5a, 0x3e, 0x80, 0xb2, 0xb6, 0x3d,
  0xaa, 0xf8, 0x22, 0xbc, 0xd7, 0x7b, 0x5f, 0xbd, 0x1f, 0x1e, 0x2f, 0x3e,
  0x4b, 0xea, 0x62, 0xbc, 0xfd, 0xd7, 0x41, 0x3f, 0x50, 0xdd, 0xae, 0x3d,
  0xbc, 0x63, 0x48, 0x3e, 0xdc, 0xc8, 0x17, 0x3e, 0x82, 0xab, 0x51, 0xbb,
  0xf1, 0x45, 0xa1, 0xbd, 0xb9, 0xca, 0x4c, 0x3e, 0xee, 0x06, 0x25, 0x3f,
  0x33, 0x3e, 0x93, 0x3d, 0x0b, 0x2f, 0xe3, 0x3d, 0x68, 0xac, 0x15, 0x3e,
  0x65, 0x07, 0xf6, 0xbd, 0xa4, 0xf8, 0x3d, 0x3e, 0xca, 0x42, 0x17, 0x3e,
  0x2b, 0xf7, 0x2e, 0x3d, 0x74, 0xa9, 0xf5, 0xbd, 0xd9, 0x25, 0x74, 0x3f,
  0xb9, 0xae, 0x3d, 0x3e, 0xe8, 0xd6, 0x97, 0x3e, 0xd0, 0x72, 0xa8, 0x3d,
  0xb6, 0x20, 0x0d, 0x3e, 0x89, 0x7d, 0x81, 0x3d, 0x96, 0x15, 0x7a, 0xbd,
  0x04, 0xe0, 0x72, 0x3f, 0x36, 0xfe, 0xff, 0xff, 0x04, 0x00, 0x00, 0x00,
  0x0c, 0x00, 0x00, 0x00, 0xff, 0xff, 0xff, 0xff, 0x62, 0x00, 0x00, 0x00,
  0x10, 0x00, 0x00, 0x00, 0x4e, 0xfe, 0xff, 0xff, 0x04, 0x00, 0x00, 0x00,
  0x0c, 0x00, 0x00, 0x00, 0xff, 0xff, 0xff, 0xff, 0x31, 0x00, 0x00, 0x00,
  0x10, 0x00, 0x00, 0x00, 0x66, 0xfe, 0xff, 0xff, 0x04, 0x00, 0x00, 0x00,
  0x0c, 0x00, 0x00, 0x00, 0xff, 0xff, 0xff, 0xff, 0x2f, 0x00, 0x00, 0x00,
  0x20, 0x00, 0x00, 0x00, 0x7e, 0xfe, 0xff, 0xff, 0x04, 0x00, 0x00, 0x00,
  0x40, 0x00, 0x00, 0x00, 0x05, 0xa1, 0xb7, 0x3d, 0x97, 0x77, 0xac, 0x3d,
  0x59, 0x83, 0x7e, 0x3d, 0x60, 0xae, 0xf1, 0xba, 0x5d, 0x8b, 0xb4, 0x3d,
  0xff, 0x6b, 0xc4, 0xbb, 0x74, 0xd0, 0xc4, 0xbb, 0xe8, 0x5a, 0xc4, 0xbb,
  0x59, 0x4a, 0x2b, 0xbd, 0x16, 0xa0, 0xb4, 0x3d, 0x79, 0xe7, 0xbc, 0x3d,
  0x00, 0x00, 0x00, 0x00, 0x46, 0x8e, 0xb1, 0x3d, 0x77, 0x80, 0xb9, 0x3d,
  0xe6, 0x7f, 0xb2, 0x3d, 0x6c, 0x79, 0x30, 0xbd, 0xca, 0xfe, 0xff, 0xff,
  0x04, 0x00, 0x00, 0x00, 0x80, 0x00, 0x00, 0x00, 0xaf, 0x86, 0x7a, 0xbb,
  0x91, 0xcb, 0xaf, 0x3d, 0x38, 0x9b, 0x6b, 0xbc, 0xce, 0xd2, 0x86, 0x3d,
  0x18, 0x20, 0x12, 0xbc, 0xcc, 0xc8, 0x1b, 0xbc, 0x00, 0x00, 0x00, 0x00,
  0x00, 0x07, 0xc8, 0xbb, 0xa7, 0x8c, 0x1b, 0xbc, 0xdd, 0x00, 0x67, 0xbc,
  0xd0, 0x0a, 0xb9, 0x3d, 0xd3, 0x8c, 0xd2, 0xbb, 0xff, 0xd2, 0xcc, 0x3d,
  0x2f, 0x67, 0xac, 0xbb, 0x5f, 0xa1, 0xa8, 0x3d, 0xc1, 0xfa, 0xc5, 0xbb,
  0x15, 0x44, 0xc4, 0xbb, 0x60, 0xde, 0x59, 0xbb, 0x79, 0x29, 0x81, 0xbc,
  0x35, 0x40, 0xa9, 0x3d, 0xeb, 0x8d, 0x87, 0xbb, 0xf8, 0xb4, 0x8c, 0xbc,
  0x5f, 0x31, 0x8e, 0x3d, 0xa0, 0xf5, 0xc1, 0x3d, 0x8c, 0x83, 0xd0, 0xbb,
  0x86, 0x99, 0xb4, 0x3d, 0xe8, 0x41, 0x9d, 0xba, 0xfa, 0x76, 0xfc, 0xbb,
  0x12, 0x2c, 0xe1, 0xbb, 0xda, 0xeb, 0xbc, 0x3c, 0x9e, 0x64, 0xb0, 0x3d,
  0x6c, 0xd0, 0xb2, 0x3d, 0x58, 0xf1, 0xff, 0xff, 0x5c, 0xf1, 0xff, 0xff,
  0x0f, 0x00, 0x00, 0x00, 0x4d, 0x4c, 0x49, 0x52, 0x20, 0x43, 0x6f, 0x6e,
  0x76, 0x65, 0x72, 0x74, 0x65, 0x64, 0x2e, 0x00, 0x01, 0x00, 0x00, 0x00,
  0x14, 0x00, 0x00, 0x00, 0x00, 0x00, 0x0e, 0x00, 0x18, 0x00, 0x14, 0x00,
  0x10, 0x00, 0x0c, 0x00, 0x08, 0x00, 0x04, 0x00, 0x0e, 0x00, 0x00, 0x00,
  0x14, 0x00, 0x00, 0x00, 0x1c, 0x00, 0x00, 0x00, 0x2c, 0x03, 0x00, 0x00,
  0x30, 0x03, 0x00, 0x00, 0x34, 0x03, 0x00, 0x00, 0x04, 0x00, 0x00, 0x00,
  0x6d, 0x61, 0x69, 0x6e, 0x00, 0x00, 0x00, 0x00, 0x0d, 0x00, 0x00, 0x00,
  0xe4, 0x02, 0x00, 0x00, 0x80, 0x02, 0x00, 0x00, 0x48, 0x02, 0x00, 0x00,
  0x0c, 0x02, 0x00, 0x00, 0xb8, 0x01, 0x00, 0x00, 0x90, 0x01, 0x00, 0x00,
  0x60, 0x01, 0x00, 0x00, 0x18, 0x01, 0x00, 0x00, 0xf0, 0x00, 0x00, 0x00,
  0xbc, 0x00, 0x00, 0x00, 0x78, 0x00, 0x00, 0x00, 0x40, 0x00, 0x00, 0x00,
  0x04, 0x00, 0x00, 0x00, 0xbe, 0xfd, 0xff, 0xff, 0x1c, 0x00, 0x00, 0x00,
  0x00, 0x00, 0x00, 0x09, 0x1c, 0x00, 0x00, 0x00, 0x20, 0x00, 0x00, 0x00,
  0x06, 0x00, 0x00, 0x00, 0x00, 0x00, 0x06, 0x00, 0x08, 0x00, 0x04, 0x00,
  0x06, 0x00, 0x00, 0x00, 0x00, 0x00, 0x80, 0x3f, 0x01, 0x00, 0x00, 0x00,
  0x1a, 0x00, 0x00, 0x00, 0x01, 0x00, 0x00, 0x00, 0x19, 0x00, 0x00, 0x00,
  0xf6, 0xfd, 0xff, 0xff, 0x14, 0x00, 0x00, 0x00, 0x00, 0x00, 0x00, 0x08,
  0x10, 0x00, 0x00, 0x00, 0x14, 0x00, 0x00, 0x00, 0x05, 0x00, 0x00, 0x00,
  0x38, 0xf2, 0xff, 0xff, 0x01, 0x00, 0x00, 0x00, 0x19, 0x00, 0x00, 0x00,
  0x03, 0x00, 0x00, 0x00, 0x18, 0x00, 0x00, 0x00, 0x08, 0x00, 0x00, 0x00,
  0x0b, 0x00, 0x00, 0x00, 0x2a, 0xfe, 0xff, 0xff, 0x1c, 0x00, 0x00, 0x00,
  0x00, 0x00, 0x00, 0x08, 0x1c, 0x00, 0x00, 0x00, 0x20, 0x00, 0x00, 0x00,
  0x05, 0x00, 0x00, 0x00, 0x00, 0x00, 0x06, 0x00, 0x08, 0x00, 0x07, 0x00,
  0x06, 0x00, 0x00, 0x00, 0x00, 0x00, 0x00, 0x01, 0x01, 0x00, 0x00, 0x00,
  0x18, 0x00, 0x00, 0x00, 0x03, 0x00, 0x00, 0x00, 0x17, 0x00, 0x00, 0x00,
  0x09, 0x00, 0x00, 0x00, 0x0a, 0x00, 0x00, 0x00, 0x6a, 0xfe, 0xff, 0xff,
  0x14, 0x00, 0x00, 0x00, 0x00, 0x00, 0x00, 0x1b, 0x10, 0x00, 0x00, 0x00,
  0x14, 0x00, 0x00, 0x00, 0x04, 0x00, 0x00, 0x00, 0xac, 0xf2, 0xff, 0xff,
  0x01, 0x00, 0x00, 0x00, 0x17, 0x00, 0x00, 0x00, 0x02, 0x00, 0x00, 0x00,
  0x16, 0x00, 0x00, 0x00, 0x0c, 0x00, 0x00, 0x00, 0xca, 0xfe, 0xff, 0xff,
  0x0c, 0x00, 0x00, 0x00, 0x10, 0x00, 0x00, 0x00, 0x02, 0x00, 0x00, 0x00,
  0x01, 0x00, 0x00, 0x00, 0x16, 0x00, 0x00, 0x00, 0x02, 0x00, 0x00, 0x00,
  0x15, 0x00, 0x00, 0x00, 0x03, 0x00, 0x00, 0x00, 0xbe, 0xfe, 0xff, 0xff,
  0x14, 0x00, 0x00, 0x00, 0x00, 0x00, 0x00, 0x01, 0x20, 0x00, 0x00, 0x00,
  0x24, 0x00, 0x00, 0x00, 0x01, 0x00, 0x00, 0x00, 0xb0, 0xfe, 0xff, 0xff,
  0x00, 0x00, 0x00, 0x01, 0x01, 0x00, 0x00, 0x00, 0x01, 0x00, 0x00, 0x00,
  0x00, 0x00, 0x00, 0x01, 0x01, 0x00, 0x00, 0x00, 0x15, 0x00, 0x00, 0x00,
  0x03, 0x00, 0x00, 0x00, 0x14, 0x00, 0x00, 0x00, 0x06, 0x00, 0x00, 0x00,
  0x01, 0x00, 0x00, 0x00, 0xa2, 0xfe, 0xff, 0xff, 0x10, 0x00, 0x00, 0x00,
  0x00, 0x00, 0x00, 0x34, 0x0c, 0x00, 0x00, 0x00, 0x10, 0x00, 0x00, 0x00,
  0x40, 0xf3, 0xff, 0xff, 0x01, 0x00, 0x00, 0x00, 0x14, 0x00, 0x00, 0x00,
  0x02, 0x00, 0x00, 0x00, 0x13, 0x00, 0x00, 0x00, 0x0d, 0x00, 0x00, 0x00,
  0x5e, 0xff, 0xff, 0xff, 0x0c, 0x00, 0x00, 0x00, 0x10, 0x00, 0x00, 0x00,
  0x02, 0x00, 0x00, 0x00, 0x01, 0x00, 0x00, 0x00, 0x13, 0x00, 0x00, 0x00,
  0x02, 0x00, 0x00, 0x00, 0x12, 0x00, 0x00, 0x00, 0x04, 0x00, 0x00, 0x00,
  0x52, 0xff, 0xff, 0xff, 0x24, 0x00, 0x00, 0x00, 0x00, 0x00, 0x00, 0x05,
  0x34, 0x00, 0x00, 0x00, 0x38, 0x00, 0x00, 0x00, 0x03, 0x00, 0x00, 0x00,
  0x00, 0x00, 0x0e, 0x00, 0x18, 0x00, 0x17, 0x00, 0x10, 0x00, 0x0c, 0x00,
  0x08, 0x00, 0x04, 0x00, 0x0e, 0x00, 0x00, 0x00, 0x01, 0x00, 0x00, 0x00,
  0x02, 0x00, 0x00, 0x00, 0x01, 0x00, 0x00, 0x00, 0x02, 0x00, 0x00, 0x00,
  0x00, 0x00, 0x00, 0x01, 0x01, 0x00, 0x00, 0x00, 0x12, 0x00, 0x00, 0x00,
  0x01, 0x00, 0x00, 0x00, 0x11, 0x00, 0x00, 0x00, 0x42, 0xff, 0xff, 0xff,
  0x10, 0x00, 0x00, 0x00, 0x00, 0x00, 0x00, 0x34, 0x0c, 0x00, 0x00, 0x00,
  0x10, 0x00, 0x00, 0x00, 0xe0, 0xf3, 0xff, 0xff, 0x01, 0x00, 0x00, 0x00,
  0x11, 0x00, 0x00, 0x00, 0x02, 0x00, 0x00, 0x00, 0x10, 0x00, 0x00, 0x00,
  0x0c, 0x00, 0x00, 0x00, 0x00, 0x00, 0x0a, 0x00, 0x10, 0x00, 0x0c, 0x00,
  0x08, 0x00, 0x04, 0x00, 0x0a, 0x00, 0x00, 0x00, 0x0c, 0x00, 0x00, 0x00,
  0x10, 0x00, 0x00, 0x00, 0x02, 0x00, 0x00, 0x00, 0x01, 0x00, 0x00, 0x00,
  0x10, 0x00, 0x00, 0x00, 0x02, 0x00, 0x00, 0x00, 0x0f, 0x00, 0x00, 0x00,
  0x05, 0x00, 0x00, 0x00, 0x00, 0x00, 0x0e, 0x00, 0x18, 0x00, 0x14, 0x00,
  0x10, 0x00, 0x0c, 0x00, 0x0b, 0x00, 0x04, 0x00, 0x0e, 0x00, 0x00, 0x00,
  0x20, 0x00, 0x00, 0x00, 0x00, 0x00, 0x00, 0x01, 0x2c, 0x00, 0x00, 0x00,
  0x30, 0x00, 0x00, 0x00, 0x01, 0x00, 0x00, 0x00, 0x0c, 0x00, 0x14, 0x00,
  0x13, 0x00, 0x0c, 0x00, 0x08, 0x00, 0x07, 0x00, 0x0c, 0x00, 0x00, 0x00,
  0x00, 0x00, 0x00, 0x01, 0x01, 0x00, 0x00, 0x00, 0x01, 0x00, 0x00, 0x00,
  0x00, 0x00, 0x00, 0x01, 0x01, 0x00, 0x00, 0x00, 0x0f, 0x00, 0x00, 0x00,
  0x03, 0x00, 0x00, 0x00, 0x0e, 0x00, 0x00, 0x00, 0x07, 0x00, 0x00, 0x00,
  0x02, 0x00, 0x00, 0x00, 0x00, 0x00, 0x0e, 0x00, 0x14, 0x00, 0x00, 0x00,
  0x10, 0x00, 0x0c, 0x00, 0x0b, 0x00, 0x04, 0x00, 0x0e, 0x00, 0x00, 0x00,
  0x10, 0x00, 0x00, 0x00, 0x00, 0x00, 0x00, 0x34, 0x0c, 0x00, 0x00, 0x00,
  0x10, 0x00, 0x00, 0x00, 0xac, 0xf4, 0xff, 0xff, 0x01, 0x00, 0x00, 0x00,
  0x0e, 0x00, 0x00, 0x00, 0x02, 0x00, 0x00, 0x00, 0x00, 0x00, 0x00, 0x00,
  0x0d, 0x00, 0x00, 0x00, 0x01, 0x00, 0x00, 0x00, 0x1a, 0x00, 0x00, 0x00,
  0x01, 0x00, 0x00, 0x00, 0x00, 0x00, 0x00, 0x00, 0x1b, 0x00, 0x00, 0x00,
  0xfc, 0x0a, 0x00, 0x00, 0xa8, 0x0a, 0x00, 0x00, 0x54, 0x0a, 0x00, 0x00,
  0x14, 0x0a, 0x00, 0x00, 0xbc, 0x09, 0x00, 0x00, 0x7c, 0x09, 0x00, 0x00,
  0x34, 0x09, 0x00, 0x00, 0xec, 0x08, 0x00, 0x00, 0xac, 0x08, 0x00, 0x00,
  0x6c, 0x08, 0x00, 0x00, 0x30, 0x08, 0x00, 0x00, 0xf0, 0x07, 0x00, 0x00,
  0xb0, 0x07, 0x00, 0x00, 0x70, 0x07, 0x00, 0x00, 0xf0, 0x06, 0x00, 0x00,
  0x18, 0x06, 0x00, 0x00, 0x6c, 0x05, 0x00, 0x00, 0xe8, 0x04, 0x00, 0x00,
  0x70, 0x04, 0x00, 0x00, 0xf8, 0x03, 0x00, 0x00, 0x78, 0x03, 0x00, 0x00,
  0x98, 0x02, 0x00, 0x00, 0xe4, 0x01, 0x00, 0x00, 0x74, 0x01, 0x00, 0x00,
  0xe0, 0x00, 0x00, 0x00, 0x60, 0x00, 0x00, 0x00, 0x04, 0x00, 0x00, 0x00,
  0x86, 0xf5, 0xff, 0xff, 0x00, 0x00, 0x00, 0x01, 0x14, 0x00, 0x00, 0x00,
  0x1c, 0x00, 0x00, 0x00, 0x1c, 0x00, 0x00, 0x00, 0x1b, 0x00, 0x00, 0x00,
  0x34, 0x00, 0x00, 0x00, 0x02, 0x00, 0x00, 0x00, 0xff, 0xff, 0xff, 0xff,
  0x05, 0x00, 0x00, 0x00, 0x6c, 0xf5, 0xff, 0xff, 0x1b, 0x00, 0x00, 0x00,
  0x53, 0x74, 0x61, 0x74, 0x65, 0x66, 0x75, 0x6c, 0x50, 0x61, 0x72, 0x74,
  0x69, 0x74, 0x69, 0x6f, 0x6e, 0x65, 0x64, 0x43, 0x61, 0x6c, 0x6c, 0x5f,
  0x31, 0x3a, 0x30, 0x00, 0x02, 0x00, 0x00, 0x00, 0x01, 0x00, 0x00, 0x00,
  0x05, 0x00, 0x00, 0x00, 0xde, 0xf5, 0xff, 0xff, 0x00, 0x00, 0x00, 0x01,
  0x14, 0x00, 0x00, 0x00, 0x1c, 0x00, 0x00, 0x00, 0x1c, 0x00, 0x00, 0x00,
  0x1a, 0x00, 0x00, 0x00, 0x58, 0x00, 0x00, 0x00, 0x02, 0x00, 0x00, 0x00,
  0xff, 0xff, 0xff, 0xff, 0x05, 0x00, 0x00, 0x00, 0xc4, 0xf5, 0xff, 0xff,
  0x3c, 0x00, 0x00, 0x00, 0x73, 0x65, 0x71, 0x75, 0x65, 0x6e, 0x74, 0x69,
  0x61, 0x6c, 0x5f, 0x31, 0x2f, 0x64, 0x65, 0x6e, 0x73, 0x65, 0x5f, 0x31,
  0x5f, 0x32, 0x2f, 0x4d, 0x61, 0x74, 0x4d, 0x75, 0x6c, 0x3b, 0x73, 0x65,
  0x71, 0x75, 0x65, 0x6e, 0x74, 0x69, 0x61, 0x6c, 0x5f, 0x31, 0x2f, 0x64,
  0x65, 0x6e, 0x73, 0x65, 0x5f, 0x31, 0x5f, 0x32, 0x2f, 0x42, 0x69, 0x61,
  0x73, 0x41, 0x64, 0x64, 0x00, 0x00, 0x00, 0x00, 0x02, 0x00, 0x00, 0x00,
  0x01, 0x00, 0x00, 0x00, 0x05, 0x00, 0x00, 0x00, 0x5a, 0xf6, 0xff, 0xff,
  0x00, 0x00, 0x00, 0x01, 0x14, 0x00, 0x00, 0x00, 0x1c, 0x00, 0x00, 0x00,
  0x1c, 0x00, 0x00, 0x00, 0x19, 0x00, 0x00, 0x00, 0x6c, 0x00, 0x00, 0x00,
  0x02, 0x00, 0x00, 0x00, 0xff, 0xff, 0xff, 0xff, 0x10, 0x00, 0x00, 0x00,
  0x40, 0xf6, 0xff, 0xff, 0x52, 0x00, 0x00, 0x00, 0x73, 0x65, 0x71, 0x75,
  0x65, 0x6e, 0x74, 0x69, 0x61, 0x6c, 0x5f, 0x31, 0x2f, 0x64, 0x65, 0x6e,
  0x73, 0x65, 0x5f, 0x31, 0x2f, 0x4d, 0x61, 0x74, 0x4d, 0x75, 0x6c, 0x3b,
  0x73, 0x65, 0x71, 0x75, 0x65, 0x6e, 0x74, 0x69, 0x61, 0x6c, 0x5f, 0x31,
  0x2f, 0x64, 0x65, 0x6e, 0x73, 0x65, 0x5f, 0x31, 0x2f, 0x52, 0x65, 0x6c,
  0x75, 0x3b, 0x73, 0x65, 0x71, 0x75, 0x65, 0x6e, 0x74, 0x69, 0x61, 0x6c,
  0x5f, 0x31, 0x2f, 0x64, 0x65, 0x6e, 0x73, 0x65, 0x5f, 0x31, 0x2f, 0x42,
  0x69, 0x61, 0x73, 0x41, 0x64, 0x64, 0x00, 0x00, 0x02, 0x00, 0x00, 0x00,
  0x01, 0x00, 0x00, 0x00, 0x10, 0x00, 0x00, 0x00, 0xea, 0xf6, 0xff, 0xff,
  0x00, 0x00, 0x00, 0x01, 0x14, 0x00, 0x00, 0x00, 0x1c, 0x00, 0x00, 0x00,
  0x1c, 0x00, 0x00, 0x00, 0x18, 0x00, 0x00, 0x00, 0x48, 0x00, 0x00, 0x00,
  0x02, 0x00, 0x00, 0x00, 0xff, 0xff, 0xff, 0xff, 0x20, 0x00, 0x00, 0x00,
  0xd0, 0xf6, 0xff, 0xff, 0x2c, 0x00, 0x00, 0x00, 0x73, 0x65, 0x71, 0x75,
  0x65, 0x6e, 0x74, 0x69, 0x61, 0x6c, 0x5f, 0x31, 0x2f, 0x67, 0x6c, 0x6f,
  0x62, 0x61, 0x6c, 0x5f, 0x61, 0x76, 0x65, 0x72, 0x61, 0x67, 0x65, 0x5f,
  0x70, 0x6f, 0x6f, 0x6c, 0x69, 0x6e, 0x67, 0x31, 0x64, 0x5f, 0x31, 0x2f,
  0x4d, 0x65, 0x61, 0x6e, 0x00, 0x00, 0x00, 0x00, 0x02, 0x00, 0x00, 0x00,
  0x01, 0x00, 0x00, 0x00, 0x20, 0x00, 0x00, 0x00, 0x56, 0xf7, 0xff, 0xff,
  0x00, 0x00, 0x00, 0x01, 0x14, 0x00, 0x00, 0x00, 0x20, 0x00, 0x00, 0x00,
  0x20, 0x00, 0x00, 0x00, 0x17, 0x00, 0x00, 0x00, 0x88, 0x00, 0x00, 0x00,
  0x03, 0x00, 0x00, 0x00, 0xff, 0xff, 0xff, 0xff, 0x2f, 0x00, 0x00, 0x00,
  0x20, 0x00, 0x00, 0x00, 0x40, 0xf7, 0xff, 0xff, 0x69, 0x00, 0x00, 0x00,
  0x73, 0x65, 0x71, 0x75, 0x65, 0x6e, 0x74, 0x69, 0x61, 0x6c, 0x5f, 0x31,
  0x2f, 0x63, 0x6f, 0x6e, 0x76, 0x31, 0x64, 0x5f, 0x31, 0x5f, 0x32, 0x2f,
  0x52, 0x65, 0x6c, 0x75, 0x3b, 0x73, 0x65, 0x71, 0x75, 0x65, 0x6e, 0x74,
  0x69, 0x61, 0x6c, 0x5f, 0x31, 0x2f, 0x63, 0x6f, 0x6e, 0x76, 0x31, 0x64,
  0x5f, 0x31, 0x5f, 0x32, 0x2f, 0x42, 0x69, 0x61, 0x73, 0x41, 0x64, 0x64,
  0x3b, 0x73, 0x65, 0x71, 0x75, 0x65, 0x6e, 0x74, 0x69, 0x61, 0x6c, 0x5f,
  0x31, 0x2f, 0x63, 0x6f, 0x6e, 0x76, 0x31, 0x64, 0x5f, 0x31, 0x5f, 0x32,
  0x2f, 0x63, 0x6f, 0x6e, 0x76, 0x6f, 0x6c, 0x75, 0x74, 0x69, 0x6f, 0x6e,
  0x2f, 0x53, 0x71, 0x75, 0x65, 0x65, 0x7a, 0x65, 0x3b, 0x00, 0x00, 0x00,
  0x03, 0x00, 0x00, 0x00, 0x01, 0x00, 0x00, 0x00, 0x2f, 0x00, 0x00, 0x00,
  0x20, 0x00, 0x00, 0x00, 0x06, 0xf8, 0xff, 0xff, 0x00, 0x00, 0x00, 0x01,
  0x14, 0x00, 0x00, 0x00, 0x24, 0x00, 0x00, 0x00, 0x24, 0x00, 0x00, 0x00,
  0x16, 0x00, 0x00, 0x00, 0xb0, 0x00, 0x00, 0x00, 0x04, 0x00, 0x00, 0x00,
  0xff, 0xff, 0xff, 0xff, 0x01, 0x00, 0x00, 0x00, 0x2f, 0x00, 0x00, 0x00,
  0x20, 0x00, 0x00, 0x00, 0xf4, 0xf7, 0xff, 0xff, 0x8d, 0x00, 0x00, 0x00,
  0x73, 0x65, 0x71, 0x75, 0x65, 0x6e, 0x74, 0x69, 0x61, 0x6c, 0x5f, 0x31,
  0x2f, 0x63, 0x6f, 0x6e, 0x76, 0x31, 0x64, 0x5f, 0x31, 0x5f, 0x32, 0x2f,
  0x52, 0x65, 0x6c, 0x75, 0x3b, 0x73, 0x65, 0x71, 0x75, 0x65, 0x6e, 0x74,
  0x69, 0x61, 0x6c, 0x5f, 0x31, 0x2f, 0x63, 0x6f, 0x6e, 0x76, 0x31, 0x64,
  0x5f, 0x31, 0x5f, 0x32, 0x2f, 0x42, 0x69, 0x61, 0x73, 0x41, 0x64, 0x64,
  0x3b, 0x73, 0x65, 0x71, 0x75, 0x65, 0x6e, 0x74, 0x69, 0x61, 0x6c, 0x5f,
  0x31, 0x2f, 0x63, 0x6f, 0x6e, 0x76, 0x31, 0x64, 0x5f, 0x31, 0x5f, 0x32,
  0x2f, 0x63, 0x6f, 0x6e, 0x76, 0x6f, 0x6c, 0x75, 0x74, 0x69, 0x6f, 0x6e,
  0x2f, 0x53, 0x71, 0x75, 0x65, 0x65, 0x7a, 0x65, 0x3b, 0x3b, 0x73, 0x65,
  0x71, 0x75, 0x65, 0x6e, 0x74, 0x69, 0x61, 0x6c, 0x5f, 0x31, 0x2f, 0x63,
  0x6f, 0x6e, 0x76, 0x31, 0x64, 0x5f, 0x31, 0x5f, 0x32, 0x2f, 0x63, 0x6f,
  0x6e, 0x76, 0x6f, 0x6c, 0x75, 0x74, 0x69, 0x6f, 0x6e, 0x00, 0x00, 0x00,
  0x04, 0x00, 0x00, 0x00, 0x01, 0x00, 0x00, 0x00, 0x01, 0x00, 0x00, 0x00,
  0x2f, 0x00, 0x00, 0x00, 0x20, 0x00, 0x00, 0x00, 0xe2, 0xf8, 0xff, 0xff,
  0x00, 0x00, 0x00, 0x01, 0x14, 0x00, 0x00, 0x00, 0x24, 0x00, 0x00, 0x00,
  0x24, 0x00, 0x00, 0x00, 0x15, 0x00, 0x00, 0x00, 0x50, 0x00, 0x00, 0x00,
  0x04, 0x00, 0x00, 0x00, 0xff, 0xff, 0xff, 0xff, 0x01, 0x00, 0x00, 0x00,
  0x31, 0x00, 0x00, 0x00, 0x10, 0x00, 0x00, 0x00, 0xd0, 0xf8, 0xff, 0xff,
  0x2e, 0x00, 0x00, 0x00, 0x73, 0x65, 0x71, 0x75, 0x65, 0x6e, 0x74, 0x69,
  0x61, 0x6c, 0x5f, 0x31, 0x2f, 0x63, 0x6f, 0x6e, 0x76, 0x31, 0x64, 0x5f,
  0x31, 0x5f, 0x32, 0x2f, 0x63, 0x6f, 0x6e, 0x76, 0x6f, 0x6c, 0x75, 0x74,
  0x69, 0x6f, 0x6e, 0x2f, 0x45, 0x78, 0x70, 0x61, 0x6e, 0x64, 0x44, 0x69,
  0x6d, 0x73, 0x00, 0x00, 0x04, 0x00, 0x00, 0x00, 0x01, 0x00, 0x00, 0x00,
  0x01, 0x00, 0x00, 0x00, 0x31, 0x00, 0x00, 0x00, 0x10, 0x00, 0x00, 0x00,
  0x5e, 0xf9, 0xff, 0xff, 0x00, 0x00, 0x00, 0x01, 0x14, 0x00, 0x00, 0x00,
  0x20, 0x00, 0x00, 0x00, 0x20, 0x00, 0x00, 0x00, 0x14, 0x00, 0x00, 0x00,
  0x4c, 0x00, 0x00, 0x00, 0x03, 0x00, 0x00, 0x00, 0xff, 0xff, 0xff, 0xff,
  0x31, 0x00, 0x00, 0x00, 0x10, 0x00, 0x00, 0x00, 0x48, 0xf9, 0xff, 0xff,
  0x2e, 0x00, 0x00, 0x00, 0x73, 0x65, 0x71, 0x75, 0x65, 0x6e, 0x74, 0x69,
  0x61, 0x6c, 0x5f, 0x31, 0x2f, 0x6d, 0x61, 0x78, 0x5f, 0x70, 0x6f, 0x6f,
  0x6c, 0x69, 0x6e, 0x67, 0x31, 0x64, 0x5f, 0x31, 0x2f, 0x4d, 0x61, 0x78,
  0x50, 0x6f, 0x6f, 0x6c, 0x31, 0x64, 0x2f, 0x53, 0x71, 0x75, 0x65, 0x65,
  0x7a, 0x65, 0x00, 0x00, 0x03, 0x00, 0x00, 0x00, 0x01, 0x00, 0x00, 0x00,
  0x31, 0x00, 0x00, 0x00, 0x10, 0x00, 0x00, 0x00, 0xd2, 0xf9, 0xff, 0xff,
  0x00, 0x00, 0x00, 0x01, 0x14, 0x00, 0x00, 0x00, 0x24, 0x00, 0x00, 0x00,
  0x24, 0x00, 0x00, 0x00, 0x13, 0x00, 0x00, 0x00, 0x48, 0x00, 0x00, 0x00,
  0x04, 0x00, 0x00, 0x00, 0xff, 0xff, 0xff, 0xff, 0x01, 0x00, 0x00, 0x00,
  0x31, 0x00, 0x00, 0x00, 0x10, 0x00, 0x00, 0x00, 0xc0, 0xf9, 0xff, 0xff,
  0x26, 0x00, 0x00, 0x00, 0x73, 0x65, 0x71, 0x75, 0x65, 0x6e, 0x74, 0x69,
  0x61, 0x6c, 0x5f, 0x31, 0x2f, 0x6d, 0x61, 0x78, 0x5f, 0x70, 0x6f, 0x6f,
  0x6c, 0x69, 0x6e, 0x67, 0x31, 0x64, 0x5f, 0x31, 0x2f, 0x4d, 0x61, 0x78,
  0x50, 0x6f, 0x6f, 0x6c, 0x31, 0x64, 0x00, 0x00, 0x04, 0x00, 0x00, 0x00,
  0x01, 0x00, 0x00, 0x00, 0x01, 0x00, 0x00, 0x00, 0x31, 0x00, 0x00, 0x00,
  0x10, 0x00, 0x00, 0x00, 0x46, 0xfa, 0xff, 0xff, 0x00, 0x00, 0x00, 0x01,
  0x14, 0x00, 0x00, 0x00, 0x24, 0x00, 0x00, 0x00, 0x24, 0x00, 0x00, 0x00,
  0x12, 0x00, 0x00, 0x00, 0x54, 0x00, 0x00, 0x00, 0x04, 0x00, 0x00, 0x00,
  0xff, 0xff, 0xff, 0xff, 0x01, 0x00, 0x00, 0x00, 0x62, 0x00, 0x00, 0x00,
  0x10, 0x00, 0x00, 0x00, 0x34, 0xfa, 0xff, 0xff, 0x31, 0x00, 0x00, 0x00,
  0x73, 0x65, 0x71, 0x75, 0x65, 0x6e, 0x74, 0x69, 0x61, 0x6c, 0x5f, 0x31,
  0x2f, 0x6d, 0x61, 0x78, 0x5f, 0x70, 0x6f, 0x6f, 0x6c, 0x69, 0x6e, 0x67,
  0x31, 0x64, 0x5f, 0x31, 0x2f, 0x4d, 0x61, 0x78, 0x50, 0x6f, 0x6f, 0x6c,
  0x31, 0x64, 0x2f, 0x45, 0x78, 0x70, 0x61, 0x6e, 0x64, 0x44, 0x69, 0x6d,
  0x73, 0x00, 0x00, 0x00, 0x04, 0x00, 0x00, 0x00, 0x01, 0x00, 0x00, 0x00,
  0x01, 0x00, 0x00, 0x00, 0x62, 0x00, 0x00, 0x00, 0x10, 0x00, 0x00, 0x00,
  0xc6, 0xfa, 0xff, 0xff, 0x00, 0x00, 0x00, 0x01, 0x14, 0x00, 0x00, 0x00,
  0x20, 0x00, 0x00, 0x00, 0x20, 0x00, 0x00, 0x00, 0x11, 0x00, 0x00, 0x00,
  0x80, 0x00, 0x00, 0x00, 0x03, 0x00, 0x00, 0x00, 0xff, 0xff, 0xff, 0xff,
  0x62, 0x00, 0x00, 0x00, 0x10, 0x00, 0x00, 0x00, 0xb0, 0xfa, 0xff, 0xff,
  0x63, 0x00, 0x00, 0x00, 0x73, 0x65, 0x71, 0x75, 0x65, 0x6e, 0x74, 0x69,
  0x61, 0x6c, 0x5f, 0x31, 0x2f, 0x63, 0x6f, 0x6e, 0x76, 0x31, 0x64, 0x5f,
  0x31, 0x2f, 0x52, 0x65, 0x6c, 0x75, 0x3b, 0x73, 0x65, 0x71, 0x75, 0x65,
  0x6e, 0x74, 0x69, 0x61, 0x6c, 0x5f, 0x31, 0x2f, 0x63, 0x6f, 0x6e, 0x76,
  0x31, 0x64, 0x5f, 0x31, 0x2f, 0x42, 0x69, 0x61, 0x73, 0x41, 0x64, 0x64,
  0x3b, 0x73, 0x65, 0x71, 0x75, 0x65, 0x6e, 0x74, 0x69, 0x61, 0x6c, 0x5f,
  0x31, 0x2f, 0x63, 0x6f, 0x6e, 0x76, 0x31, 0x64, 0x5f, 0x31, 0x2f, 0x63,
  0x6f, 0x6e, 0x76, 0x6f, 0x6c, 0x75, 0x74, 0x69, 0x6f, 0x6e, 0x2f, 0x53,
  0x71, 0x75, 0x65, 0x65, 0x7a, 0x65, 0x3b, 0x00, 0x03, 0x00, 0x00, 0x00,
  0x01, 0x00, 0x00, 0x00, 0x62, 0x00, 0x00, 0x00, 0x10, 0x00, 0x00, 0x00,
  0x6e, 0xfb, 0xff, 0xff, 0x00, 0x00, 0x00, 0x01, 0x14, 0x00, 0x00, 0x00,
  0x24, 0x00, 0x00, 0x00, 0x24, 0x00, 0x00, 0x00, 0x10, 0x00, 0x00, 0x00,
  0xa8, 0x00, 0x00, 0x00, 0x04, 0x00, 0x00, 0x00, 0xff, 0xff, 0xff, 0xff,
  0x01, 0x00, 0x00, 0x00, 0x62, 0x00, 0x00, 0x00, 0x10, 0x00, 0x00, 0x00,
  0x5c, 0xfb, 0xff, 0xff, 0x85, 0x00, 0x00, 0x00, 0x73, 0x65, 0x71, 0x75,
  0x65, 0x6e, 0x74, 0x69, 0x61, 0x6c, 0x5f, 0x31, 0x2f, 0x63, 0x6f, 0x6e,
  0x76, 0x31, 0x64, 0x5f, 0x31, 0x2f, 0x52, 0x65, 0x6c, 0x75, 0x3b, 0x73,
  0x65, 0x71, 0x75, 0x65, 0x6e, 0x74, 0x69, 0x61, 0x6c, 0x5f, 0x31, 0x2f,
  0x63, 0x6f, 0x6e, 0x76, 0x31, 0x64, 0x5f, 0x31, 0x2f, 0x42, 0x69, 0x61,
  0x73, 0x41, 0x64, 0x64, 0x3b, 0x73, 0x65, 0x71, 0x75, 0x65, 0x6e, 0x74,
  0x69, 0x61, 0x6c, 0x5f, 0x31, 0x2f, 0x63, 0x6f, 0x6e, 0x76, 0x31, 0x64,
  0x5f, 0x31, 0x2f, 0x63, 0x6f, 0x6e, 0x76, 0x6f, 0x6c, 0x75, 0x74, 0x69,
  0x6f, 0x6e, 0x2f, 0x53, 0x71, 0x75, 0x65, 0x65, 0x7a, 0x65, 0x3b, 0x3b,
  0x73, 0x65, 0x71, 0x75, 0x65, 0x6e, 0x74, 0x69, 0x61, 0x6c, 0x5f, 0x31,
  0x2f, 0x63, 0x6f, 0x6e, 0x76, 0x31, 0x64, 0x5f, 0x31, 0x2f, 0x63, 0x6f,
  0x6e, 0x76, 0x6f, 0x6c, 0x75, 0x74, 0x69, 0x6f, 0x6e, 0x00, 0x00, 0x00,
  0x04, 0x00, 0x00, 0x00, 0x01, 0x00, 0x00, 0x00, 0x01, 0x00, 0x00, 0x00,
  0x62, 0x00, 0x00, 0x00, 0x10, 0x00, 0x00, 0x00, 0x42, 0xfc, 0xff, 0xff,
  0x00, 0x00, 0x00, 0x01, 0x14, 0x00, 0x00, 0x00, 0x24, 0x00, 0x00, 0x00,
  0x24, 0x00, 0x00, 0x00, 0x0f, 0x00, 0x00, 0x00, 0x50, 0x00, 0x00, 0x00,
  0x04, 0x00, 0x00, 0x00, 0xff, 0xff, 0xff, 0xff, 0x01, 0x00, 0x00, 0x00,
  0x64, 0x00, 0x00, 0x00, 0x01, 0x00, 0x00, 0x00, 0x30, 0xfc, 0xff, 0xff,
  0x2c, 0x00, 0x00, 0x00, 0x73, 0x65, 0x71, 0x75, 0x65, 0x6e, 0x74, 0x69,
  0x61, 0x6c, 0x5f, 0x31, 0x2f, 0x63, 0x6f, 0x6e, 0x76, 0x31, 0x64, 0x5f,
  0x31, 0x2f, 0x63, 0x6f, 0x6e, 0x76, 0x6f, 0x6c, 0x75, 0x74, 0x69, 0x6f,
  0x6e, 0x2f, 0x45, 0x78, 0x70, 0x61, 0x6e, 0x64, 0x44, 0x69, 0x6d, 0x73,
  0x00, 0x00, 0x00, 0x00, 0x04, 0x00, 0x00, 0x00, 0x01, 0x00, 0x00, 0x00,
  0x01, 0x00, 0x00, 0x00, 0x64, 0x00, 0x00, 0x00, 0x01, 0x00, 0x00, 0x00,
  0x9a, 0xfd, 0xff, 0xff, 0x00, 0x00, 0x00, 0x01, 0x14, 0x00, 0x00, 0x00,
  0x14, 0x00, 0x00, 0x00, 0x0e, 0x00, 0x00, 0x00, 0x00, 0x00, 0x00, 0x02,
  0x20, 0x00, 0x00, 0x00, 0x98, 0xfc, 0xff, 0xff, 0x10, 0x00, 0x00, 0x00,
  0x61, 0x72, 0x69, 0x74, 0x68, 0x2e, 0x63, 0x6f, 0x6e, 0x73, 0x74, 0x61,
  0x6e, 0x74, 0x31, 0x32, 0x00, 0x00, 0x00, 0x00, 0x00, 0x00, 0x00, 0x00,
  0xd6, 0xfd, 0xff, 0xff, 0x00, 0x00, 0x00, 0x01, 0x14, 0x00, 0x00, 0x00,
  0x14, 0x00, 0x00, 0x00, 0x0d, 0x00, 0x00, 0x00, 0x00, 0x00, 0x00, 0x02,
  0x20, 0x00, 0x00, 0x00, 0xd4, 0xfc, 0xff, 0xff, 0x10, 0x00, 0x00, 0x00,
  0x61, 0x72, 0x69, 0x74, 0x68, 0x2e, 0x63, 0x6f, 0x6e, 0x73, 0x74, 0x61,
  0x6e, 0x74, 0x31, 0x31, 0x00, 0x00, 0x00, 0x00, 0x00, 0x00, 0x00, 0x00,
  0x86, 0xfd, 0xff, 0xff, 0x00, 0x00, 0x00, 0x01, 0x10, 0x00, 0x00, 0x00,
  0x10, 0x00, 0x00, 0x00, 0x0c, 0x00, 0x00, 0x00, 0x20, 0x00, 0x00, 0x00,
  0x0c, 0xfd, 0xff, 0xff, 0x10, 0x00, 0x00, 0x00, 0x61, 0x72, 0x69, 0x74,
  0x68, 0x2e, 0x63, 0x6f, 0x6e, 0x73, 0x74, 0x61, 0x6e, 0x74, 0x31, 0x30,
  0x00, 0x00, 0x00, 0x00, 0x01, 0x00, 0x00, 0x00, 0x05, 0x00, 0x00, 0x00,
  0xc2, 0xfd, 0xff, 0xff, 0x00, 0x00, 0x00, 0x01, 0x10, 0x00, 0x00, 0x00,
  0x10, 0x00, 0x00, 0x00, 0x0b, 0x00, 0x00, 0x00, 0x1c, 0x00, 0x00, 0x00,
  0x48, 0xfd, 0xff, 0xff, 0x0f, 0x00, 0x00, 0x00, 0x61, 0x72, 0x69, 0x74,
  0x68, 0x2e, 0x63, 0x6f, 0x6e, 0x73, 0x74, 0x61, 0x6e, 0x74, 0x39, 0x00,
  0x01, 0x00, 0x00, 0x00, 0x10, 0x00, 0x00, 0x00, 0xfa, 0xfd, 0xff, 0xff,
  0x00, 0x00, 0x00, 0x01, 0x10, 0x00, 0x00, 0x00, 0x10, 0x00, 0x00, 0x00,
  0x0a, 0x00, 0x00, 0x00, 0x1c, 0x00, 0x00, 0x00, 0x80, 0xfd, 0xff, 0xff,
  0x0f, 0x00, 0x00, 0x00, 0x61, 0x72, 0x69, 0x74, 0x68, 0x2e, 0x63, 0x6f,
  0x6e, 0x73, 0x74, 0x61, 0x6e, 0x74, 0x38, 0x00, 0x02, 0x00, 0x00, 0x00,
  0x10, 0x00, 0x00, 0x00, 0x20, 0x00, 0x00, 0x00, 0x36, 0xfe, 0xff, 0xff,
  0x00, 0x00, 0x00, 0x01, 0x10, 0x00, 0x00, 0x00, 0x10, 0x00, 0x00, 0x00,
  0x09, 0x00, 0x00, 0x00, 0x1c, 0x00, 0x00, 0x00, 0xbc, 0xfd, 0xff, 0xff,
  0x0f, 0x00, 0x00, 0x00, 0x61, 0x72, 0x69, 0x74, 0x68, 0x2e, 0x63, 0x6f,
  0x6e, 0x73, 0x74, 0x61, 0x6e, 0x74, 0x37, 0x00, 0x02, 0x00, 0x00, 0x00,
  0x05, 0x00, 0x00, 0x00, 0x10, 0x00, 0x00, 0x00, 0x72, 0xfe, 0xff, 0xff,
  0x00, 0x00, 0x00, 0x01, 0x10, 0x00, 0x00, 0x00, 0x10, 0x00, 0x00, 0x00,
  0x08, 0x00, 0x00, 0x00, 0x1c, 0x00, 0x00, 0x00, 0xf8, 0xfd, 0xff, 0xff,
  0x0f, 0x00, 0x00, 0x00, 0x61, 0x72, 0x69, 0x74, 0x68, 0x2e, 0x63, 0x6f,
  0x6e, 0x73, 0x74, 0x61, 0x6e, 0x74, 0x36, 0x00, 0x04, 0x00, 0x00, 0x00,
  0x10, 0x00, 0x00, 0x00, 0x01, 0x00, 0x00, 0x00, 0x03, 0x00, 0x00, 0x00,
  0x01, 0x00, 0x00, 0x00, 0xb6, 0xfe, 0xff, 0xff, 0x00, 0x00, 0x00, 0x01,
  0x10, 0x00, 0x00, 0x00, 0x10, 0x00, 0x00, 0x00, 0x07, 0x00, 0x00, 0x00,
  0x1c, 0x00, 0x00, 0x00, 0x3c, 0xfe, 0xff, 0xff, 0x0f, 0x00, 0x00, 0x00,
  0x61, 0x72, 0x69, 0x74, 0x68, 0x2e, 0x63, 0x6f, 0x6e, 0x73, 0x74, 0x61,
  0x6e, 0x74, 0x35, 0x00, 0x04, 0x00, 0x00, 0x00, 0x20, 0x00, 0x00, 0x00,
  0x01, 0x00, 0x00, 0x00, 0x03, 0x00, 0x00, 0x00, 0x10, 0x00, 0x00, 0x00,
  0x86, 0xff, 0xff, 0xff, 0x00, 0x00, 0x00, 0x01, 0x14, 0x00, 0x00, 0x00,
  0x14, 0x00, 0x00, 0x00, 0x06, 0x00, 0x00, 0x00, 0x00, 0x00, 0x00, 0x02,
  0x1c, 0x00, 0x00, 0x00, 0x84, 0xfe, 0xff, 0xff, 0x0f, 0x00, 0x00, 0x00,
  0x61, 0x72, 0x69, 0x74, 0x68, 0x2e, 0x63, 0x6f, 0x6e, 0x73, 0x74, 0x61,
  0x6e, 0x74, 0x34, 0x00, 0x01, 0x00, 0x00, 0x00, 0x03, 0x00, 0x00, 0x00,
  0xc2, 0xff, 0xff, 0xff, 0x00, 0x00, 0x00, 0x01, 0x14, 0x00, 0x00, 0x00,
  0x14, 0x00, 0x00, 0x00, 0x05, 0x00, 0x00, 0x00, 0x00, 0x00, 0x00, 0x02,
  0x1c, 0x00, 0x00, 0x00, 0xc0, 0xfe, 0xff, 0xff, 0x0f, 0x00, 0x00, 0x00,
  0x61, 0x72, 0x69, 0x74, 0x68, 0x2e, 0x63, 0x6f, 0x6e, 0x73, 0x74, 0x61,
  0x6e, 0x74, 0x33, 0x00, 0x01, 0x00, 0x00, 0x00, 0x03, 0x00, 0x00, 0x00,
  0x00, 0x00, 0x16, 0x00, 0x1c, 0x00, 0x18, 0x00, 0x17, 0x00, 0x10, 0x00,
  0x0c, 0x00, 0x08, 0x00, 0x00, 0x00, 0x00, 0x00, 0x00, 0x00, 0x07, 0x00,
  0x16, 0x00, 0x00, 0x00, 0x00, 0x00, 0x00, 0x01, 0x14, 0x00, 0x00, 0x00,
  0x14, 0x00, 0x00, 0x00, 0x04, 0x00, 0x00, 0x00, 0x00, 0x00, 0x00, 0x02,
  0x1c, 0x00, 0x00, 0x00, 0x14, 0xff, 0xff, 0xff, 0x0f, 0x00, 0x00, 0x00,
  0x61, 0x72, 0x69, 0x74, 0x68, 0x2e, 0x63, 0x6f, 0x6e, 0x73, 0x74, 0x61,
  0x6e, 0x74, 0x32, 0x00, 0x01, 0x00, 0x00, 0x00, 0x03, 0x00, 0x00, 0x00,
  0xc6, 0xff, 0xff, 0xff, 0x00, 0x00, 0x00, 0x01, 0x10, 0x00, 0x00, 0x00,
  0x10, 0x00, 0x00, 0x00, 0x03, 0x00, 0x00, 0x00, 0x1c, 0x00, 0x00, 0x00,
  0x4c, 0xff, 0xff, 0xff, 0x0f, 0x00, 0x00, 0x00, 0x61, 0x72, 0x69, 0x74,
  0x68, 0x2e, 0x63, 0x6f, 0x6e, 0x73, 0x74, 0x61, 0x6e, 0x74, 0x31, 0x00,
  0x01, 0x00, 0x00, 0x00, 0x10, 0x00, 0x00, 0x00, 0x00, 0x00, 0x16, 0x00,
  0x18, 0x00, 0x14, 0x00, 0x00, 0x00, 0x10, 0x00, 0x0c, 0x00, 0x08, 0x00,
  0x00, 0x00, 0x00, 0x00, 0x00, 0x00, 0x07, 0x00, 0x16, 0x00, 0x00, 0x00,
  0x00, 0x00, 0x00, 0x01, 0x10, 0x00, 0x00, 0x00, 0x10, 0x00, 0x00, 0x00,
  0x02, 0x00, 0x00, 0x00, 0x1c, 0x00, 0x00, 0x00, 0x9c, 0xff, 0xff, 0xff,
  0x0e, 0x00, 0x00, 0x00, 0x61, 0x72, 0x69, 0x74, 0x68, 0x2e, 0x63, 0x6f,
  0x6e, 0x73, 0x74, 0x61, 0x6e, 0x74, 0x00, 0x00, 0x01, 0x00, 0x00, 0x00,
  0x20, 0x00, 0x00, 0x00, 0x00, 0x00, 0x16, 0x00, 0x1c, 0x00, 0x18, 0x00,
  0x00, 0x00, 0x14, 0x00, 0x10, 0x00, 0x0c, 0x00, 0x00, 0x00, 0x00, 0x00,
  0x08, 0x00, 0x07, 0x00, 0x16, 0x00, 0x00, 0x00, 0x00, 0x00, 0x00, 0x01,
  0x14, 0x00, 0x00, 0x00, 0x24, 0x00, 0x00, 0x00, 0x24, 0x00, 0x00, 0x00,
  0x01, 0x00, 0x00, 0x00, 0x40, 0x00, 0x00, 0x00, 0x03, 0x00, 0x00, 0x00,
  0xff, 0xff, 0xff, 0xff, 0x64, 0x00, 0x00, 0x00, 0x01, 0x00, 0x00, 0x00,
  0x04, 0x00, 0x04, 0x00, 0x04, 0x00, 0x00, 0x00, 0x1e, 0x00, 0x00, 0x00,
  0x73, 0x65, 0x72, 0x76, 0x69, 0x6e, 0x67, 0x5f, 0x64, 0x65, 0x66, 0x61,
  0x75, 0x6c, 0x74, 0x5f, 0x6b, 0x65, 0x72, 0x61, 0x73, 0x5f, 0x74, 0x65,
  0x6e, 0x73, 0x6f, 0x72, 0x3a, 0x30, 0x00, 0x00, 0x03, 0x00, 0x00, 0x00,
  0x01, 0x00, 0x00, 0x00, 0x64, 0x00, 0x00, 0x00, 0x01, 0x00, 0x00, 0x00,
  0x07, 0x00, 0x00, 0x00, 0x70, 0x00, 0x00, 0x00, 0x54, 0x00, 0x00, 0x00,
  0x44, 0x00, 0x00, 0x00, 0x34, 0x00, 0x00, 0x00, 0x24, 0x00, 0x00, 0x00,
  0x14, 0x00, 0x00, 0x00, 0x04, 0x00, 0x00, 0x00, 0xb8, 0xff, 0xff, 0xff,
  0x19, 0x00, 0x00, 0x00, 0x00, 0x00, 0x00, 0x19, 0xc4, 0xff, 0xff, 0xff,
  0x09, 0x00, 0x00, 0x00, 0x00, 0x00, 0x00, 0x09, 0xd0, 0xff, 0xff, 0xff,
  0x28, 0x00, 0x00, 0x00, 0x00, 0x00, 0x00, 0x28, 0xdc, 0xff, 0xff, 0xff,
  0x11, 0x00, 0x00, 0x00, 0x00, 0x00, 0x00, 0x11, 0xe8, 0xff, 0xff, 0xff,
  0x16, 0x00, 0x00, 0x00, 0x00, 0x00, 0x00, 0x16, 0xf4, 0xff, 0xff, 0xff,
  0x03, 0x00, 0x00, 0x00, 0x00, 0x00, 0x00, 0x03, 0x0c, 0x00, 0x0c, 0x00,
  0x0b, 0x00, 0x00, 0x00, 0x00, 0x00, 0x04, 0x00, 0x0c, 0x00, 0x00, 0x00,
  0x46, 0x00, 0x00, 0x00, 0x00, 0x00, 0x00, 0x46
};
unsigned int emg_model_tflite_len = 13700;
