const unsigned char emg_model_data[] = {
  0x1c, 0x00, 0x00, 0x00, 0x54, 0x46, 0x4c, 0x33, 0x14, 0x00, 0x20, 0x00, 
  0x1c, 0x00, 0x18, 0x00, 0x14, 0x00, 0x10, 0x00, 0x0c, 0x00, 0x00, 0x00, 
  0x08, 0x00, 0x04, 0x00, 0x14, 0x00, 0x00, 0x00, 0x1c, 0x00, 0x00, 0x00, 
  0x98, 0x00, 0x00, 0x00, 0xf0, 0x00, 0x00, 0x00, 0x9c, 0x0d, 0x00, 0x00, 
  0xac, 0x0d, 0x00, 0x00, 0x60, 0x13, 0x00, 0x00, 0x03, 0x00, 0x00, 0x00, 
  0x01, 0x00, 0x00, 0x00, 0x10, 0x00, 0x00, 0x00, 0x00, 0x00, 0x0a, 0x00, 
  0x10, 0x00, 0x0c, 0x00, 0x08, 0x00, 0x04, 0x00, 0x0a, 0x00, 0x00, 0x00, 
  0x0c, 0x00, 0x00, 0x00, 0x1c, 0x00, 0x00, 0x00, 0x3c, 0x00, 0x00, 0x00, 
  0x0f, 0x00, 0x00, 0x00, 0x73, 0x65, 0x72, 0x76, 0x69, 0x6e, 0x67, 0x5f, 
  0x64, 0x65, 0x66, 0x61, 0x75, 0x6c, 0x74, 0x00, 0x01, 0x00, 0x00, 0x00, 
  0x04, 0x00, 0x00, 0x00, 0x90, 0xff, 0xff, 0xff, 0x0a, 0x00, 0x00, 0x00, 
  0x04, 0x00, 0x00, 0x00, 0x08, 0x00, 0x00, 0x00, 0x6f, 0x75, 0x74, 0x70, 
  0x75, 0x74, 0x5f, 0x30, 0x00, 0x00, 0x00, 0x00, 0x01, 0x00, 0x00, 0x00, 
  0x04, 0x00, 0x00, 0x00, 0x4a, 0xf2, 0xff, 0xff, 0x04, 0x00, 0x00, 0x00, 
  0x0f, 0x00, 0x00, 0x00, 0x6b, 0x65, 0x72, 0x61, 0x73, 0x5f, 0x74, 0x65, 
  0x6e, 0x73, 0x6f, 0x72, 0x5f, 0x31, 0x30, 0x00, 0x02, 0x00, 0x00, 0x00, 
  0x34, 0x00, 0x00, 0x00, 0x04, 0x00, 0x00, 0x00, 0xdc, 0xff, 0xff, 0xff, 
  0x0d, 0x00, 0x00, 0x00, 0x04, 0x00, 0x00, 0x00, 0x13, 0x00, 0x00, 0x00, 
  0x43, 0x4f, 0x4e, 0x56, 0x45, 0x52, 0x53, 0x49, 0x4f, 0x4e, 0x5f, 0x4d, 
  0x45, 0x54, 0x41, 0x44, 0x41, 0x54, 0x41, 0x00, 0x08, 0x00, 0x0c, 0x00, 
  0x08, 0x00, 0x04, 0x00, 0x08, 0x00, 0x00, 0x00, 0x0c, 0x00, 0x00, 0x00, 
  0x04, 0x00, 0x00, 0x00, 0x13, 0x00, 0x00, 0x00, 0x6d, 0x69, 0x6e, 0x5f, 
  0x72, 0x75, 0x6e, 0x74, 0x69, 0x6d, 0x65, 0x5f, 0x76, 0x65, 0x72, 0x73, 
  0x69, 0x6f, 0x6e, 0x00, 0x0e, 0x00, 0x00, 0x00, 0xa8, 0x0c, 0x00, 0x00, 
  0xa0, 0x0c, 0x00, 0x00, 0xd0, 0x0b, 0x00, 0x00, 0xc0, 0x03, 0x00, 0x00, 
  0xa4, 0x03, 0x00, 0x00, 0x54, 0x03, 0x00, 0x00, 0xc4, 0x02, 0x00, 0x00, 
  0xb4, 0x00, 0x00, 0x00, 0xac, 0x00, 0x00, 0x00, 0xa4, 0x00, 0x00, 0x00, 
  0x9c, 0x00, 0x00, 0x00, 0x94, 0x00, 0x00, 0x00, 0x74, 0x00, 0x00, 0x00, 
  0x04, 0x00, 0x00, 0x00, 0xfe, 0xf2, 0xff, 0xff, 0x04, 0x00, 0x00, 0x00, 
  0x60, 0x00, 0x00, 0x00, 0x0c, 0x00, 0x00, 0x00, 0x08, 0x00, 0x0e, 0x00, 
  0x08, 0x00, 0x04, 0x00, 0x08, 0x00, 0x00, 0x00, 0x10, 0x00, 0x00, 0x00, 
  0x28, 0x00, 0x00, 0x00, 0x00, 0x00, 0x06, 0x00, 0x08, 0x00, 0x04, 0x00, 
  0x06, 0x00, 0x00, 0x00, 0x04, 0x00, 0x00, 0x00, 0x01, 0x00, 0x00, 0x00, 
  0xea, 0x03, 0x00, 0x00, 0x0c, 0x00, 0x18, 0x00, 0x14, 0x00, 0x10, 0x00, 
  0x0c, 0x00, 0x04, 0x00, 0x0c, 0x00, 0x00, 0x00, 0x0f, 0x07, 0x64, 0xf7, 
  0x46, 0x1f, 0xd9, 0xc2, 0x02, 0x00, 0x00, 0x00, 0x02, 0x00, 0x00, 0x00, 
  0x04, 0x00, 0x00, 0x00, 0x06, 0x00, 0x00, 0x00, 0x32, 0x2e, 0x31, 0x39, 
  0x2e, 0x30, 0x00, 0x00, 0x6a, 0xf3, 0xff, 0xff, 0x04, 0x00, 0x00, 0x00, 
  0x10, 0x00, 0x00, 0x00, 0x31, 0x2e, 0x35, 0x2e, 0x30, 0x00, 0x00, 0x00, 
  0x00, 0x00, 0x00, 0x00, 0x00, 0x00, 0x00, 0x00, 0x84, 0xee, 0xff, 0xff, 
  0x88, 0xee, 0xff, 0xff, 0x8c, 0xee, 0xff, 0xff, 0x90, 0xee, 0xff, 0xff, 
  0x96, 0xf3, 0xff, 0xff, 0x04, 0x00, 0x00, 0x00, 0x00, 0x02, 0x00, 0x00, 
  0x88, 0x3c, 0x4c, 0x3f, 0xe2, 0x95, 0xa3, 0x3f, 0x73, 0x03, 0x0a, 0xbd, 
  0x16, 0xcd, 0xf8, 0xbf, 0xdd, 0x8f, 0xe2, 0x3e, 0x74, 0xdb, 0x1e, 0xbf, 
  0x7b, 0x37, 0xea, 0x3e, 0x2f, 0xaa, 0x18, 0x40, 0x49, 0x36, 0x01, 0x3e, 
  0x90, 0xf0, 0xb5, 0xbd, 0x70, 0xf1, 0x0b, 0x40, 0xed, 0x25, 0xf8, 0x3f, 
  0x03, 0x57, 0x12, 0x3f, 0x1b, 0x97, 0x8e, 0x3f, 0x87, 0xbe, 0x01, 0x3d, 
  0xfa, 0x73, 0xe6, 0xbf, 0x85, 0x91, 0xca, 0x3e, 0xeb, 0xe2, 0x5a, 0x3f, 
  0x12, 0x75, 0xfc, 0x3e, 0xff, 0x4b, 0x33, 0xc0, 0x1a, 0xb4, 0x9f, 0xbe, 
  0x5b, 0x78, 0x85, 0xbe, 0xf0, 0x5b, 0xcf, 0xbc, 0xc8, 0xb9, 0x8c, 0xbe, 
  0x0f, 0xf4, 0x25, 0x3f, 0x4f, 0x41, 0xd8, 0x3f, 0x34, 0x73, 0x44, 0x3f, 
  0x5a, 0x39, 0xde, 0xbb, 0xcd, 0x92, 0xb1, 0x3f, 0x4f, 0x64, 0xf0, 0x3e, 
  0x55, 0x3a, 0x51, 0xc0, 0x0d, 0x5e, 0xc8, 0x3e, 0x18, 0x7b, 0x51, 0xbd, 
  0xd0, 0x4b, 0xc0, 0xbd, 0xd2, 0x28, 0xbd, 0xbe, 0x58, 0xe5, 0x78, 0xbd, 
  0x23, 0xef, 0x3f, 0x3f, 0xaf, 0xf7, 0xd2, 0x3e, 0x95, 0x91, 0x8a, 0x3e, 
  0xeb, 0x6f, 0xe1, 0xbf, 0x20, 0xb3, 0x11, 0xbe, 0xa2, 0xbf, 0xff, 0xbd, 
  0x2c, 0xdb, 0xc2, 0xbe, 0xe2, 0x52, 0x23, 0x3e, 0xa8, 0x9a, 0x81, 0x3e, 
  0x70, 0x9f, 0x4f, 0x3f, 0xfd, 0xe5, 0x89, 0xbd, 0x2f, 0x55, 0x17, 0xc0, 
  0x49, 0xfe, 0x1b, 0xbe, 0x7a, 0x4f, 0x46, 0x3f, 0xe6, 0x16, 0xd1, 0x3d, 
  0xb6, 0x73, 0x0b, 0xc0, 0x60, 0x7a, 0xdf, 0x3f, 0xa0, 0x52, 0x77, 0x3f, 
  0xc3, 0xc2, 0xf0, 0xbf, 0xd8, 0x97, 0x4a, 0xbf, 0xff, 0xde, 0xca, 0xbe, 
  0xc9, 0x5e, 0x27, 0xbf, 0x50, 0x03, 0x16, 0x3e, 0x7a, 0x0c, 0x22, 0x40, 
  0x8a, 0x6a, 0xa7, 0x3c, 0x0d, 0xa2, 0xa8, 0x3f, 0x08, 0x67, 0xd9, 0x3f, 
  0x27, 0x64, 0xcd, 0x3f, 0xb9, 0xe6, 0x7c, 0xbe, 0x78, 0x71, 0xe2, 0xbd, 
  0xd0, 0x35, 0x05, 0xbd, 0xee, 0x5f, 0x4c, 0xbe, 0x72, 0x17, 0xf4, 0x3e, 
  0xb9, 0x93, 0x3d, 0x3f, 0x37, 0xcc, 0xb6, 0x3f, 0x3e, 0xfd, 0xee, 0x3f, 
  0xa1, 0x89, 0x27, 0x3f, 0x43, 0x69, 0x9c, 0x3f, 0xb3, 0xd8, 0xc8, 0x3e, 
  0x49, 0xb4, 0xc8, 0xbf, 0x26, 0x1c, 0xe7, 0x3f, 0x7f, 0xa2, 0xf2, 0xbc, 
  0xb8, 0xf5, 0xa0, 0x3f, 0x0f, 0x83, 0x8c, 0x3f, 0x9e, 0xff, 0xf0, 0x3d, 
  0xde, 0xc1, 0x3f, 0x3f, 0xd5, 0x7f, 0xad, 0xbd, 0x6c, 0x01, 0x7e, 0x3f, 
  0x74, 0x2b, 0xc3, 0xbf, 0x60, 0x7f, 0x33, 0xbe, 0x85, 0x0b, 0x8c, 0x3f, 
  0x35, 0xfa, 0x1a, 0xc0, 0x97, 0x32, 0x21, 0xbe, 0xbd, 0xf1, 0x3f, 0xc0, 
  0xb5, 0x6c, 0x80, 0x3d, 0xd2, 0xd0, 0x22, 0x40, 0x20, 0x13, 0x88, 0x3e, 
  0xdd, 0xee, 0x1c, 0x40, 0xc6, 0xa8, 0x4f, 0x3f, 0xa7, 0xa6, 0xa9, 0x3e, 
  0x7e, 0x59, 0xe9, 0x3c, 0x51, 0x1b, 0x39, 0x3f, 0x7a, 0xf8, 0x3d, 0x3d, 
  0x33, 0x11, 0x0e, 0xc0, 0xce, 0xf6, 0xe5, 0x3e, 0x03, 0x6e, 0x5b, 0x3e, 
  0xf1, 0xdd, 0x91, 0x3e, 0x36, 0xee, 0x0e, 0x40, 0x86, 0x2d, 0x82, 0xbe, 
  0x90, 0xf0, 0xab, 0xbd, 0xe9, 0x72, 0x84, 0xbe, 0xf4, 0x90, 0xff, 0xbd, 
  0x5a, 0xb8, 0xbe, 0x3a, 0xc1, 0xa3, 0x11, 0xbe, 0x41, 0xe6, 0x38, 0x3c, 
  0x82, 0xf6, 0x6a, 0xbe, 0xb2, 0x36, 0x8f, 0x3e, 0x82, 0x42, 0xa3, 0x3f, 
  0xc3, 0x16, 0xb1, 0x3f, 0x37, 0x09, 0xd7, 0x3f, 0x07, 0xaa, 0x55, 0x3e, 
  0x86, 0xb7, 0x43, 0xc0, 0x1c, 0xd4, 0x71, 0x3e, 0xa3, 0xec, 0xd3, 0x3f, 
  0xc3, 0xf4, 0x8d, 0x3c, 0xf8, 0x03, 0xfd, 0x3e, 0x9a, 0xd3, 0xf7, 0x3f, 
  0x7a, 0xd8, 0xf6, 0x3f, 0x9a, 0x42, 0xa2, 0xbe, 0xe6, 0xa7, 0xa2, 0xbe, 
  0x46, 0x7b, 0xb3, 0xbe, 0x40, 0x34, 0x98, 0x3c, 0xa2, 0xf5, 0xff, 0xff, 
  0x04, 0x00, 0x00, 0x00, 0x80, 0x00, 0x00, 0x00, 0xe6, 0x92, 0xd7, 0x3b, 
  0x39, 0x99, 0xeb, 0xbb, 0x49, 0x1f, 0xff, 0xbb, 0x7b, 0x6b, 0x65, 0xbb, 
  0x89, 0xbc, 0x0b, 0x3b, 0x00, 0x00, 0x00, 0x00, 0x5b, 0xa8, 0x66, 0xbb, 
  0xa1, 0x40, 0x45, 0x3c, 0x00, 0x00, 0x00, 0x00, 0xc8, 0xff, 0x1f, 0x39, 
  0x62, 0x50, 0x3d, 0xbc, 0x1b, 0xe0, 0xe5, 0x3c, 0xc4, 0xb2, 0xb2, 0x3c, 
  0x29, 0xf2, 0x4a, 0x3e, 0x57, 0x1d, 0x16, 0xba, 0x2b, 0xe0, 0x54, 0xbc, 
  0x00, 0x00, 0x00, 0x00, 0xee, 0x25, 0x42, 0xbc, 0xdc, 0x82, 0x2b, 0xba, 
  0x89, 0x5e, 0xbb, 0xbd, 0x56, 0x61, 0x85, 0xbe, 0x12, 0xf3, 0x80, 0x3c, 
  0x6d, 0xaf, 0xe3, 0x3c, 0xc2, 0xf8, 0x37, 0xbc, 0x2f, 0x40, 0x83, 0x3c, 
  0xeb, 0x2b, 0x08, 0x3b, 0x00, 0x00, 0x00, 0x00, 0xd9, 0x85, 0x27, 0xbb, 
  0x0b, 0x0a, 0x37, 0xbc, 0x75, 0x2b, 0xc1, 0x3c, 0x26, 0x7f, 0x47, 0xbc, 
  0x00, 0x00, 0x00, 0x00, 0x2e, 0xf6, 0xff, 0xff, 0x04, 0x00, 0x00, 0x00, 
  0x40, 0x00, 0x00, 0x00, 0xd1, 0x7d, 0x0b, 0x3e, 0x07, 0x07, 0x11, 0x3e, 
  0x44, 0x9c, 0xe7, 0x3d, 0x05, 0xd0, 0x8f, 0xbe, 0x80, 0xcc, 0x03, 0x3e, 
  0x9e, 0x63, 0x54, 0xbc, 0xe7, 0x0b, 0xb2, 0x3d, 0x91, 0x3e, 0xe7, 0x3d, 
  0x49, 0x40, 0xdd, 0x3e, 0xb5, 0x8d, 0xd1, 0x3d, 0x96, 0xbb, 0x52, 0x3e, 
  0x37, 0x9d, 0x37, 0x3e, 0x5a, 0x8e, 0x06, 0x3c, 0x70, 0x31, 0x84, 0x3e, 
  0x0e, 0xfd, 0x72, 0x3e, 0x71, 0x37, 0xf9, 0x3d, 0x7a, 0xf6, 0xff, 0xff, 
  0x04, 0x00, 0x00, 0x00, 0x0c, 0x00, 0x00, 0x00, 0x6e, 0x33, 0x48, 0x3e, 
  0x09, 0x06, 0x2b, 0x3d, 0xe7, 0xc6, 0x6c, 0xbe, 0x92, 0xf6, 0xff, 0xff, 
  0x04, 0x00, 0x00, 0x00, 0x00, 0x08, 0x00, 0x00, 0x3e, 0x3b, 0x15, 0x3f, 
  0xa2, 0xa4, 0xc2, 0x3e, 0xba, 0x08, 0xce, 0x3d, 0x21, 0x65, 0xca, 0x3d, 
  0x8a, 0x78, 0x01, 0x3d, 0x46, 0x6e, 0x96, 0xbe, 0x4e, 0xdf, 0x86, 0x3e, 
  0x5c, 0x91, 0x9c, 0xbf, 0x56, 0x90, 0x14, 0xbe, 0xec, 0xe6, 0xfc, 0x3e, 
  0x70, 0x5a, 0x95, 0xbe, 0x2b, 0x9e, 0xfc, 0x3e, 0xe1, 0x45, 0x47, 0xbe, 
  0xfc, 0xef, 0x65, 0x3e, 0x06, 0xf2, 0xc2, 0x3b, 0x6c, 0xde, 0xf5, 0x3e, 
  0x67, 0x2c, 0x95, 0x3e, 0xdc, 0x2c, 0x01, 0x3f, 0x55, 0x70, 0x8a, 0x3e, 
  0x5b, 0xcb, 0x09, 0xc0, 0x52, 0xfc, 0x28, 0xc0, 0x7e, 0xbf, 0x3b, 0xc0, 
  0x00, 0x8e, 0xd6, 0xbd, 0x5d, 0x82, 0x99, 0x3e, 0x32, 0x10, 0x92, 0x3e, 
  0x3b, 0x86, 0x82, 0xbc, 0x9c, 0x01, 0xd8, 0x3d, 0x56, 0xd4, 0xc6, 0x3d, 
  0xeb, 0x38, 0xcd, 0x3e, 0x0e, 0x9f, 0x03, 0x3d, 0xe2, 0x27, 0xc7, 0x3e, 
  0xc7, 0x2e, 0x96, 0xbe, 0xc9, 0x7c, 0xdf, 0x3d, 0x30, 0xbb, 0x3a, 0x3f, 
  0x6b, 0xba, 0x1b, 0x3e, 0x70, 0x47, 0x8e, 0xbe, 0x82, 0x19, 0xaa, 0x3c, 
  0x78, 0x7d, 0x71, 0x3d, 0xe3, 0xfd, 0xc4, 0x3e, 0x30, 0x38, 0xd6, 0xbf, 
  0x99, 0xd4, 0xb4, 0x3e, 0x09, 0x2a, 0x5a, 0xbd, 0xef, 0x6d, 0x56, 0x3e, 
  0x55, 0xef, 0x0b, 0xbe, 0x6f, 0x10, 0x85, 0xbe, 0xf3, 0x0c, 0xb8, 0x3e, 
  0x0d, 0x74, 0xb4, 0x3e, 0xf6, 0x25, 0xfa, 0x3e, 0x4a, 0xe8, 0x44, 0x3e, 
  0xb1, 0xbe, 0xa3, 0x3e, 0x56, 0x44, 0x56, 0x3e, 0xb8, 0x79, 0xa4, 0xbf, 
  0xcb, 0x58, 0x20, 0xc0, 0x55, 0x46, 0x33, 0xc0, 0x0f, 0x04, 0x95, 0x3d, 
  0xfd, 0x2c, 0x7c, 0x3e, 0x60, 0xb5, 0x61, 0xbe, 0x7c, 0x0d, 0x02, 0x3f, 
  0x82, 0xab, 0x38, 0x3e, 0x56, 0x8d, 0xcd, 0x3b, 0xd9, 0xc2, 0xed, 0x3d, 
  0x72, 0x84, 0x8e, 0x3e, 0xa0, 0x98, 0xa7, 0x3d, 0x62, 0x14, 0x33, 0x3e, 
  0x62, 0x4c, 0x85, 0xbd, 0x76, 0x64, 0x68, 0x3f, 0x94, 0xd5, 0x56, 0x3e, 
  0x70, 0x0e, 0xa8, 0xbe, 0x89, 0x48, 0xc4, 0xbe, 0xd0, 0x7a, 0x92, 0xbe, 
  0xb2, 0x92, 0x25, 0x3d, 0xab, 0x14, 0x3c, 0xbf, 0x12, 0x2c, 0xad, 0xbe, 
  0x4b, 0xc2, 0x09, 0xbf, 0x70, 0xeb, 0x74, 0xbe, 0x7b, 0x56, 0x4c, 0xbf, 
  0x6f, 0x72, 0x58, 0xbf, 0xdf, 0xb4, 0xa3, 0xbd, 0x14, 0x42, 0xb5, 0x3f, 
  0x96, 0x7a, 0xf7, 0x3d, 0x12, 0x9c, 0x4b, 0x3e, 0xd3, 0xc6, 0x5d, 0x3e, 
  0xde, 0x38, 0x34, 0xbe, 0xca, 0x07, 0x91, 0x3f, 0x44, 0x7b, 0x43, 0xbf, 
  0x12, 0x3d, 0x67, 0xbe, 0xff, 0x96, 0x9c, 0x3f, 0x54, 0x89, 0x9c, 0x3c, 
  0x55, 0x7b, 0x0e, 0xbf, 0xe7, 0x2e, 0x93, 0x3d, 0x08, 0xa6, 0x0c, 0xbe, 
  0xe0, 0x70, 0xa8, 0xbe, 0xd7, 0x17, 0xa6, 0x3e, 0xb6, 0x49, 0x59, 0x3f, 
  0xbb, 0xe8, 0x65, 0x3e, 0xb0, 0xe3, 0x35, 0xbd, 0x57, 0x37, 0x03, 0x3f, 
  0x4b, 0x9c, 0x24, 0x3d, 0x15, 0x9f, 0x2f, 0xbf, 0xd0, 0xaf, 0x1d, 0x3f, 
  0x59, 0x73, 0x29, 0x3f, 0x18, 0x63, 0x38, 0x3d, 0x36, 0xee, 0x7f, 0x3e, 
  0xcc, 0x6b, 0x22, 0xc0, 0x43, 0x97, 0x38, 0xbe, 0x78, 0x3c, 0x83, 0x3e, 
  0xcc, 0x73, 0x3a, 0x3e, 0xe6, 0xd0, 0x2c, 0x3f, 0x9c, 0xfd, 0x3a, 0x3f, 
  0x54, 0xf2, 0xb1, 0xbd, 0x6e, 0x3b, 0xa4, 0x3e, 0x1f, 0xf7, 0xab, 0xbd, 
  0x01, 0xda, 0xa1, 0xbe, 0x3e, 0x98, 0x5e, 0xbe, 0x4d, 0x28, 0xe1, 0x3e, 
  0x65, 0xae, 0xb7, 0xbf, 0x2e, 0x3e, 0x42, 0xc0, 0x1b, 0xf4, 0x3d, 0xc0, 
  0x1d, 0x79, 0xf4, 0xbe, 0x9d, 0x0f, 0xe4, 0xbd, 0xf7, 0xeb, 0x71, 0x3f, 
  0x83, 0x7e, 0x20, 0xbf, 0x40, 0x54, 0x57, 0xbc, 0xcc, 0x0c, 0x94, 0x3d, 
  0xfa, 0xc0, 0x2f, 0x3e, 0xa8, 0xc1, 0xc0, 0xbe, 0xe6, 0xb1, 0xcb, 0xbd, 
  0x68, 0x8d, 0x6c, 0xbd, 0x30, 0x1e, 0xb5, 0x3e, 0x01, 0x80, 0xdb, 0x3e, 
  0xdc, 0x6f, 0x08, 0x3e, 0xa2, 0x93, 0xc7, 0x3e, 0xc3, 0x8e, 0xc3, 0xbe, 
  0xac, 0x54, 0x29, 0xbe, 0x7e, 0xa3, 0xac, 0x3e, 0x02, 0xa1, 0x9f, 0xbf, 
  0x30, 0x9b, 0xdd, 0xbc, 0x1a, 0x25, 0xba, 0x3e, 0xfa, 0xa4, 0xae, 0x3e, 
  0x7a, 0xcf, 0xec, 0xbc, 0x26, 0xf4, 0xea, 0xbd, 0xa7, 0x81, 0xf6, 0x3e, 
  0x74, 0x1a, 0x8c, 0x3d, 0xd9, 0xcc, 0x1d, 0x3e, 0xc6, 0x17, 0x75, 0xbe, 
  0xcd, 0x01, 0x24, 0xbe, 0x86, 0xe1, 0x5d, 0x3d, 0xa8, 0x89, 0x12, 0xc0, 
  0x7e, 0x9e, 0x0e, 0xc0, 0xe1, 0xb6, 0x52, 0xc0, 0x08, 0x4d, 0x7e, 0xbe, 
  0x81, 0x9d, 0xe3, 0x3e, 0x4b, 0x95, 0x3f, 0x3e, 0x55, 0x72, 0x2d, 0x3e, 
  0xb4, 0x06, 0xd4, 0xbd, 0x11, 0xc9, 0x0f, 0xbd, 0x75, 0x41, 0x67, 0x3e, 
  0x34, 0x2c, 0x99, 0x3b, 0x1b, 0xdc, 0x76, 0x3e, 0x62, 0x2d, 0x64, 0xbe, 
  0xc8, 0xc7, 0x87, 0x3e, 0x02, 0x79, 0x54, 0xbe, 0xa4, 0x1f, 0x83, 0xbe, 
  0x54, 0x9c, 0x91, 0xbe, 0x1f, 0x3d, 0x2e, 0xbe, 0x95, 0x23, 0x83, 0x3e, 
  0xaa, 0x0b, 0x4c, 0xbc, 0x9d, 0x3e, 0x5a, 0xbe, 0x70, 0xaa, 0x8f, 0x3d, 
  0xd4, 0x1f, 0x8a, 0x3e, 0xf8, 0x8c, 0xa7, 0xbd, 0xba, 0xb7, 0x92, 0xbe, 
  0xa6, 0x78, 0xb3, 0xbe, 0xad, 0x24, 0x90, 0xbe, 0xf6, 0xba, 0xd2, 0xbd, 
  0xee, 0xe5, 0x2e, 0xbe, 0x47, 0xf8, 0xaf, 0x3e, 0x3d, 0x8c, 0xa7, 0xbe, 
  0x44, 0x8b, 0x2b, 0xbe, 0xdd, 0x46, 0x18, 0xbe, 0x04, 0xf0, 0x46, 0xbe, 
  0x21, 0x8d, 0x8a, 0x3e, 0x01, 0x5d, 0xa7, 0xbe, 0x03, 0x90, 0x1c, 0x3c, 
  0xf6, 0xdb, 0x15, 0xbe, 0x9a, 0x10, 0x4b, 0xbe, 0xf0, 0x16, 0xb7, 0xbc, 
  0xff, 0x9d, 0x82, 0x3e, 0x4c, 0x01, 0x26, 0xbe, 0xd7, 0x56, 0x70, 0x3e, 
  0xda, 0xad, 0x5f, 0xbe, 0x00, 0xb7, 0x88, 0xbe, 0x30, 0xd6, 0x0b, 0x3f, 
  0x92, 0x2b, 0x1c, 0xbf, 0x01, 0x4b, 0x1a, 0x3f, 0xbe, 0xd8, 0x16, 0x3f, 
  0xe0, 0xec, 0x5c, 0x3e, 0xd0, 0x06, 0x0e, 0x3d, 0xf4, 0x6f, 0x28, 0x3f, 
  0xc9, 0x5b, 0x0f, 0x3e, 0x49, 0x23, 0xa1, 0x3e, 0x02, 0x7d, 0xe3, 0x3d, 
  0x25, 0x2f, 0x06, 0x3e, 0xab, 0x85, 0x02, 0x3e, 0x61, 0x55, 0x80, 0x3d, 
  0xc2, 0x29, 0x8f, 0x3e, 0x2e, 0x22, 0x9b, 0xbf, 0x07, 0x4f, 0xe1, 0x3e, 
  0x06, 0xfd, 0x97, 0xbe, 0x63, 0x40, 0x01, 0x3f, 0x23, 0xc4, 0xfa, 0x3e, 
  0x1f, 0xe4, 0xcd, 0xbf, 0xab, 0xd9, 0xff, 0x3f, 0x2d, 0x0d, 0x17, 0xbf, 
  0x25, 0xae, 0xe8, 0xbe, 0x2e, 0xac, 0xca, 0x3e, 0x36, 0x13, 0x24, 0xbe, 
  0xe2, 0x93, 0xf4, 0x3e, 0xc6, 0x1c, 0x2c, 0x3e, 0x32, 0xd9, 0xc4, 0x3d, 
  0x03, 0xb3, 0x27, 0x3f, 0x78, 0x1c, 0xc9, 0xbe, 0x37, 0x19, 0xe8, 0x3e, 
  0xb5, 0x30, 0x82, 0x3e, 0xc3, 0xd7, 0xba, 0xbe, 0x92, 0x9b, 0xde, 0x3e, 
  0xae, 0xa9, 0xb7, 0x3e, 0xaa, 0x34, 0xe3, 0xbe, 0x79, 0xf0, 0x7c, 0xbf, 
  0xb6, 0x8d, 0x88, 0xbe, 0x54, 0x4b, 0x15, 0xbc, 0x93, 0x36, 0x8c, 0xbf, 
  0xff, 0xd7, 0x57, 0xbe, 0x53, 0x19, 0xde, 0xbe, 0xc9, 0x3a, 0xf5, 0xbd, 
  0x2d, 0x84, 0x39, 0xbf, 0xcc, 0xc2, 0xb1, 0xbf, 0xbc, 0x4a, 0x96, 0x3e, 
  0x67, 0x97, 0x51, 0x3f, 0x95, 0x45, 0x52, 0xba, 0xbc, 0xbb, 0x80, 0xbd, 
  0xf5, 0x79, 0x86, 0x3e, 0xb0, 0xf2, 0x30, 0xbe, 0xa8, 0x24, 0x44, 0xbf, 
  0x27, 0xb0, 0x13, 0xbf, 0x94, 0x63, 0xd0, 0xbf, 0x62, 0x09, 0x15, 0x3f, 
  0x37, 0xb4, 0x6c, 0xbd, 0x5f, 0x7a, 0x7f, 0xbf, 0x4b, 0xab, 0xe2, 0x3e, 
  0x06, 0x10, 0x0e, 0x3e, 0xeb, 0xc6, 0x1b, 0xbe, 0x02, 0x27, 0x23, 0x3e, 
  0x6f, 0x4e, 0x1d, 0x3f, 0x1a, 0xd3, 0x73, 0x3e, 0x07, 0xc4, 0x84, 0xbe, 
  0x07, 0xd9, 0x22, 0x3f, 0xfe, 0x30, 0xcf, 0xbf, 0xcc, 0xaa, 0x89, 0xc0, 
  0xbb, 0xeb, 0x2a, 0x3e, 0xad, 0x8a, 0xba, 0xbf, 0xb2, 0x59, 0x6b, 0x3e, 
  0x3d, 0x5f, 0xf4, 0xbf, 0xf1, 0x66, 0x9d, 0x3f, 0x0a, 0xce, 0x34, 0x3e, 
  0xc7, 0x25, 0x9d, 0xbe, 0xb5, 0x6f, 0x94, 0x3d, 0x96, 0x5e, 0x1a, 0x3f, 
  0x73, 0x47, 0x56, 0x3e, 0xf4, 0x5f, 0x21, 0x3f, 0x6e, 0xca, 0x34, 0xbf, 
  0x3e, 0x3c, 0x88, 0xc0, 0x88, 0x22, 0x87, 0x3d, 0xb9, 0x5e, 0x43, 0xc0, 
  0x34, 0xf2, 0xa0, 0xbf, 0x8f, 0xb9, 0x51, 0x40, 0x99, 0x21, 0x22, 0x3c, 
  0x5d, 0xe2, 0x9e, 0xbf, 0x67, 0x08, 0xb3, 0x3d, 0x14, 0x14, 0x26, 0xc0, 
  0x5c, 0x4f, 0xbf, 0x3e, 0xe2, 0xa3, 0x96, 0xbf, 0x2c, 0x77, 0xc6, 0x3d, 
  0xff, 0xba, 0x91, 0x3e, 0xa6, 0x56, 0x5d, 0xc0, 0x2e, 0x7a, 0x9e, 0x3e, 
  0x65, 0x97, 0x9d, 0xc0, 0xa0, 0xfe, 0xe6, 0x3c, 0xf6, 0x8c, 0x0a, 0x3f, 
  0x7b, 0x37, 0x00, 0xbf, 0xec, 0x63, 0x22, 0x3d, 0x9a, 0x8d, 0x2b, 0x3f, 
  0xb2, 0x08, 0x93, 0xbe, 0x76, 0xfe, 0x19, 0xbe, 0x77, 0xea, 0x78, 0x3f, 
  0xbc, 0xf6, 0x27, 0xbf, 0xc8, 0xd0, 0xe7, 0x3d, 0x9f, 0x99, 0x1e, 0x3e, 
  0x76, 0x19, 0x9d, 0x3e, 0x26, 0x3f, 0xa3, 0x3e, 0xe8, 0xce, 0x9e, 0x3e, 
  0xe7, 0x9e, 0xc0, 0x3e, 0x99, 0xd7, 0x4f, 0xbf, 0x80, 0x9d, 0x3c, 0x3e, 
  0x7e, 0x49, 0x25, 0x3e, 0x32, 0xa4, 0x29, 0x3f, 0x7e, 0x2b, 0xa4, 0x3d, 
  0xcc, 0x8a, 0x17, 0xc0, 0xa8, 0x03, 0xaa, 0x3f, 0x5c, 0x0d, 0x75, 0xbf, 
  0x92, 0x57, 0x26, 0xbf, 0x21, 0x73, 0x89, 0x3f, 0x1d, 0x3a, 0x85, 0x3e, 
  0x63, 0x24, 0x93, 0x3e, 0x5f, 0xd4, 0xa3, 0xbe, 0x93, 0xf7, 0xb3, 0x3e, 
  0x92, 0x2e, 0x31, 0x3f, 0x65, 0x16, 0x1a, 0xbe, 0xa4, 0x88, 0x22, 0x3f, 
  0xe0, 0xee, 0x80, 0x3c, 0xfe, 0xfb, 0x2c, 0x3f, 0xab, 0xc8, 0xee, 0xbf, 
  0xc8, 0x3a, 0x39, 0xc0, 0x42, 0xf3, 0x36, 0x3f, 0x08, 0x58, 0x16, 0x3e, 
  0x5d, 0xa6, 0x25, 0xbe, 0xb4, 0x72, 0x03, 0xbe, 0x09, 0x06, 0xf2, 0x3f, 
  0xb4, 0x22, 0x89, 0xbd, 0x26, 0xf3, 0x95, 0x3e, 0x38, 0x59, 0x71, 0x3e, 
  0x14, 0xe2, 0x78, 0x3f, 0x82, 0x2b, 0x3f, 0x3f, 0x9c, 0x18, 0x32, 0x3f, 
  0xd3, 0x98, 0x60, 0xbf, 0xdb, 0x5b, 0x59, 0xbf, 0xb0, 0xaf, 0x8c, 0xbd, 
  0x53, 0x0c, 0x78, 0xbf, 0x0f, 0x08, 0x85, 0x3d, 0x78, 0x2f, 0x57, 0x40, 
  0xe1, 0x20, 0x5b, 0x3f, 0xce, 0xb9, 0x37, 0xbe, 0xe6, 0x48, 0xc8, 0x3c, 
  0x83, 0x0c, 0x2d, 0xbe, 0xa6, 0xc4, 0xd4, 0x3e, 0x42, 0x75, 0xbd, 0x3d, 
  0x7e, 0xa5, 0x23, 0x3e, 0x2a, 0x0e, 0x2f, 0xbd, 0xd4, 0xaa, 0x3b, 0xbf, 
  0x5e, 0x23, 0x31, 0xbb, 0x4c, 0xa4, 0x04, 0xc0, 0xcb, 0x6b, 0xb2, 0x3e, 
  0x93, 0x9e, 0x64, 0x3e, 0x1b, 0xe0, 0x72, 0xbf, 0x4c, 0x90, 0x29, 0x3e, 
  0x52, 0x59, 0x1c, 0x3d, 0xd9, 0x99, 0xb3, 0x3d, 0x07, 0xa5, 0x98, 0x3e, 
  0x5b, 0x97, 0xad, 0x3e, 0x56, 0x72, 0xa4, 0x3f, 0x50, 0xab, 0x08, 0xbe, 
  0x84, 0x72, 0x72, 0x3e, 0xb6, 0xf4, 0xa0, 0xbd, 0x28, 0x34, 0x4e, 0xbe, 
  0x7d, 0xc3, 0x60, 0x3e, 0xe5, 0xc3, 0xc8, 0x3b, 0xb5, 0x97, 0xca, 0xbf, 
  0x4f, 0xc6, 0x13, 0x3f, 0x40, 0x3b, 0x47, 0xbc, 0x87, 0xdf, 0x46, 0x3e, 
  0xf5, 0xf5, 0x91, 0x3e, 0x85, 0x00, 0xa8, 0xbf, 0x26, 0x85, 0x27, 0x40, 
  0x2e, 0x33, 0x78, 0x3f, 0xed, 0x17, 0x89, 0xbf, 0x59, 0x40, 0x23, 0x3d, 
  0xfd, 0x86, 0xb5, 0x3e, 0xa7, 0x88, 0x24, 0x3e, 0x58, 0xcd, 0x0d, 0x3d, 
  0x00, 0x48, 0x30, 0xbd, 0x62, 0xdf, 0xe9, 0x3e, 0xfe, 0xe1, 0x3a, 0xbf, 
  0x7c, 0x2d, 0xd8, 0x3e, 0xa0, 0xad, 0xf5, 0xbc, 0x2d, 0x14, 0xa7, 0xbe, 
  0xce, 0x1b, 0x82, 0x3e, 0xeb, 0x5c, 0xfd, 0xbd, 0xc2, 0x88, 0xc2, 0xbe, 
  0x17, 0x71, 0xc9, 0xbe, 0xa8, 0xef, 0x11, 0xbe, 0x27, 0x9e, 0x84, 0x3e, 
  0xa4, 0x8d, 0x81, 0xbe, 0xc3, 0xd2, 0x93, 0x3e, 0xfe, 0x10, 0xdc, 0xbc, 
  0x76, 0xd2, 0x95, 0xbc, 0xd5, 0xa5, 0x3d, 0xbf, 0x17, 0x37, 0x85, 0xbe, 
  0x64, 0x85, 0xb9, 0xbd, 0x29, 0xac, 0x05, 0x3e, 0xb1, 0x28, 0x43, 0x3d, 
  0x86, 0xf5, 0x86, 0xbe, 0xac, 0x92, 0x82, 0xbe, 0xd6, 0xbf, 0xa4, 0xbd, 
  0x62, 0x7f, 0xa7, 0xbe, 0xef, 0x18, 0xf6, 0xbd, 0x63, 0x43, 0x7a, 0x3e, 
  0x3f, 0x51, 0xf4, 0x3e, 0xfa, 0xae, 0x89, 0x3e, 0xb1, 0xef, 0x39, 0xbf, 
  0x33, 0x13, 0x91, 0xbe, 0x4f, 0x9b, 0xa4, 0xbe, 0xc4, 0x75, 0x84, 0xbc, 
  0xb4, 0x80, 0x7e, 0x3e, 0x3b, 0xeb, 0x32, 0x3e, 0x11, 0x44, 0x8e, 0x3e, 
  0x14, 0xa5, 0x58, 0xbe, 0xc0, 0xbf, 0xe4, 0xbf, 0xe7, 0xab, 0x40, 0x3f, 
  0x2c, 0xef, 0xc3, 0x3e, 0x0f, 0x55, 0x00, 0xc0, 0xff, 0x12, 0xa0, 0xbf, 
  0xf6, 0xfa, 0x59, 0x3e, 0xd5, 0x22, 0x0e, 0xbf, 0xac, 0xc3, 0x92, 0xbf, 
  0x91, 0x71, 0xa4, 0x3e, 0xf2, 0x41, 0x4e, 0xbe, 0x58, 0x35, 0xa5, 0x3e, 
  0xa2, 0xeb, 0x4a, 0xbf, 0xd2, 0xdf, 0x64, 0xbf, 0x3c, 0x1b, 0x63, 0x3e, 
  0xe3, 0x37, 0xcd, 0x3f, 0x37, 0xd7, 0x98, 0xbe, 0xf8, 0xbf, 0x85, 0xbd, 
  0xc2, 0xb9, 0x3e, 0xbd, 0xdd, 0x0e, 0x9c, 0xbf, 0x42, 0x37, 0x94, 0x3f, 
  0x90, 0x61, 0x3b, 0x3c, 0xc8, 0x06, 0x9b, 0xbe, 0x16, 0xe6, 0xa6, 0x3f, 
  0x94, 0xc8, 0x6b, 0xbf, 0x83, 0xb1, 0x70, 0xbf, 0x43, 0x40, 0xd7, 0xbd, 
  0xfa, 0x5a, 0x78, 0x3e, 0x26, 0x2d, 0x0a, 0x3e, 0x6c, 0xef, 0x9c, 0x3d, 
  0x17, 0x9e, 0x1f, 0x3f, 0x54, 0xd1, 0xb8, 0x3e, 0x12, 0x79, 0x34, 0x3e, 
  0x40, 0xda, 0xb3, 0xbf, 0x9e, 0x6c, 0x16, 0x3f, 0xd5, 0x67, 0xb3, 0xbe, 
  0x2b, 0xfc, 0x79, 0xbf, 0x27, 0x93, 0x98, 0xbf, 0x9b, 0xa0, 0x84, 0x3e, 
  0x05, 0x11, 0x5a, 0xbf, 0x43, 0x2d, 0x81, 0xbf, 0xd2, 0x1b, 0x51, 0x3e, 
  0xbb, 0x99, 0x7f, 0xbf, 0x05, 0xa7, 0x90, 0xbe, 0x65, 0xa0, 0x76, 0xbf, 
  0x44, 0xfd, 0xb2, 0xbe, 0x33, 0x0f, 0xcf, 0xbd, 0x30, 0x8d, 0x91, 0x3f, 
  0x4e, 0x03, 0xe0, 0xbb, 0x80, 0xcc, 0xab, 0x3d, 0x5f, 0x42, 0x6b, 0xbe, 
  0x6e, 0xa5, 0x8f, 0xbf, 0xb7, 0xeb, 0x3e, 0x3e, 0x4f, 0x39, 0xa7, 0xbd, 
  0xdf, 0x19, 0x96, 0xbf, 0xa4, 0x36, 0x94, 0x3f, 0x7f, 0xa3, 0x08, 0xbf, 
  0x3d, 0x97, 0xdc, 0xbe, 0x89, 0x6a, 0xe9, 0x3e, 0x91, 0xec, 0x90, 0x3e, 
  0x98, 0x31, 0xae, 0xbe, 0x95, 0xa1, 0xe8, 0xbd, 0xc0, 0x7d, 0x70, 0x3f, 
  0xa8, 0x72, 0x14, 0x3e, 0x70, 0xac, 0x01, 0x3d, 0xd6, 0x60, 0xbc, 0x3e, 
  0xcc, 0xb0, 0xed, 0xbe, 0x7e, 0x90, 0x2b, 0x3e, 0xa2, 0xf7, 0xf2, 0x3e, 
  0x98, 0xd1, 0x06, 0x3f, 0x96, 0x02, 0x40, 0x3e, 0x45, 0xe4, 0x08, 0x3f, 
  0x65, 0xb5, 0x47, 0xbe, 0xe2, 0xf8, 0xde, 0xbd, 0xa0, 0x7b, 0x85, 0x3e, 
  0x83, 0x76, 0x02, 0x3e, 0x15, 0xcb, 0xf3, 0x3e, 0x94, 0xe7, 0xb1, 0x3e, 
  0xbd, 0x76, 0x1f, 0x3e, 0xe0, 0x82, 0x7f, 0xbf, 0x6a, 0x11, 0x04, 0x3f, 
  0x8c, 0xf9, 0x06, 0xbe, 0x41, 0x71, 0x71, 0x3e, 0xdd, 0x7d, 0x0b, 0x3f, 
  0x00, 0x39, 0xde, 0xbf, 0xf8, 0xe3, 0xfe, 0x3f, 0x56, 0x12, 0x88, 0xbd, 
  0xb3, 0x99, 0x4d, 0xbe, 0x2a, 0x02, 0xe1, 0x3e, 0xb9, 0x3e, 0x74, 0x3e, 
  0x1e, 0xb6, 0xf0, 0x3d, 0x10, 0x8b, 0x95, 0x3d, 0x32, 0xea, 0x1d, 0x3e, 
  0x17, 0x76, 0xd5, 0x3e, 0xbe, 0xb3, 0x19, 0xbf, 0x80, 0x09, 0xd0, 0x3e, 
  0x79, 0x86, 0xa0, 0x3e, 0x9e, 0xfe, 0xff, 0xff, 0x04, 0x00, 0x00, 0x00, 
  0xc0, 0x00, 0x00, 0x00, 0xd2, 0x8f, 0xd8, 0xbf, 0x75, 0xc2, 0xee, 0xbf, 
  0x9e, 0x34, 0x2f, 0x3f, 0xbf, 0x8c, 0xe6, 0x3e, 0x22, 0xcf, 0xf6, 0xbf, 
  0x7b, 0x8e, 0xcd, 0x3b, 0xb8, 0x7a, 0x15, 0xbf, 0xc2, 0xdf, 0x01, 0xbf, 
  0x35, 0x03, 0x03, 0x40, 0x64, 0xb6, 0x89, 0xbf, 0xe0, 0x69, 0xe7, 0x3f, 
  0xab, 0xc8, 0xa8, 0xbe, 0x9b, 0xdd, 0xe1, 0x3e, 0xb0, 0xad, 0x64, 0x3f, 
  0x6d, 0xe2, 0x86, 0x3f, 0x95, 0x1c, 0x44, 0xbf, 0x00, 0xbb, 0xa5, 0xbe, 
  0x59, 0x5e, 0xeb, 0xbe, 0x0b, 0xde, 0xbf, 0xbf, 0x9c, 0x8a, 0x99, 0xbf, 
  0x6a, 0xba, 0x23, 0xbf, 0x8f, 0x2a, 0xca, 0xbe, 0xbe, 0xd4, 0x53, 0x3f, 
  0x01, 0xd8, 0xa8, 0xbf, 0x83, 0xa7, 0x38, 0xbf, 0x3d, 0xe4, 0x36, 0x3f, 
  0x08, 0xab, 0xc2, 0x3e, 0x3e, 0x00, 0x94, 0x3f, 0xa1, 0x1c, 0x84, 0xbe, 
  0xfd, 0x6d, 0xc7, 0xbf, 0xf2, 0xe7, 0xde, 0xbf, 0x94, 0xd2, 0xac, 0x3e, 
  0x72, 0x85, 0x82, 0x3e, 0x2d, 0x5e, 0xab, 0x3f, 0x08, 0xc8, 0x5d, 0x3f, 
  0xca, 0x46, 0xfc, 0x3f, 0xce, 0x53, 0xe0, 0x3e, 0x4c, 0x1d, 0xf4, 0x3e, 
  0x03, 0x35, 0x1a, 0x3e, 0x38, 0x48, 0xd7, 0x3f, 0x36, 0xc4, 0x11, 0xc0, 
  0xc4, 0x62, 0xcd, 0x3e, 0x70, 0x09, 0xbe, 0xbf, 0x54, 0x1b, 0x1d, 0xbf, 
  0x32, 0xc2, 0x08, 0x3f, 0x60, 0xce, 0x47, 0x3f, 0x2c, 0x00, 0x04, 0x3f, 
  0xd0, 0x3d, 0x67, 0xbe, 0x68, 0xfa, 0xff, 0xff, 0x6c, 0xfa, 0xff, 0xff, 
  0x0f, 0x00, 0x00, 0x00, 0x4d, 0x4c, 0x49, 0x52, 0x20, 0x43, 0x6f, 0x6e, 
  0x76, 0x65, 0x72, 0x74, 0x65, 0x64, 0x2e, 0x00, 0x01, 0x00, 0x00, 0x00, 
  0x14, 0x00, 0x00, 0x00, 0x00, 0x00, 0x0e, 0x00, 0x18, 0x00, 0x14, 0x00, 
  0x10, 0x00, 0x0c, 0x00, 0x08, 0x00, 0x04, 0x00, 0x0e, 0x00, 0x00, 0x00, 
  0x14, 0x00, 0x00, 0x00, 0x1c, 0x00, 0x00, 0x00, 0x24, 0x01, 0x00, 0x00, 
  0x28, 0x01, 0x00, 0x00, 0x2c, 0x01, 0x00, 0x00, 0x04, 0x00, 0x00, 0x00, 
  0x6d, 0x61, 0x69, 0x6e, 0x00, 0x00, 0x00, 0x00, 0x04, 0x00, 0x00, 0x00, 
  0xcc, 0x00, 0x00, 0x00, 0x84, 0x00, 0x00, 0x00, 0x50, 0x00, 0x00, 0x00, 
  0x14, 0x00, 0x00, 0x00, 0x00, 0x00, 0x0e, 0x00, 0x1a, 0x00, 0x14, 0x00, 
  0x10, 0x00, 0x0c, 0x00, 0x0b, 0x00, 0x04, 0x00, 0x0e, 0x00, 0x00, 0x00, 
  0x1c, 0x00, 0x00, 0x00, 0x00, 0x00, 0x00, 0x09, 0x1c, 0x00, 0x00, 0x00, 
  0x20, 0x00, 0x00, 0x00, 0x01, 0x00, 0x00, 0x00, 0x00, 0x00, 0x06, 0x00, 
  0x08, 0x00, 0x04, 0x00, 0x06, 0x00, 0x00, 0x00, 0x00, 0x00, 0x80, 0x3f, 
  0x01, 0x00, 0x00, 0x00, 0x0a, 0x00, 0x00, 0x00, 0x01, 0x00, 0x00, 0x00, 
  0x09, 0x00, 0x00, 0x00, 0x9a, 0xff, 0xff, 0xff, 0x10, 0x00, 0x00, 0x00, 
  0x00, 0x00, 0x00, 0x08, 0x0c, 0x00, 0x00, 0x00, 0x10, 0x00, 0x00, 0x00, 
  0x30, 0xfb, 0xff, 0xff, 0x01, 0x00, 0x00, 0x00, 0x09, 0x00, 0x00, 0x00, 
  0x03, 0x00, 0x00, 0x00, 0x08, 0x00, 0x00, 0x00, 0x01, 0x00, 0x00, 0x00, 
  0x03, 0x00, 0x00, 0x00, 0xca, 0xff, 0xff, 0xff, 0x10, 0x00, 0x00, 0x00, 
  0x00, 0x00, 0x00, 0x08, 0x10, 0x00, 0x00, 0x00, 0x14, 0x00, 0x00, 0x00, 
  0xba, 0xff, 0xff, 0xff, 0x00, 0x00, 0x00, 0x01, 0x01, 0x00, 0x00, 0x00, 
  0x08, 0x00, 0x00, 0x00, 0x03, 0x00, 0x00, 0x00, 0x07, 0x00, 0x00, 0x00, 
  0x02, 0x00, 0x00, 0x00, 0x04, 0x00, 0x00, 0x00, 0x00, 0x00, 0x0e, 0x00, 
  0x16, 0x00, 0x00, 0x00, 0x10, 0x00, 0x0c, 0x00, 0x0b, 0x00, 0x04, 0x00, 
  0x0e, 0x00, 0x00, 0x00, 0x18, 0x00, 0x00, 0x00, 0x00, 0x00, 0x00, 0x08, 
  0x18, 0x00, 0x00, 0x00, 0x1c, 0x00, 0x00, 0x00, 0x00, 0x00, 0x06, 0x00, 
  0x08, 0x00, 0x07, 0x00, 0x06, 0x00, 0x00, 0x00, 0x00, 0x00, 0x00, 0x01, 
  0x01, 0x00, 0x00, 0x00, 0x07, 0x00, 0x00, 0x00, 0x03, 0x00, 0x00, 0x00, 
  0x00, 0x00, 0x00, 0x00, 0x06, 0x00, 0x00, 0x00, 0x05, 0x00, 0x00, 0x00, 
  0x01, 0x00, 0x00, 0x00, 0x0a, 0x00, 0x00, 0x00, 0x01, 0x00, 0x00, 0x00, 
  0x00, 0x00, 0x00, 0x00, 0x0b, 0x00, 0x00, 0x00, 0xf8, 0x03, 0x00, 0x00, 
  0xa0, 0x03, 0x00, 0x00, 0x48, 0x03, 0x00, 0x00, 0x0c, 0x03, 0x00, 0x00, 
  0xd0, 0x02, 0x00, 0x00, 0x74, 0x02, 0x00, 0x00, 0x24, 0x02, 0x00, 0x00, 
  0x84, 0x01, 0x00, 0x00, 0xe4, 0x00, 0x00, 0x00, 0x60, 0x00, 0x00, 0x00, 
  0x04, 0x00, 0x00, 0x00, 0x4a, 0xfc, 0xff, 0xff, 0x00, 0x00, 0x00, 0x01, 
  0x14, 0x00, 0x00, 0x00, 0x1c, 0x00, 0x00, 0x00, 0x1c, 0x00, 0x00, 0x00, 
  0x0b, 0x00, 0x00, 0x00, 0x34, 0x00, 0x00, 0x00, 0x02, 0x00, 0x00, 0x00, 
  0xff, 0xff, 0xff, 0xff, 0x03, 0x00, 0x00, 0x00, 0x34, 0xfc, 0xff, 0xff, 
  0x1b, 0x00, 0x00, 0x00, 0x53, 0x74, 0x61, 0x74, 0x65, 0x66, 0x75, 0x6c, 
  0x50, 0x61, 0x72, 0x74, 0x69, 0x74, 0x69, 0x6f, 0x6e, 0x65, 0x64, 0x43, 
  0x61, 0x6c, 0x6c, 0x5f, 0x31, 0x3a, 0x30, 0x00, 0x02, 0x00, 0x00, 0x00, 
  0x01, 0x00, 0x00, 0x00, 0x03, 0x00, 0x00, 0x00, 0xa2, 0xfc, 0xff, 0xff, 
  0x00, 0x00, 0x00, 0x01, 0x14, 0x00, 0x00, 0x00, 0x1c, 0x00, 0x00, 0x00, 
  0x1c, 0x00, 0x00, 0x00, 0x0a, 0x00, 0x00, 0x00, 0x5c, 0x00, 0x00, 0x00, 
  0x02, 0x00, 0x00, 0x00, 0xff, 0xff, 0xff, 0xff, 0x03, 0x00, 0x00, 0x00, 
  0x8c, 0xfc, 0xff, 0xff, 0x40, 0x00, 0x00, 0x00, 0x73, 0x65, 0x71, 0x75, 
  0x65, 0x6e, 0x74, 0x69, 0x61, 0x6c, 0x5f, 0x32, 0x5f, 0x31, 0x2f, 0x64, 
  0x65, 0x6e, 0x73, 0x65, 0x5f, 0x38, 0x5f, 0x31, 0x2f, 0x4d, 0x61, 0x74, 
  0x4d, 0x75, 0x6c, 0x3b, 0x73, 0x65, 0x71, 0x75, 0x65, 0x6e, 0x74, 0x69, 
  0x61, 0x6c, 0x5f, 0x32, 0x5f, 0x31, 0x2f, 0x64, 0x65, 0x6e, 0x73, 0x65, 
  0x5f, 0x38, 0x5f, 0x31, 0x2f, 0x42, 0x69, 0x61, 0x73, 0x41, 0x64, 0x64, 
  0x00, 0x00, 0x00, 0x00, 0x02, 0x00, 0x00, 0x00, 0x01, 0x00, 0x00, 0x00, 
  0x03, 0x00, 0x00, 0x00, 0x22, 0xfd, 0xff, 0xff, 0x00, 0x00, 0x00, 0x01, 
  0x14, 0x00, 0x00, 0x00, 0x1c, 0x00, 0x00, 0x00, 0x1c, 0x00, 0x00, 0x00, 
  0x09, 0x00, 0x00, 0x00, 0x78, 0x00, 0x00, 0x00, 0x02, 0x00, 0x00, 0x00, 
  0xff, 0xff, 0xff, 0xff, 0x10, 0x00, 0x00, 0x00, 0x0c, 0xfd, 0xff, 0xff, 
  0x5e, 0x00, 0x00, 0x00, 0x73, 0x65, 0x71, 0x75, 0x65, 0x6e, 0x74, 0x69, 
  0x61, 0x6c, 0x5f, 0x32, 0x5f, 0x31, 0x2f, 0x64, 0x65, 0x6e, 0x73, 0x65, 
  0x5f, 0x37, 0x5f, 0x31, 0x2f, 0x4d, 0x61, 0x74, 0x4d, 0x75, 0x6c, 0x3b, 
  0x73, 0x65, 0x71, 0x75, 0x65, 0x6e, 0x74, 0x69, 0x61, 0x6c, 0x5f, 0x32, 
  0x5f, 0x31, 0x2f, 0x64, 0x65, 0x6e, 0x73, 0x65, 0x5f, 0x37, 0x5f, 0x31, 
  0x2f, 0x52, 0x65, 0x6c, 0x75, 0x3b, 0x73, 0x65, 0x71, 0x75, 0x65, 0x6e, 
  0x74, 0x69, 0x61, 0x6c, 0x5f, 0x32, 0x5f, 0x31, 0x2f, 0x64, 0x65, 0x6e, 
  0x73, 0x65, 0x5f, 0x37, 0x5f, 0x31, 0x2f, 0x42, 0x69, 0x61, 0x73, 0x41, 
  0x64, 0x64, 0x00, 0x00, 0x02, 0x00, 0x00, 0x00, 0x01, 0x00, 0x00, 0x00, 
  0x10, 0x00, 0x00, 0x00, 0xbe, 0xfd, 0xff, 0xff, 0x00, 0x00, 0x00, 0x01, 
  0x14, 0x00, 0x00, 0x00, 0x1c, 0x00, 0x00, 0x00, 0x1c, 0x00, 0x00, 0x00, 
  0x08, 0x00, 0x00, 0x00, 0x78, 0x00, 0x00, 0x00, 0x02, 0x00, 0x00, 0x00, 
  0xff, 0xff, 0xff, 0xff, 0x20, 0x00, 0x00, 0x00, 0xa8, 0xfd, 0xff, 0xff, 
  0x5e, 0x00, 0x00, 0x00, 0x73, 0x65, 0x71, 0x75, 0x65, 0x6e, 0x74, 0x69, 
  0x61, 0x6c, 0x5f, 0x32, 0x5f, 0x31, 0x2f, 0x64, 0x65, 0x6e, 0x73, 0x65, 
  0x5f, 0x36, 0x5f, 0x31, 0x2f, 0x4d, 0x61, 0x74, 0x4d, 0x75, 0x6c, 0x3b, 
  0x73, 0x65, 0x71, 0x75, 0x65, 0x6e, 0x74, 0x69, 0x61, 0x6c, 0x5f, 0x32, 
  0x5f, 0x31, 0x2f, 0x64, 0x65, 0x6e, 0x73, 0x65, 0x5f, 0x36, 0x5f, 0x31, 
  0x2f, 0x52, 0x65, 0x6c, 0x75, 0x3b, 0x73, 0x65, 0x71, 0x75, 0x65, 0x6e, 
  0x74, 0x69, 0x61, 0x6c, 0x5f, 0x32, 0x5f, 0x31, 0x2f, 0x64, 0x65, 0x6e, 
  0x73, 0x65, 0x5f, 0x36, 0x5f, 0x31, 0x2f, 0x42, 0x69, 0x61, 0x73, 0x41, 
  0x64, 0x64, 0x00, 0x00, 0x02, 0x00, 0x00, 0x00, 0x01, 0x00, 0x00, 0x00, 
  0x20, 0x00, 0x00, 0x00, 0xae, 0xfe, 0xff, 0xff, 0x00, 0x00, 0x00, 0x01, 
  0x10, 0x00, 0x00, 0x00, 0x10, 0x00, 0x00, 0x00, 0x07, 0x00, 0x00, 0x00, 
  0x2c, 0x00, 0x00, 0x00, 0x34, 0xfe, 0xff, 0xff, 0x1f, 0x00, 0x00, 0x00, 
  0x73, 0x65, 0x71, 0x75, 0x65, 0x6e, 0x74, 0x69, 0x61, 0x6c, 0x5f, 0x32, 
  0x5f, 0x31, 0x2f, 0x64, 0x65, 0x6e, 0x73, 0x65, 0x5f, 0x36, 0x5f, 0x31, 
  0x2f, 0x4d, 0x61, 0x74, 0x4d, 0x75, 0x6c, 0x00, 0x02, 0x00, 0x00, 0x00, 
  0x20, 0x00, 0x00, 0x00, 0x04, 0x00, 0x00, 0x00, 0xfa, 0xfe, 0xff, 0xff, 
  0x00, 0x00, 0x00, 0x01, 0x10, 0x00, 0x00, 0x00, 0x10, 0x00, 0x00, 0x00, 
  0x06, 0x00, 0x00, 0x00, 0x3c, 0x00, 0x00, 0x00, 0x80, 0xfe, 0xff, 0xff, 
  0x2f, 0x00, 0x00, 0x00, 0x73, 0x65, 0x71, 0x75, 0x65, 0x6e, 0x74, 0x69, 
  0x61, 0x6c, 0x5f, 0x32, 0x5f, 0x31, 0x2f, 0x64, 0x65, 0x6e, 0x73, 0x65, 
  0x5f, 0x36, 0x5f, 0x31, 0x2f, 0x42, 0x69, 0x61, 0x73, 0x41, 0x64, 0x64, 
  0x2f, 0x52, 0x65, 0x61, 0x64, 0x56, 0x61, 0x72, 0x69, 0x61, 0x62, 0x6c, 
  0x65, 0x4f, 0x70, 0x00, 0x01, 0x00, 0x00, 0x00, 0x20, 0x00, 0x00, 0x00, 
  0x52, 0xff, 0xff, 0xff, 0x00, 0x00, 0x00, 0x01, 0x10, 0x00, 0x00, 0x00, 
  0x10, 0x00, 0x00, 0x00, 0x05, 0x00, 0x00, 0x00, 0x1c, 0x00, 0x00, 0x00, 
  0xd8, 0xfe, 0xff, 0xff, 0x0f, 0x00, 0x00, 0x00, 0x61, 0x72, 0x69, 0x74, 
  0x68, 0x2e, 0x63, 0x6f, 0x6e, 0x73, 0x74, 0x61, 0x6e, 0x74, 0x33, 0x00, 
  0x01, 0x00, 0x00, 0x00, 0x10, 0x00, 0x00, 0x00, 0x8a, 0xff, 0xff, 0xff, 
  0x00, 0x00, 0x00, 0x01, 0x10, 0x00, 0x00, 0x00, 0x10, 0x00, 0x00, 0x00, 
  0x04, 0x00, 0x00, 0x00, 0x1c, 0x00, 0x00, 0x00, 0x10, 0xff, 0xff, 0xff, 
  0x0f, 0x00, 0x00, 0x00, 0x61, 0x72, 0x69, 0x74, 0x68, 0x2e, 0x63, 0x6f, 
  0x6e, 0x73, 0x74, 0x61, 0x6e, 0x74, 0x32, 0x00, 0x01, 0x00, 0x00, 0x00, 
  0x03, 0x00, 0x00, 0x00, 0xc2, 0xff, 0xff, 0xff, 0x00, 0x00, 0x00, 0x01, 
  0x10, 0x00, 0x00, 0x00, 0x10, 0x00, 0x00, 0x00, 0x03, 0x00, 0x00, 0x00, 
  0x1c, 0x00, 0x00, 0x00, 0x48, 0xff, 0xff, 0xff, 0x0f, 0x00, 0x00, 0x00, 
  0x61, 0x72, 0x69, 0x74, 0x68, 0x2e, 0x63, 0x6f, 0x6e, 0x73, 0x74, 0x61, 
  0x6e, 0x74, 0x31, 0x00, 0x02, 0x00, 0x00, 0x00, 0x10, 0x00, 0x00, 0x00, 
  0x20, 0x00, 0x00, 0x00, 0x00, 0x00, 0x16, 0x00, 0x18, 0x00, 0x14, 0x00, 
  0x00, 0x00, 0x10, 0x00, 0x0c, 0x00, 0x08, 0x00, 0x00, 0x00, 0x00, 0x00, 
  0x00, 0x00, 0x07, 0x00, 0x16, 0x00, 0x00, 0x00, 0x00, 0x00, 0x00, 0x01, 
  0x10, 0x00, 0x00, 0x00, 0x10, 0x00, 0x00, 0x00, 0x02, 0x00, 0x00, 0x00, 
  0x1c, 0x00, 0x00, 0x00, 0x9c, 0xff, 0xff, 0xff, 0x0e, 0x00, 0x00, 0x00, 
  0x61, 0x72, 0x69, 0x74, 0x68, 0x2e, 0x63, 0x6f, 0x6e, 0x73, 0x74, 0x61, 
  0x6e, 0x74, 0x00, 0x00, 0x02, 0x00, 0x00, 0x00, 0x03, 0x00, 0x00, 0x00, 
  0x10, 0x00, 0x00, 0x00, 0x00, 0x00, 0x16, 0x00, 0x1c, 0x00, 0x18, 0x00, 
  0x00, 0x00, 0x14, 0x00, 0x10, 0x00, 0x0c, 0x00, 0x00, 0x00, 0x00, 0x00, 
  0x08, 0x00, 0x07, 0x00, 0x16, 0x00, 0x00, 0x00, 0x00, 0x00, 0x00, 0x01, 
  0x14, 0x00, 0x00, 0x00, 0x20, 0x00, 0x00, 0x00, 0x20, 0x00, 0x00, 0x00, 
  0x01, 0x00, 0x00, 0x00, 0x40, 0x00, 0x00, 0x00, 0x02, 0x00, 0x00, 0x00, 
  0xff, 0xff, 0xff, 0xff, 0x04, 0x00, 0x00, 0x00, 0x04, 0x00, 0x04, 0x00, 
  0x04, 0x00, 0x00, 0x00, 0x21, 0x00, 0x00, 0x00, 0x73, 0x65, 0x72, 0x76, 
  0x69, 0x6e, 0x67, 0x5f, 0x64, 0x65, 0x66, 0x61, 0x75, 0x6c, 0x74, 0x5f, 
  0x6b, 0x65, 0x72, 0x61, 0x73, 0x5f, 0x74, 0x65, 0x6e, 0x73, 0x6f, 0x72, 
  0x5f, 0x31, 0x30, 0x3a, 0x30, 0x00, 0x00, 0x00, 0x02, 0x00, 0x00, 0x00, 
  0x01, 0x00, 0x00, 0x00, 0x04, 0x00, 0x00, 0x00, 0x02, 0x00, 0x00, 0x00, 
  0x20, 0x00, 0x00, 0x00, 0x04, 0x00, 0x00, 0x00, 0xf4, 0xff, 0xff, 0xff, 
  0x19, 0x00, 0x00, 0x00, 0x00, 0x00, 0x00, 0x19, 0x0c, 0x00, 0x0c, 0x00, 
  0x0b, 0x00, 0x00, 0x00, 0x00, 0x00, 0x04, 0x00, 0x0c, 0x00, 0x00, 0x00, 
  0x09, 0x00, 0x00, 0x00, 0x00, 0x00, 0x00, 0x09
};
const unsigned int emg_model_data_len = 5060;